{
  "version": "1.0",
  "truncation": null,
  "padding": null,
  "added_tokens": [
    {
      "id": 0,
      "content": "[PAD]",
      "single_word": false,
      "lstrip": false,
      "rstrip": false,
      "normalized": false,
      "special": true
    },
    {
      "id": 1,
      "content": "[UNK]",
      "single_word": false,
      "lstrip": false,
      "rstrip": false,
      "normalized": false,
      "special": true
    },
    {
      "id": 2,
      "content": "[CLS]",
      "single_word": false,
      "lstrip": false,
      "rstrip": false,
      "normalized": false,
      "special": true
    },
    {
      "id": 3,
      "content": "[SEP]",
      "single_word": false,
      "lstrip": false,
      "rstrip": false,
      "normalized": false,
      "special": true
    },
    {
      "id": 4,
      "content": "[MASK]",
      "single_word": false,
      "lstrip": false,
      "rstrip": false,
      "normalized": false,
      "special": true
    }
  ],
  "normalizer": {
    "type": "BertNormalizer",
    "clean_text": true,
    "handle_chinese_chars": false,
    "strip_accents": false,
    "lowercase": true
  },
  "pre_tokenizer": {
    "type": "BertPreTokenizer"
  },
  "post_processor": null,
  "decoder": {
    "type": "WordPiece",
    "prefix": "##",
    "cleanup": true
  },
  "model": {
    "type": "WordPiece",
    "unk_token": "[UNK]",
    "continuing_subword_prefix": "##",
    "max_input_chars_per_word": 100,
    "vocab": {
      "[PAD]": 0,
      "[UNK]": 1,
      "[CLS]": 2,
      "[SEP]": 3,
      "[MASK]": 4,
      "!": 5,
      "\"": 6,
      "#": 7,
      "$": 8,
      "%": 9,
      "&": 10,
      "'": 11,
      "(": 12,
      ")": 13,
      "*": 14,
      "+": 15,
      ",": 16,
      "-": 17,
      ".": 18,
      "/": 19,
      "0": 20,
      "1": 21,
      "2": 22,
      "3": 23,
      "4": 24,
      "5": 25,
      "6": 26,
      "7": 27,
      "8": 28,
      "9": 29,
      ":": 30,
      ";": 31,
      "=": 32,
      "?": 33,
      "@": 34,
      "[": 35,
      "\\": 36,
      "]": 37,
      "^": 38,
      "_": 39,
      "`": 40,
      "a": 41,
      "b": 42,
      "c": 43,
      "d": 44,
      "e": 45,
      "f": 46,
      "g": 47,
      "h": 48,
      "i": 49,
      "j": 50,
      "k": 51,
      "l": 52,
      "m": 53,
      "n": 54,
      "o": 55,
      "p": 56,
      "q": 57,
      "r": 58,
      "s": 59,
      "t": 60,
      "u": 61,
      "v": 62,
      "w": 63,
      "x": 64,
      "y": 65,
      "z": 66,
      "{": 67,
      "|": 68,
      "}": 69,
      "~": 70,
      "£": 71,
      "¥": 72,
      "«": 73,
      "¬": 74,
      "®": 75,
      "°": 76,
      "±": 77,
      "²": 78,
      "³": 79,
      "µ": 80,
      "·": 81,
      "¹": 82,
      "½": 83,
      "¿": 84,
      "×": 85,
      "ß": 86,
      "à": 87,
      "á": 88,
      "â": 89,
      "ã": 90,
      "ä": 91,
      "å": 92,
      "æ": 93,
      "ç": 94,
      "è": 95,
      "é": 96,
      "ê": 97,
      "ë": 98,
      "ì": 99,
      "í": 100,
      "î": 101,
      "ï": 102,
      "ð": 103,
      "ñ": 104,
      "ò": 105,
      "ó": 106,
      "ô": 107,
      "ö": 108,
      "ø": 109,
      "ù": 110,
      "ú": 111,
      "û": 112,
      "ü": 113,
      "ý": 114,
      "þ": 115,
      "ā": 116,
      "ă": 117,
      "ć": 118,
      "č": 119,
      "đ": 120,
      "ē": 121,
      "ĕ": 122,
      "ė": 123,
      "ě": 124,
      "ğ": 125,
      "ġ": 126,
      "ħ": 127,
      "ī": 128,
      "ı": 129,
      "ł": 130,
      "ň": 131,
      "ŋ": 132,
      "ō": 133,
      "ŏ": 134,
      "ő": 135,
      "œ": 136,
      "ř": 137,
      "ś": 138,
      "ş": 139,
      "š": 140,
      "ū": 141,
      "ŭ": 142,
      "ų": 143,
      "ž": 144,
      "ơ": 145,
      "ǎ": 146,
      "ǐ": 147,
      "ǔ": 148,
      "ǚ": 149,
      "ǧ": 150,
      "ǰ": 151,
      "ɐ": 152,
      "ɑ": 153,
      "ɔ": 154,
      "ə": 155,
      "ɛ": 156,
      "ɜ": 157,
      "ɡ": 158,
      "ɣ": 159,
      "ɪ": 160,
      "ɫ": 161,
      "ɱ": 162,
      "ɾ": 163,
      "ʁ": 164,
      "ʃ": 165,
      "ʊ": 166,
      "ʎ": 167,
      "ʒ": 168,
      "ʨ": 169,
      "ʰ": 170,
      "ʲ": 171,
      "ʷ": 172,
      "ʻ": 173,
      "ʾ": 174,
      "ʿ": 175,
      "ˁ": 176,
      "ˈ": 177,
      "ˌ": 178,
      "ː": 179,
      "˨": 180,
      "˩": 181,
      "́": 182,
      "̃": 183,
      "̄": 184,
      "̇": 185,
      "̍": 186,
      "̞": 187,
      "̱": 188,
      "͡": 189,
      "΄": 190,
      "ά": 191,
      "έ": 192,
      "ή": 193,
      "ί": 194,
      "α": 195,
      "β": 196,
      "γ": 197,
      "δ": 198,
      "ε": 199,
      "ζ": 200,
      "η": 201,
      "θ": 202,
      "ι": 203,
      "κ": 204,
      "λ": 205,
      "μ": 206,
      "ν": 207,
      "ξ": 208,
      "ο": 209,
      "π": 210,
      "ρ": 211,
      "ς": 212,
      "σ": 213,
      "τ": 214,
      "υ": 215,
      "φ": 216,
      "χ": 217,
      "ψ": 218,
      "ω": 219,
      "ό": 220,
      "ύ": 221,
      "ώ": 222,
      "ϕ": 223,
      "а": 224,
      "б": 225,
      "в": 226,
      "г": 227,
      "д": 228,
      "е": 229,
      "ж": 230,
      "з": 231,
      "и": 232,
      "й": 233,
      "к": 234,
      "л": 235,
      "м": 236,
      "н": 237,
      "о": 238,
      "п": 239,
      "р": 240,
      "с": 241,
      "т": 242,
      "у": 243,
      "ф": 244,
      "х": 245,
      "ч": 246,
      "ш": 247,
      "ы": 248,
      "ь": 249,
      "ю": 250,
      "я": 251,
      "ё": 252,
      "ђ": 253,
      "ј": 254,
      "ћ": 255,
      "ү": 256,
      "ӧ": 257,
      "ӯ": 258,
      "ա": 259,
      "զ": 260,
      "ի": 261,
      "մ": 262,
      "յ": 263,
      "ն": 264,
      "ո": 265,
      "ռ": 266,
      "ւ": 267,
      "֫": 268,
      "ְ": 269,
      "ִ": 270,
      "ֵ": 271,
      "ָ": 272,
      "ֹ": 273,
      "ּ": 274,
      "א": 275,
      "ב": 276,
      "ד": 277,
      "ה": 278,
      "ו": 279,
      "ז": 280,
      "ח": 281,
      "ט": 282,
      "י": 283,
      "כ": 284,
      "ל": 285,
      "ם": 286,
      "ן": 287,
      "נ": 288,
      "ס": 289,
      "ע": 290,
      "ף": 291,
      "פ": 292,
      "ק": 293,
      "ר": 294,
      "ש": 295,
      "ת": 296,
      "ء": 297,
      "أ": 298,
      "إ": 299,
      "ا": 300,
      "ب": 301,
      "ة": 302,
      "ت": 303,
      "ج": 304,
      "ح": 305,
      "خ": 306,
      "د": 307,
      "ذ": 308,
      "ر": 309,
      "ز": 310,
      "س": 311,
      "ش": 312,
      "ط": 313,
      "ع": 314,
      "ف": 315,
      "ق": 316,
      "ك": 317,
      "ل": 318,
      "م": 319,
      "ن": 320,
      "ه": 321,
      "و": 322,
      "ي": 323,
      "َ": 324,
      "ُ": 325,
      "ِ": 326,
      "ّ": 327,
      "ْ": 328,
      "ٱ": 329,
      "ژ": 330,
      "ک": 331,
      "گ": 332,
      "ی": 333,
      "ە": 334,
      "ः": 335,
      "ग": 336,
      "च": 337,
      "ज": 338,
      "ठ": 339,
      "न": 340,
      "प": 341,
      "म": 342,
      "र": 343,
      "ा": 344,
      "ु": 345,
      "्": 346,
      "অ": 347,
      "ত": 348,
      "ম": 349,
      "য": 350,
      "র": 351,
      "্": 352,
      "ં": 353,
      "ક": 354,
      "ગ": 355,
      "ચ": 356,
      "દ": 357,
      "ધ": 358,
      "ન": 359,
      "મ": 360,
      "ર": 361,
      "સ": 362,
      "હ": 363,
      "ા": 364,
      "ી": 365,
      "ો": 366,
      "ச": 367,
      "ட": 368,
      "ப": 369,
      "ய": 370,
      "ர": 371,
      "ஷ": 372,
      "ா": 373,
      "ி": 374,
      "ீ": 375,
      "ಡ": 376,
      "ಬ": 377,
      "ಯ": 378,
      "ರ": 379,
      "ಶ": 380,
      "ಸ": 381,
      "ಾ": 382,
      "ಿ": 383,
      "ക": 384,
      "ട": 385,
      "പ": 386,
      "ള": 387,
      "ി": 388,
      "േ": 389,
      "ോ": 390,
      "്": 391,
      "ก": 392,
      "ข": 393,
      "ค": 394,
      "ง": 395,
      "จ": 396,
      "ช": 397,
      "ด": 398,
      "ธ": 399,
      "ป": 400,
      "พ": 401,
      "ภ": 402,
      "ม": 403,
      "ร": 404,
      "ล": 405,
      "ว": 406,
      "ศ": 407,
      "อ": 408,
      "ะ": 409,
      "า": 410,
      "ิ": 411,
      "ุ": 412,
      "ู": 413,
      "เ": 414,
      "้": 415,
      "์": 416,
      "ງ": 417,
      "ບ": 418,
      "ພ": 419,
      "ຣ": 420,
      "ວ": 421,
      "ຫ": 422,
      "ະ": 423,
      "າ": 424,
      "ຼ": 425,
      "་": 426,
      "ཀ": 427,
      "ཁ": 428,
      "ག": 429,
      "ཆ": 430,
      "ད": 431,
      "ན": 432,
      "པ": 433,
      "བ": 434,
      "མ": 435,
      "འ": 436,
      "ར": 437,
      "ས": 438,
      "ི": 439,
      "ུ": 440,
      "ེ": 441,
      "ོ": 442,
      "ྗ": 443,
      "ྡ": 444,
      "ྥ": 445,
      "ྱ": 446,
      "ྲ": 447,
      "ቡ": 448,
      "አ": 449,
      "ዳ": 450,
      "ጊ": 451,
      "ᜀ": 452,
      "ᜁ": 453,
      "ᜃ": 454,
      "ᜄ": 455,
      "ᜅ": 456,
      "ᜆ": 457,
      "ᜇ": 458,
      "ᜈ": 459,
      "ᜉ": 460,
      "ᜊ": 461,
      "ᜋ": 462,
      "ᜌ": 463,
      "ᜎ": 464,
      "ᜏ": 465,
      "ᜐ": 466,
      "ᜒ": 467,
      "ᜓ": 468,
      "᜔": 469,
      "ក": 470,
      "ខ": 471,
      "គ": 472,
      "ង": 473,
      "ច": 474,
      "ណ": 475,
      "ព": 476,
      "ភ": 477,
      "ម": 478,
      "រ": 479,
      "អ": 480,
      "ា": 481,
      "ែ": 482,
      "្": 483,
      "ḍ": 484,
      "ḏ": 485,
      "ḥ": 486,
      "ḫ": 487,
      "ḳ": 488,
      "ṇ": 489,
      "ṣ": 490,
      "ṭ": 491,
      "ẖ": 492,
      "ạ": 493,
      "ấ": 494,
      "ắ": 495,
      "ằ": 496,
      "ế": 497,
      "ễ": 498,
      "ệ": 499,
      "ỉ": 500,
      "ị": 501,
      "ố": 502,
      "ồ": 503,
      "ộ": 504,
      "ụ": 505,
      "ữ": 506,
      "ỳ": 507,
      "ỹ": 508,
      "ἀ": 509,
      "ἄ": 510,
      "ἐ": 511,
      "ἑ": 512,
      "ἔ": 513,
      "ἡ": 514,
      "ἰ": 515,
      "ἱ": 516,
      "ὀ": 517,
      "ὄ": 518,
      "ὶ": 519,
      "ᾶ": 520,
      "ῆ": 521,
      "ῖ": 522,
      "ῦ": 523,
      "ῴ": 524,
      "‐": 525,
      "‑": 526,
      "‒": 527,
      "–": 528,
      "—": 529,
      "‘": 530,
      "’": 531,
      "“": 532,
      "”": 533,
      "„": 534,
      "†": 535,
      "•": 536,
      "…": 537,
      "′": 538,
      "€": 539,
      "₱": 540,
      "₹": 541,
      "ℓ": 542,
      "←": 543,
      "→": 544,
      "∂": 545,
      "∇": 546,
      "−": 547,
      "∗": 548,
      "∞": 549,
      "≤": 550,
      "≥": 551,
      "☉": 552,
      "♎": 553,
      "⟨": 554,
      "⟩": 555,
      "⠃": 556,
      "⠗": 557,
      "い": 558,
      "お": 559,
      "く": 560,
      "じ": 561,
      "っ": 562,
      "の": 563,
      "は": 564,
      "ば": 565,
      "ぱ": 566,
      "み": 567,
      "゛": 568,
      "ァ": 569,
      "ア": 570,
      "ィ": 571,
      "イ": 572,
      "ウ": 573,
      "エ": 574,
      "オ": 575,
      "ガ": 576,
      "キ": 577,
      "ケ": 578,
      "ゴ": 579,
      "シ": 580,
      "ジ": 581,
      "ス": 582,
      "ズ": 583,
      "タ": 584,
      "ダ": 585,
      "ッ": 586,
      "テ": 587,
      "デ": 588,
      "ト": 589,
      "ド": 590,
      "ニ": 591,
      "ハ": 592,
      "バ": 593,
      "パ": 594,
      "ピ": 595,
      "フ": 596,
      "ポ": 597,
      "メ": 598,
      "モ": 599,
      "ャ": 600,
      "ュ": 601,
      "ラ": 602,
      "リ": 603,
      "ル": 604,
      "レ": 605,
      "ロ": 606,
      "ワ": 607,
      "ン": 608,
      "ヴ": 609,
      "ヶ": 610,
      "・": 611,
      "ー": 612,
      "一": 613,
      "七": 614,
      "万": 615,
      "三": 616,
      "上": 617,
      "下": 618,
      "不": 619,
      "世": 620,
      "东": 621,
      "中": 622,
      "丹": 623,
      "主": 624,
      "乃": 625,
      "之": 626,
      "争": 627,
      "二": 628,
      "亥": 629,
      "产": 630,
      "京": 631,
      "人": 632,
      "代": 633,
      "伊": 634,
      "会": 635,
      "伪": 636,
      "備": 637,
      "傳": 638,
      "儿": 639,
      "克": 640,
      "八": 641,
      "共": 642,
      "军": 643,
      "分": 644,
      "初": 645,
      "副": 646,
      "動": 647,
      "勞": 648,
      "化": 649,
      "千": 650,
      "協": 651,
      "南": 652,
      "卷": 653,
      "压": 654,
      "原": 655,
      "厦": 656,
      "厲": 657,
      "友": 658,
      "反": 659,
      "古": 660,
      "只": 661,
      "号": 662,
      "向": 663,
      "呼": 664,
      "命": 665,
      "和": 666,
      "哪": 667,
      "哲": 668,
      "商": 669,
      "嚴": 670,
      "四": 671,
      "国": 672,
      "國": 673,
      "圖": 674,
      "地": 675,
      "堂": 676,
      "塊": 677,
      "塔": 678,
      "夏": 679,
      "夜": 680,
      "大": 681,
      "天": 682,
      "夫": 683,
      "女": 684,
      "好": 685,
      "妓": 686,
      "媽": 687,
      "子": 688,
      "字": 689,
      "学": 690,
      "宇": 691,
      "宗": 692,
      "実": 693,
      "宣": 694,
      "富": 695,
      "将": 696,
      "尊": 697,
      "尚": 698,
      "岐": 699,
      "峰": 700,
      "島": 701,
      "川": 702,
      "巣": 703,
      "巳": 704,
      "巴": 705,
      "布": 706,
      "希": 707,
      "帘": 708,
      "師": 709,
      "帳": 710,
      "常": 711,
      "应": 712,
      "建": 713,
      "弁": 714,
      "張": 715,
      "御": 716,
      "德": 717,
      "心": 718,
      "志": 719,
      "思": 720,
      "悪": 721,
      "想": 722,
      "意": 723,
      "愛": 724,
      "戊": 725,
      "我": 726,
      "戦": 727,
      "拜": 728,
      "指": 729,
      "摩": 730,
      "改": 731,
      "放": 732,
      "敕": 733,
      "教": 734,
      "文": 735,
      "斗": 736,
      "斯": 737,
      "新": 738,
      "於": 739,
      "无": 740,
      "日": 741,
      "星": 742,
      "普": 743,
      "智": 744,
      "書": 745,
      "有": 746,
      "朗": 747,
      "朝": 748,
      "木": 749,
      "本": 750,
      "杙": 751,
      "東": 752,
      "架": 753,
      "树": 754,
      "楽": 755,
      "橋": 756,
      "歌": 757,
      "武": 758,
      "死": 759,
      "殷": 760,
      "母": 761,
      "比": 762,
      "毛": 763,
      "民": 764,
      "氣": 765,
      "汉": 766,
      "沙": 767,
      "河": 768,
      "治": 769,
      "波": 770,
      "泥": 771,
      "泽": 772,
      "洋": 773,
      "活": 774,
      "流": 775,
      "海": 776,
      "满": 777,
      "漢": 778,
      "澤": 779,
      "瀑": 780,
      "火": 781,
      "点": 782,
      "無": 783,
      "照": 784,
      "牧": 785,
      "物": 786,
      "獣": 787,
      "王": 788,
      "玩": 789,
      "珠": 790,
      "理": 791,
      "瑪": 792,
      "生": 793,
      "產": 794,
      "産": 795,
      "町": 796,
      "白": 797,
      "的": 798,
      "盧": 799,
      "目": 800,
      "真": 801,
      "着": 802,
      "砂": 803,
      "示": 804,
      "礼": 805,
      "神": 806,
      "禊": 807,
      "移": 808,
      "穆": 809,
      "立": 810,
      "第": 811,
      "節": 812,
      "糸": 813,
      "級": 814,
      "經": 815,
      "線": 816,
      "緣": 817,
      "级": 818,
      "纲": 819,
      "羅": 820,
      "美": 821,
      "義": 822,
      "老": 823,
      "者": 824,
      "耳": 825,
      "聖": 826,
      "能": 827,
      "至": 828,
      "舞": 829,
      "芝": 830,
      "芸": 831,
      "草": 832,
      "荠": 833,
      "荸": 834,
      "菱": 835,
      "薺": 836,
      "蛇": 837,
      "行": 838,
      "術": 839,
      "裕": 840,
      "西": 841,
      "觀": 842,
      "观": 843,
      "角": 844,
      "解": 845,
      "言": 846,
      "訶": 847,
      "話": 848,
      "語": 849,
      "論": 850,
      "话": 851,
      "语": 852,
      "豊": 853,
      "貞": 854,
      "賢": 855,
      "贞": 856,
      "軍": 857,
      "辛": 858,
      "辰": 859,
      "送": 860,
      "通": 861,
      "造": 862,
      "進": 863,
      "遅": 864,
      "道": 865,
      "邇": 866,
      "那": 867,
      "邪": 868,
      "都": 869,
      "里": 870,
      "重": 871,
      "野": 872,
      "金": 873,
      "鉉": 874,
      "鋼": 875,
      "錫": 876,
      "錬": 877,
      "鎖": 878,
      "鎮": 879,
      "钦": 880,
      "镇": 881,
      "開": 882,
      "關": 883,
      "闢": 884,
      "门": 885,
      "阶": 886,
      "阿": 887,
      "陀": 888,
      "陈": 889,
      "院": 890,
      "階": 891,
      "雲": 892,
      "霊": 893,
      "青": 894,
      "革": 895,
      "須": 896,
      "颜": 897,
      "馬": 898,
      "骨": 899,
      "高": 900,
      "魂": 901,
      "魔": 902,
      "鮮": 903,
      "龍": 904,
      "龙": 905,
      "ꜣ": 906,
      "ꜥ": 907,
      "가": 908,
      "갈": 909,
      "고": 910,
      "구": 911,
      "국": 912,
      "군": 913,
      "규": 914,
      "글": 915,
      "기": 916,
      "녀": 917,
      "년": 918,
      "노": 919,
      "다": 920,
      "단": 921,
      "띄": 922,
      "리": 923,
      "말": 924,
      "맞": 925,
      "무": 926,
      "미": 927,
      "민": 928,
      "방": 929,
      "범": 930,
      "법": 931,
      "불": 932,
      "비": 933,
      "삼": 934,
      "상": 935,
      "생": 936,
      "선": 937,
      "세": 938,
      "소": 939,
      "숯": 940,
      "스": 941,
      "실": 942,
      "쓰": 943,
      "애": 944,
      "어": 945,
      "여": 946,
      "엽": 947,
      "위": 948,
      "의": 949,
      "이": 950,
      "인": 951,
      "임": 952,
      "자": 953,
      "정": 954,
      "조": 955,
      "주": 956,
      "지": 957,
      "천": 958,
      "총": 959,
      "춤": 960,
      "탄": 961,
      "트": 962,
      "표": 963,
      "하": 964,
      "학": 965,
      "한": 966,
      "현": 967,
      "호": 968,
      "홈": 969,
      "ﬁ": 970,
      "𐎰": 971,
      "𐎱": 972,
      "𐎺": 973,
      "𐎼": 974,
      "𐭅": 975,
      "𐭐": 976,
      "𐭓": 977,
      "𐭕": 978,
      "𐭡": 979,
      "𐭥": 980,
      "𐭫": 981,
      "𐭮": 982,
      "𐭯": 983,
      "𒀀": 984,
      "𒂊": 985,
      "𒆥": 986,
      "𒆪": 987,
      "𒇺": 988,
      "𒈗": 989,
      "𒈠": 990,
      "𒉡": 991,
      "𒊩": 992,
      "𒋀": 993,
      "𒌑": 994,
      "𒍝": 995,
      "𞤣": 996,
      "𞤤": 997,
      "𞤫": 998,
      "𞤭": 999,
      "𞤮": 1000,
      "𞤲": 1001,
      "𞤳": 1002,
      "𞤵": 1003,
      "𞤶": 1004,
      "##9": 1005,
      "##1": 1006,
      "##3": 1007,
      "##r": 1008,
      "##a": 1009,
      "##t": 1010,
      "##o": 1011,
      "##u": 1012,
      "##m": 1013,
      "##g": 1014,
      "##p": 1015,
      "##h": 1016,
      "##l": 1017,
      "##b": 1018,
      "##y": 1019,
      "##i": 1020,
      "##7": 1021,
      "##8": 1022,
      "##n": 1023,
      "##e": 1024,
      "##s": 1025,
      "##k": 1026,
      "##c": 1027,
      "##d": 1028,
      "##5": 1029,
      "##6": 1030,
      "##z": 1031,
      "##w": 1032,
      "##é": 1033,
      "##v": 1034,
      "##á": 1035,
      "##ē": 1036,
      "##2": 1037,
      "##f": 1038,
      "##ل": 1039,
      "##ش": 1040,
      "##م": 1041,
      "##س": 1042,
      "##í": 1043,
      "##ō": 1044,
      "##x": 1045,
      "##j": 1046,
      "##ö": 1047,
      "##о": 1048,
      "##б": 1049,
      "##р": 1050,
      "##у": 1051,
      "##д": 1052,
      "##ж": 1053,
      "##а": 1054,
      "##q": 1055,
      "##4": 1056,
      "##춤": 1057,
      "##법": 1058,
      "##ë": 1059,
      "##0": 1060,
      "##ι": 1061,
      "##κ": 1062,
      "##ρ": 1063,
      "##ό": 1064,
      "##ί": 1065,
      "##ο": 1066,
      "##ς": 1067,
      "##人": 1068,
      "##应": 1069,
      "##ó": 1070,
      "##è": 1071,
      "##š": 1072,
      "##ì": 1073,
      "##½": 1074,
      "##ˈ": 1075,
      "##ː": 1076,
      "##²": 1077,
      "##ា": 1078,
      "##ព": 1079,
      "##ḳ": 1080,
      "##л": 1081,
      "##с": 1082,
      "##ْ": 1083,
      "##أ": 1084,
      "##ُ": 1085,
      "##و": 1086,
      "##ر": 1087,
      "##ب": 1088,
      "##ِ": 1089,
      "##ّ": 1090,
      "##ي": 1091,
      "##æ": 1092,
      "##λ": 1093,
      "##υ": 1094,
      "##δ": 1095,
      "##ε": 1096,
      "##ύ": 1097,
      "##η": 1098,
      "##ã": 1099,
      "##τ": 1100,
      "##ú": 1101,
      "##à": 1102,
      "##里": 1103,
      "##ŏ": 1104,
      "##ŭ": 1105,
      "##ñ": 1106,
      "##з": 1107,
      "##́": 1108,
      "##н": 1109,
      "##ɑ": 1110,
      "##ü": 1111,
      "##ô": 1112,
      "##朝": 1113,
      "##ū": 1114,
      "##и": 1115,
      "##ь": 1116,
      "##ā": 1117,
      "##ḥ": 1118,
      "##â": 1119,
      "##儿": 1120,
      "##澤": 1121,
      "##裕": 1122,
      "##子": 1123,
      "##ắ": 1124,
      "##천": 1125,
      "##리": 1126,
      "##ć": 1127,
      "##إ": 1128,
      "##َ": 1129,
      "##ا": 1130,
      "##ح": 1131,
      "##ن": 1132,
      "##ʰ": 1133,
      "##˨": 1134,
      "##̱": 1135,
      "##ī": 1136,
      "##ə": 1137,
      "##ù": 1138,
      "##č": 1139,
      "##°": 1140,
      "##産": 1141,
      "##巣": 1142,
      "##日": 1143,
      "##神": 1144,
      "##ǎ": 1145,
      "##т": 1146,
      "##ы": 1147,
      "##я": 1148,
      "##錫": 1149,
      "##ɛ": 1150,
      "##ʊ": 1151,
      "##ğ": 1152,
      "##武": 1153,
      "##门": 1154,
      "##ř": 1155,
      "##د": 1156,
      "##ه": 1157,
      "##ة": 1158,
      "##ỉ": 1159,
      "##ä": 1160,
      "##亥": 1161,
      "##נ": 1162,
      "##ו": 1163,
      "##כ": 1164,
      "##ה": 1165,
      "##ø": 1166,
      "##ណ": 1167,
      "##ច": 1168,
      "##ក": 1169,
      "##្": 1170,
      "##រ": 1171,
      "##អ": 1172,
      "##ង": 1173,
      "##គ": 1174,
      "##角": 1175,
      "##ོ": 1176,
      "##楽": 1177,
      "##町": 1178,
      "##新": 1179,
      "##線": 1180,
      "##͡": 1181,
      "##ʃ": 1182,
      "##û": 1183,
      "##ǰ": 1184,
      "##α": 1185,
      "##γ": 1186,
      "##π": 1187,
      "##穆": 1188,
      "##朗": 1189,
      "##瑪": 1190,
      "##峰": 1191,
      "##理": 1192,
      "##ف": 1193,
      "##ء": 1194,
      "##代": 1195,
      "##ṣ": 1196,
      "##î": 1197,
      "##고": 1198,
      "##기": 1199,
      "##μ": 1200,
      "##ω": 1201,
      "##ν": 1202,
      "##ś": 1203,
      "##선": 1204,
      "##말": 1205,
      "##ʷ": 1206,
      "##ň": 1207,
      "##ή": 1208,
      "##ă": 1209,
      "##ώ": 1210,
      "##反": 1211,
      "##п": 1212,
      "##ł": 1213,
      "##ά": 1214,
      "##ş": 1215,
      "##ı": 1216,
      "##ǐ": 1217,
      "##×": 1218,
      "##ḏ": 1219,
      "##ǚ": 1220,
      "##千": 1221,
      "##ʎ": 1222,
      "##ಿ": 1223,
      "##ರ": 1224,
      "##ಡ": 1225,
      "##王": 1226,
      "##ý": 1227,
      "##ě": 1228,
      "##ṇ": 1229,
      "##σ": 1230,
      "##母": 1231,
      "##陀": 1232,
      "##流": 1233,
      "##ò": 1234,
      "##芝": 1235,
      "##녀": 1236,
      "##ῖ": 1237,
      "##國": 1238,
      "##民": 1239,
      "##解": 1240,
      "##放": 1241,
      "##軍": 1242,
      "##ộ": 1243,
      "##道": 1244,
      "##ग": 1245,
      "##र": 1246,
      "##ạ": 1247,
      "##θ": 1248,
      "##ל": 1249,
      "##י": 1250,
      "##위": 1251,
      "##트": 1252,
      "##홈": 1253,
      "##ʒ": 1254,
      "##ா": 1255,
      "##ப": 1256,
      "##ீ": 1257,
      "##ர": 1258,
      "##ட": 1259,
      "##ி": 1260,
      "##ʲ": 1261,
      "##ɪ": 1262,
      "##ɾ": 1263,
      "##ß": 1264,
      "##ё": 1265,
      "##в": 1266,
      "##ч": 1267,
      "##ơ": 1268,
      "##έ": 1269,
      "##մ": 1270,
      "##յ": 1271,
      "##ո": 1272,
      "##ւ": 1273,
      "##ռ": 1274,
      "##ն": 1275,
      "##ի": 1276,
      "##ա": 1277,
      "##ت": 1278,
      "##̇": 1279,
      "##ᜅ": 1280,
      "##᜔": 1281,
      "##ê": 1282,
      "##ァ": 1283,
      "##イ": 1284,
      "##オ": 1285,
      "##レ": 1286,
      "##ッ": 1287,
      "##ト": 1288,
      "##ç": 1289,
      "##е": 1290,
      "##ζ": 1291,
      "##³": 1292,
      "##文": 1293,
      "##初": 1294,
      "##상": 1295,
      "##지": 1296,
      "##⠗": 1297,
      "##玩": 1298,
      "##妓": 1299,
      "##斗": 1300,
      "##乃": 1301,
      "##弁": 1302,
      "##민": 1303,
      "##호": 1304,
      "##ɔ": 1305,
      "##ज": 1306,
      "##±": 1307,
      "##𒉡": 1308,
      "##𒈠": 1309,
      "##𒂊": 1310,
      "##𒇺": 1311,
      "##ྡ": 1312,
      "##ེ": 1313,
      "##ằ": 1314,
      "##ш": 1315,
      "##й": 1316,
      "##国": 1317,
      "##军": 1318,
      "##𒆪": 1319,
      "##𒈗": 1320,
      "##𒋀": 1321,
      "##어": 1322,
      "##上": 1323,
      "##世": 1324,
      "##七": 1325,
      "##œ": 1326,
      "##−": 1327,
      "##ʿ": 1328,
      "##ー": 1329,
      "##ゴ": 1330,
      "##ル": 1331,
      "##ド": 1332,
      "##г": 1333,
      "##å": 1334,
      "##ɜ": 1335,
      "##ຣ": 1336,
      "##ະ": 1337,
      "##ン": 1338,
      "##ダ": 1339,
      "##フ": 1340,
      "##ラ": 1341,
      "##¹": 1342,
      "##ִ": 1343,
      "##ז": 1344,
      "##ְ": 1345,
      "##ק": 1346,
      "##ָ": 1347,
      "##ּ": 1348,
      "##֫": 1349,
      "##ệ": 1350,
      "##目": 1351,
      "##友": 1352,
      "##帳": 1353,
      "##ز": 1354,
      "##گ": 1355,
      "##ž": 1356,
      "##南": 1357,
      "##洋": 1358,
      "##ോ": 1359,
      "##ട": 1360,
      "##്": 1361,
      "##േ": 1362,
      "##പ": 1363,
      "##ള": 1364,
      "##ി": 1365,
      "##א": 1366,
      "##ֵ": 1367,
      "##產": 1368,
      "##階": 1369,
      "##級": 1370,
      "##化": 1371,
      "##大": 1372,
      "##革": 1373,
      "##命": 1374,
      "##χ": 1375,
      "##ྥ": 1376,
      "##פ": 1377,
      "##ט": 1378,
      "##ם": 1379,
      "##ố": 1380,
      "##み": 1381,
      "##く": 1382,
      "##じ": 1383,
      "##다": 1384,
      "##미": 1385,
      "##歌": 1386,
      "##̃": 1387,
      "##ש": 1388,
      "##产": 1389,
      "##阶": 1390,
      "##级": 1391,
      "##邪": 1392,
      "##那": 1393,
      "##岐": 1394,
      "##ะ": 1395,
      "##ป": 1396,
      "##ิ": 1397,
      "##ط": 1398,
      "##通": 1399,
      "##话": 1400,
      "##𞤮": 1401,
      "##𞤲": 1402,
      "##𞤳": 1403,
      "##𞤭": 1404,
      "##ד": 1405,
      "##학": 1406,
      "##˩": 1407,
      "##主": 1408,
      "##義": 1409,
      "##杙": 1410,
      "##希": 1411,
      "##之": 1412,
      "##常": 1413,
      "##立": 1414,
      "##ᜄ": 1415,
      "##ᜎ": 1416,
      "##ᜒ": 1417,
      "##ᜐ": 1418,
      "##ᜌ": 1419,
      "##帘": 1420,
      "##将": 1421,
      "##𐭓": 1422,
      "##𐭕": 1423,
      "##𐭅": 1424,
      "##ケ": 1425,
      "##モ": 1426,
      "##ス": 1427,
      "##タ": 1428,
      "##ی": 1429,
      "##΄": 1430,
      "##ع": 1431,
      "##ठ": 1432,
      "##ा": 1433,
      "##न": 1434,
      "##の": 1435,
      "##者": 1436,
      "##エ": 1437,
      "##リ": 1438,
      "##本": 1439,
      "##送": 1440,
      "##協": 1441,
      "##会": 1442,
      "##比": 1443,
      "##地": 1444,
      "##邇": 1445,
      "##ð": 1446,
      "##ᾶ": 1447,
      "##ξ": 1448,
      "##氣": 1449,
      "##ŋ": 1450,
      "##̍": 1451,
      "##∞": 1452,
      "##여": 1453,
      "##쓰": 1454,
      "##규": 1455,
      "##범": 1456,
      "##ྲ": 1457,
      "##ི": 1458,
      "##ད": 1459,
      "##м": 1460,
      "##ồ": 1461,
      "##총": 1462,
      "##소": 1463,
      "##년": 1464,
      "##師": 1465,
      "##𞤵": 1466,
      "##𞤤": 1467,
      "##𞤣": 1468,
      "##𞤫": 1469,
      "##ᜇ": 1470,
      "##ᜏ": 1471,
      "##ἰ": 1472,
      "##点": 1473,
      "##至": 1474,
      "##ಾ": 1475,
      "##ಬ": 1476,
      "##̄": 1477,
      "##ヴ": 1478,
      "##ガ": 1479,
      "##デ": 1480,
      "##ế": 1481,
      "##☉": 1482,
      "##ィ": 1483,
      "##ピ": 1484,
      "##共": 1485,
      "##和": 1486,
      "##辰": 1487,
      "##戦": 1488,
      "##争": 1489,
      "##草": 1490,
      "##ق": 1491,
      "##ร": 1492,
      "##ว": 1493,
      "##ง": 1494,
      "##ศ": 1495,
      "##์": 1496,
      "##เ": 1497,
      "##ธ": 1498,
      "##อ": 1499,
      "##ữ": 1500,
      "##橋": 1501,
      "##愛": 1502,
      "##テ": 1503,
      "##ʁ": 1504,
      "##星": 1505,
      "##只": 1506,
      "##有": 1507,
      "##緣": 1508,
      "##ï": 1509,
      "##φ": 1510,
      "##富": 1511,
      "##能": 1512,
      "##压": 1513,
      "##瀑": 1514,
      "##ྗ": 1515,
      "##ụ": 1516,
      "##木": 1517,
      "##ị": 1518,
      "##ר": 1519,
      "##ע": 1520,
      "##中": 1521,
      "##四": 1522,
      "##賢": 1523,
      "##ɡ": 1524,
      "##都": 1525,
      "##心": 1526,
      "##ῆ": 1527,
      "##ḫ": 1528,
      "##𐎼": 1529,
      "##𐎰": 1530,
      "##𐎺": 1531,
      "##བ": 1532,
      "##ུ": 1533,
      "##ག": 1534,
      "##沙": 1535,
      "##河": 1536,
      "##ǔ": 1537,
      "##摩": 1538,
      "##志": 1539,
      "##阿": 1540,
      "##斯": 1541,
      "##訶": 1542,
      "##備": 1543,
      "##古": 1544,
      "##遅": 1545,
      "##泽": 1546,
      "##东": 1547,
      "##思": 1548,
      "##想": 1549,
      "##ો": 1550,
      "##હ": 1551,
      "##ન": 1552,
      "##દ": 1553,
      "##ા": 1554,
      "##સ": 1555,
      "##ј": 1556,
      "##ῦ": 1557,
      "##к": 1558,
      "##ཁ": 1559,
      "##ན": 1560,
      "##µ": 1561,
      "##đ": 1562,
      "##教": 1563,
      "##ן": 1564,
      "##ર": 1565,
      "##મ": 1566,
      "##ચ": 1567,
      "##ં": 1568,
      "##ค": 1569,
      "##จ": 1570,
      "##้": 1571,
      "##า": 1572,
      "##ภ": 1573,
      "##ู": 1574,
      "##ม": 1575,
      "##พ": 1576,
      "##ล": 1577,
      "##ด": 1578,
      "##ุ": 1579,
      "##ช": 1580,
      "##语": 1581,
      "##ő": 1582,
      "##무": 1583,
      "##현": 1584,
      "##霊": 1585,
      "##魂": 1586,
      "##х": 1587,
      "##ℓ": 1588,
      "##骨": 1589,
      "##ח": 1590,
      "##智": 1591,
      "##ར": 1592,
      "##ધ": 1593,
      "##ી": 1594,
      "##ュ": 1595,
      "##ズ": 1596,
      "##观": 1597,
      "##治": 1598,
      "##ῴ": 1599,
      "##자": 1600,
      "##ቡ": 1601,
      "##ጊ": 1602,
      "##ዳ": 1603,
      "##ỳ": 1604,
      "##ɫ": 1605,
      "##美": 1606,
      "##薺": 1607,
      "##島": 1608,
      "##鎮": 1609,
      "##ە": 1610,
      "##ژ": 1611,
      "##ĕ": 1612,
      "##ʻ": 1613,
      "##ė": 1614,
      "##β": 1615,
      "##ম": 1616,
      "##র": 1617,
      "##্": 1618,
      "##ত": 1619,
      "##য": 1620,
      "##建": 1621,
      "##八": 1622,
      "##哲": 1623,
      "##布": 1624,
      "##尊": 1625,
      "##丹": 1626,
      "##巴": 1627,
      "##呼": 1628,
      "##圖": 1629,
      "##克": 1630,
      "##ウ": 1631,
      "##シ": 1632,
      "##バ": 1633,
      "##ɣ": 1634,
      "##ु": 1635,
      "##向": 1636,
      "##宗": 1637,
      "##ข": 1638,
      "##西": 1639,
      "##学": 1640,
      "##院": 1641,
      "##ذ": 1642,
      "##照": 1643,
      "##າ": 1644,
      "##ງ": 1645,
      "##𒍝": 1646,
      "##𒆥": 1647,
      "##𒀀": 1648,
      "##𒌑": 1649,
      "##拜": 1650,
      "##堂": 1651,
      "##정": 1652,
      "##海": 1653,
      "##ẖ": 1654,
      "##ב": 1655,
      "##ת": 1656,
      "##生": 1657,
      "##語": 1658,
      "##雲": 1659,
      "##野": 1660,
      "##論": 1661,
      "##御": 1662,
      "##動": 1663,
      "##改": 1664,
      "##造": 1665,
      "##ᜃ": 1666,
      "##ᜉ": 1667,
      "##ᜆ": 1668,
      "##ᜓ": 1669,
      "##天": 1670,
      "##原": 1671,
      "##觀": 1672,
      "##ຼ": 1673,
      "##ວ": 1674,
      "##ភ": 1675,
      "##ខ": 1676,
      "##ម": 1677,
      "##ែ": 1678,
      "##開": 1679,
      "##闢": 1680,
      "##媽": 1681,
      "##ᜊ": 1682,
      "##ᜈ": 1683,
      "##ɱ": 1684,
      "##탄": 1685,
      "##단": 1686,
      "##국": 1687,
      "##가": 1688,
      "##鉉": 1689,
      "##ỹ": 1690,
      "##𐭫": 1691,
      "##𐭮": 1692,
      "##𐭥": 1693,
      "##𐭡": 1694,
      "##っ": 1695,
      "##ぱ": 1696,
      "##い": 1697,
      "##魔": 1698,
      "##実": 1699,
      "##비": 1700,
      "##주": 1701,
      "##의": 1702,
      "##인": 1703,
      "##ḍ": 1704,
      "##̞": 1705,
      "##ֹ": 1706,
      "##ס": 1707,
      "##ף": 1708,
      "##ˌ": 1709,
      "##म": 1710,
      "##्": 1711,
      "##प": 1712,
      "##ः": 1713,
      "##京": 1714,
      "##メ": 1715,
      "##ロ": 1716,
      "##副": 1717,
      "##纲": 1718,
      "##我": 1719,
      "##羅": 1720,
      "##夜": 1721,
      "##泥": 1722,
      "##ђ": 1723,
      "##ћ": 1724,
      "##ү": 1725,
      "##ὶ": 1726,
      "##ṭ": 1727,
      "##ᜋ": 1728,
      "##ễ": 1729,
      "##字": 1730,
      "##خ": 1731,
      "##ャ": 1732,
      "##满": 1733,
      "##ྱ": 1734,
      "##글": 1735,
      "##話": 1736,
      "##德": 1737,
      "##經": 1738,
      "##荠": 1739,
      "##ю": 1740,
      "##ӧ": 1741,
      "##ジ": 1742,
      "##ꜣ": 1743,
      "##ˁ": 1744,
      "##ಯ": 1745,
      "##ų": 1746,
      "##ア": 1747,
      "##書": 1748,
      "##架": 1749,
      "##物": 1750,
      "##생": 1751,
      "##進": 1752,
      "##ɐ": 1753,
      "##於": 1754,
      "##嚴": 1755,
      "##厲": 1756,
      "##分": 1757,
      "##活": 1758,
      "##的": 1759,
      "##指": 1760,
      "##示": 1761,
      "##錬": 1762,
      "##金": 1763,
      "##術": 1764,
      "##군": 1765,
      "##구": 1766,
      "##ӯ": 1767,
      "##尚": 1768,
      "##ய": 1769,
      "##ng": 1770,
      "##ang": 1771,
      "##an": 1772,
      "na": 1773,
      "ng": 1774,
      "sa": 1775,
      "##al": 1776,
      "##ag": 1777,
      "##in": 1778,
      "ang": 1779,
      "##at": 1780,
      "##ga": 1781,
      "mga": 1782,
      "##as": 1783,
      "##ar": 1784,
      "##il": 1785,
      "##it": 1786,
      "##on": 1787,
      "##am": 1788,
      "##ay": 1789,
      "##ong": 1790,
      "at": 1791,
      "ay": 1792,
      "##ak": 1793,
      "##ul": 1794,
      "##ah": 1795,
      "##er": 1796,
      "##ing": 1797,
      "##is": 1798,
      "##ap": 1799,
      "pag": 1800,
      "##iy": 1801,
      "##ik": 1802,
      "##ab": 1803,
      "is": 1804,
      "##un": 1805,
      "##aw": 1806,
      "##ad": 1807,
      "##to": 1808,
      "##um": 1809,
      "##en": 1810,
      "isang": 1811,
      "nag": 1812,
      "##es": 1813,
      "##os": 1814,
      "##ig": 1815,
      "##or": 1816,
      "##ilang": 1817,
      "##im": 1818,
      "##us": 1819,
      "##iya": 1820,
      "kan": 1821,
      "pang": 1822,
      "##ol": 1823,
      "##ip": 1824,
      "no": 1825,
      "##ur": 1826,
      "##el": 1827,
      "##id": 1828,
      "##yon": 1829,
      "##ib": 1830,
      "noong": 1831,
      "##ung": 1832,
      "si": 1833,
      "in": 1834,
      "##om": 1835,
      "par": 1836,
      "ni": 1837,
      "pin": 1838,
      "ito": 1839,
      "pan": 1840,
      "##ro": 1841,
      "##ula": 1842,
      "##yang": 1843,
      "##ala": 1844,
      "pam": 1845,
      "##uk": 1846,
      "##le": 1847,
      "may": 1848,
      "##ya": 1849,
      "bilang": 1850,
      "##ub": 1851,
      "##ut": 1852,
      "##ir": 1853,
      "##od": 1854,
      "nak": 1855,
      "kas": 1856,
      "19": 1857,
      "pagk": 1858,
      "mag": 1859,
      "an": 1860,
      "##et": 1861,
      "kanyang": 1862,
      "##di": 1863,
      "##yo": 1864,
      "ib": 1865,
      "kat": 1866,
      "##ih": 1867,
      "##em": 1868,
      "##ta": 1869,
      "un": 1870,
      "hin": 1871,
      "##ek": 1872,
      "ta": 1873,
      "para": 1874,
      "siya": 1875,
      "ma": 1876,
      "##ic": 1877,
      "##ito": 1878,
      "##op": 1879,
      "##tr": 1880,
      "mal": 1881,
      "##uh": 1882,
      "##ug": 1883,
      "##ok": 1884,
      "##iw": 1885,
      "##and": 1886,
      "ar": 1887,
      "##awa": 1888,
      "##asyon": 1889,
      "20": 1890,
      "##ot": 1891,
      "mula": 1892,
      "##ent": 1893,
      "es": 1894,
      "##sa": 1895,
      "hindi": 1896,
      "sin": 1897,
      "##ayan": 1898,
      "al": 1899,
      "mat": 1900,
      "##ed": 1901,
      "kar": 1902,
      "mar": 1903,
      "##yong": 1904,
      "##up": 1905,
      "##iyang": 1906,
      "kap": 1907,
      "##itan": 1908,
      "##alang": 1909,
      "##ahan": 1910,
      "##angg": 1911,
      "##uw": 1912,
      "##og": 1913,
      "##ist": 1914,
      "##ila": 1915,
      "il": 1916,
      "##ob": 1917,
      "##re": 1918,
      "re": 1919,
      "##aan": 1920,
      "kung": 1921,
      "bag": 1922,
      "##ant": 1923,
      "it": 1924,
      "##alaw": 1925,
      "up": 1926,
      "nang": 1927,
      "ik": 1928,
      "##ian": 1929,
      "##ika": 1930,
      "mak": 1931,
      "mas": 1932,
      "kab": 1933,
      "kal": 1934,
      "pr": 1935,
      "tin": 1936,
      "##iko": 1937,
      "##pap": 1938,
      "##ama": 1939,
      "nito": 1940,
      "upang": 1941,
      "##ia": 1942,
      "##alan": 1943,
      "##ion": 1944,
      "##amit": 1945,
      "##und": 1946,
      "ka": 1947,
      "kay": 1948,
      "##ahil": 1949,
      "##mp": 1950,
      "pa": 1951,
      "##ano": 1952,
      "gin": 1953,
      "pinak": 1954,
      "##ers": 1955,
      "tag": 1956,
      "##alak": 1957,
      "##ans": 1958,
      "##ina": 1959,
      "##ch": 1960,
      "tit": 1961,
      "##ilip": 1962,
      "##ita": 1963,
      "ip": 1964,
      "th": 1965,
      "##tat": 1966,
      "##ma": 1967,
      "dahil": 1968,
      "##ter": 1969,
      "pro": 1970,
      "din": 1971,
      "##alag": 1972,
      "##aman": 1973,
      "##oy": 1974,
      "niya": 1975,
      "est": 1976,
      "tr": 1977,
      "##apos": 1978,
      "ak": 1979,
      "##oh": 1980,
      "bat": 1981,
      "iba": 1982,
      "##amang": 1983,
      "pags": 1984,
      "panah": 1985,
      "##ens": 1986,
      "isa": 1987,
      "pangk": 1988,
      "title": 1989,
      "pamam": 1990,
      "as": 1991,
      "##ahat": 1992,
      "lum": 1993,
      "or": 1994,
      "naging": 1995,
      "kon": 1996,
      "bah": 1997,
      "##uan": 1998,
      "##alawang": 1999,
      "unang": 2000,
      "pat": 2001,
      "##ulad": 2002,
      "##aring": 2003,
      "##alim": 2004,
      "bin": 2005,
      "de": 2006,
      "##ism": 2007,
      "##ari": 2008,
      "##man": 2009,
      "##ac": 2010,
      "kah": 2011,
      "##aba": 2012,
      "kin": 2013,
      "hangg": 2014,
      "kanilang": 2015,
      "##ili": 2016,
      "##abas": 2017,
      "##lo": 2018,
      "##eh": 2019,
      "##aka": 2020,
      "ipin": 2021,
      "##ilipin": 2022,
      "nags": 2023,
      "##ado": 2024,
      "man": 2025,
      "##abang": 2026,
      "##awan": 2027,
      "##idad": 2028,
      "sal": 2029,
      "##ihan": 2030,
      "##ilala": 2031,
      "pagb": 2032,
      "sum": 2033,
      "pagl": 2034,
      "maa": 2035,
      "kom": 2036,
      "tum": 2037,
      "tao": 2038,
      "##agi": 2039,
      "##ud": 2040,
      "ch": 2041,
      "##isyon": 2042,
      "pilipin": 2043,
      "##iyon": 2044,
      "nat": 2045,
      "##apag": 2046,
      "the": 2047,
      "ibang": 2048,
      "##aro": 2049,
      "##iga": 2050,
      "200": 2051,
      "rin": 2052,
      "##eb": 2053,
      "201": 2054,
      "hanggang": 2055,
      "##agitan": 2056,
      "mah": 2057,
      "##eng": 2058,
      "##pan": 2059,
      "##eg": 2060,
      "saan": 2061,
      "##da": 2062,
      "##awag": 2063,
      "ap": 2064,
      "pamamagitan": 2065,
      "##atay": 2066,
      "##ulang": 2067,
      "panahon": 2068,
      "##ikal": 2069,
      "gr": 2070,
      "pal": 2071,
      "##unan": 2072,
      "pagpap": 2073,
      "sim": 2074,
      "##ha": 2075,
      "##ulat": 2076,
      "maram": 2077,
      "ika": 2078,
      "lo": 2079,
      "##asan": 2080,
      "##alik": 2081,
      "am": 2082,
      "##uo": 2083,
      "18": 2084,
      "##unit": 2085,
      "of": 2086,
      "ban": 2087,
      "itin": 2088,
      "imp": 2089,
      "##ri": 2090,
      "##atag": 2091,
      "##ero": 2092,
      "##ikong": 2093,
      "lab": 2094,
      "##ays": 2095,
      "##yal": 2096,
      "##ismo": 2097,
      "##uhay": 2098,
      "##ata": 2099,
      "bahagi": 2100,
      "##tor": 2101,
      "maaaring": 2102,
      "##alo": 2103,
      "##les": 2104,
      "##oloh": 2105,
      "##anap": 2106,
      "nap": 2107,
      "taon": 2108,
      "##angk": 2109,
      "##unod": 2110,
      "pagkat": 2111,
      "ilang": 2112,
      "kr": 2113,
      "pagkak": 2114,
      "ngunit": 2115,
      "##tur": 2116,
      "##00": 2117,
      "lamang": 2118,
      "##eks": 2119,
      "gay": 2120,
      "pinakam": 2121,
      "##apat": 2122,
      "##ikang": 2123,
      "kasama": 2124,
      "ek": 2125,
      "##ump": 2126,
      "pilipinas": 2127,
      "nasa": 2128,
      "##est": 2129,
      "##ins": 2130,
      "##unang": 2131,
      "##ard": 2132,
      "##ep": 2133,
      "##sod": 2134,
      "dalawang": 2135,
      "##ilangan": 2136,
      "##angan": 2137,
      "hal": 2138,
      "##iv": 2139,
      "##ulo": 2140,
      "##emb": 2141,
      "gum": 2142,
      "ag": 2143,
      "##ahing": 2144,
      "##agang": 2145,
      "##uling": 2146,
      "pagkatapos": 2147,
      "##ali": 2148,
      "##ista": 2149,
      "##ulong": 2150,
      "##agamit": 2151,
      "mab": 2152,
      "##lat": 2153,
      "pinag": 2154,
      "##aniw": 2155,
      "dis": 2156,
      "maraming": 2157,
      "##ungsod": 2158,
      "lahat": 2159,
      "kam": 2160,
      "um": 2161,
      "##ahang": 2162,
      "san": 2163,
      "##ento": 2164,
      "mil": 2165,
      "##igay": 2166,
      "pak": 2167,
      "ab": 2168,
      "op": 2169,
      "bu": 2170,
      "pamp": 2171,
      "lungsod": 2172,
      "ing": 2173,
      "pap": 2174,
      "##ino": 2175,
      "##anan": 2176,
      "##io": 2177,
      "##ahala": 2178,
      "##ungk": 2179,
      "##ast": 2180,
      "##ating": 2181,
      "##amb": 2182,
      "nagb": 2183,
      "st": 2184,
      "##ce": 2185,
      "pangun": 2186,
      "##ort": 2187,
      "taong": 2188,
      "##st": 2189,
      "ed": 2190,
      "##agawa": 2191,
      "##la": 2192,
      "##alit": 2193,
      "lu": 2194,
      "##orm": 2195,
      "habang": 2196,
      "tinat": 2197,
      "mayro": 2198,
      "nam": 2199,
      "loob": 2200,
      "mad": 2201,
      "en": 2202,
      "##yan": 2203,
      "mus": 2204,
      "##eo": 2205,
      "part": 2206,
      "rom": 2207,
      "##ern": 2208,
      "##uno": 2209,
      "inil": 2210,
      "walang": 2211,
      "nagk": 2212,
      "tulad": 2213,
      "##ra": 2214,
      "##long": 2215,
      "nagl": 2216,
      "magk": 2217,
      "ser": 2218,
      "pangunahing": 2219,
      "bansa": 2220,
      "aw": 2221,
      "##angga": 2222,
      "##akas": 2223,
      "ind": 2224,
      "199": 2225,
      "##amp": 2226,
      "kum": 2227,
      "ant": 2228,
      "sh": 2229,
      "##undo": 2230,
      "sub": 2231,
      "##igit": 2232,
      "ts": 2233,
      "##las": 2234,
      "sar": 2235,
      "##int": 2236,
      "##era": 2237,
      "anak": 2238,
      "sina": 2239,
      "##oc": 2240,
      "ayon": 2241,
      "##aroon": 2242,
      "estad": 2243,
      "pagh": 2244,
      "nagp": 2245,
      "##unt": 2246,
      "tat": 2247,
      "##ago": 2248,
      "##ubl": 2249,
      "##ec": 2250,
      "nan": 2251,
      "and": 2252,
      "baba": 2253,
      "##ation": 2254,
      "pagt": 2255,
      "rep": 2256,
      "br": 2257,
      "kabilang": 2258,
      "bagong": 2259,
      "ingles": 2260,
      "sila": 2261,
      "tim": 2262,
      "##iyos": 2263,
      "##ine": 2264,
      "##ada": 2265,
      "nil": 2266,
      "##iling": 2267,
      "simb": 2268,
      "ad": 2269,
      "nab": 2270,
      "karaniw": 2271,
      "isin": 2272,
      "##aran": 2273,
      "amer": 2274,
      "kaniyang": 2275,
      "inter": 2276,
      "pagtat": 2277,
      "hum": 2278,
      "pel": 2279,
      "##dig": 2280,
      "buong": 2281,
      "da": 2282,
      "##agat": 2283,
      "##ara": 2284,
      "bum": 2285,
      "sig": 2286,
      "pamb": 2287,
      "##ayang": 2288,
      "##iging": 2289,
      "##ayag": 2290,
      "##anda": 2291,
      "araw": 2292,
      "mundo": 2293,
      "##res": 2294,
      "tinatawag": 2295,
      "min": 2296,
      "##gar": 2297,
      "##asyong": 2298,
      "panan": 2299,
      "te": 2300,
      "##uha": 2301,
      "di": 2302,
      "##awak": 2303,
      "##ayo": 2304,
      "##wa": 2305,
      "##aling": 2306,
      "##ador": 2307,
      "alb": 2308,
      "##itang": 2309,
      "##arawan": 2310,
      "##alas": 2311,
      "pelik": 2312,
      "dig": 2313,
      "##aysayan": 2314,
      "##ipag": 2315,
      "kilala": 2316,
      "hil": 2317,
      "art": 2318,
      "##yemb": 2319,
      "##uhan": 2320,
      "dito": 2321,
      "pagitan": 2322,
      "##yembre": 2323,
      "pas": 2324,
      "ale": 2325,
      "##ord": 2326,
      "##ulug": 2327,
      "##apit": 2328,
      "com": 2329,
      "pagga": 2330,
      "kons": 2331,
      "##end": 2332,
      "buhay": 2333,
      "##igdig": 2334,
      "##onom": 2335,
      "ele": 2336,
      "##ain": 2337,
      "unid": 2338,
      "##olohiya": 2339,
      "##aral": 2340,
      "ilalim": 2341,
      "gawa": 2342,
      "ne": 2343,
      "##ikha": 2344,
      "##arian": 2345,
      "##anggap": 2346,
      "##ular": 2347,
      "pagp": 2348,
      "kag": 2349,
      "##alaga": 2350,
      "##yar": 2351,
      "198": 2352,
      "##asa": 2353,
      "sam": 2354,
      "##ansang": 2355,
      "15": 2356,
      "nas": 2357,
      "bago": 2358,
      "rel": 2359,
      "naman": 2360,
      "sak": 2361,
      "##agd": 2362,
      "##ugn": 2363,
      "estados": 2364,
      "unidos": 2365,
      "karam": 2366,
      "ginagamit": 2367,
      "##itong": 2368,
      "siyang": 2369,
      "sist": 2370,
      "kasaysayan": 2371,
      "kaya": 2372,
      "##igan": 2373,
      "malak": 2374,
      "pl": 2375,
      "##ea": 2376,
      "##alay": 2377,
      "karaniwang": 2378,
      "imper": 2379,
      "map": 2380,
      "##ue": 2381,
      "##na": 2382,
      "##inal": 2383,
      "nagpap": 2384,
      "pangalan": 2385,
      "nakat": 2386,
      "batas": 2387,
      "##ark": 2388,
      "panl": 2389,
      "##asal": 2390,
      "esp": 2391,
      "eur": 2392,
      "uri": 2393,
      "##abi": 2394,
      "con": 2395,
      "pos": 2396,
      "##uku": 2397,
      "16": 2398,
      "##ey": 2399,
      "##imula": 2400,
      "katulad": 2401,
      "diyos": 2402,
      "ter": 2403,
      "album": 2404,
      "kil": 2405,
      "kul": 2406,
      "##uli": 2407,
      "sistem": 2408,
      "id": 2409,
      "##th": 2410,
      "##ity": 2411,
      "kasal": 2412,
      "sp": 2413,
      "##aas": 2414,
      "##tong": 2415,
      "##ukoy": 2416,
      "##tura": 2417,
      "##lur": 2418,
      "##ibong": 2419,
      "##bo": 2420,
      "pamahala": 2421,
      "itong": 2422,
      "##uloy": 2423,
      "lugar": 2424,
      "##ente": 2425,
      "197": 2426,
      "nila": 2427,
      "##alis": 2428,
      "##ehong": 2429,
      "lup": 2430,
      "##ubuo": 2431,
      "aaral": 2432,
      "pun": 2433,
      "tatlong": 2434,
      "##alaking": 2435,
      "sup": 2436,
      "tagapag": 2437,
      "17": 2438,
      "##ana": 2439,
      "maging": 2440,
      "##ibo": 2441,
      "babae": 2442,
      "##una": 2443,
      "estado": 2444,
      "##adong": 2445,
      "europ": 2446,
      "siglo": 2447,
      "pagbab": 2448,
      "mam": 2449,
      "res": 2450,
      "tungk": 2451,
      "##puan": 2452,
      "##ayon": 2453,
      "##utur": 2454,
      "pop": 2455,
      "##apon": 2456,
      "kanlur": 2457,
      "##uwal": 2458,
      "##eral": 2459,
      "##ulan": 2460,
      "ph": 2461,
      "mayroong": 2462,
      "nakak": 2463,
      "##anong": 2464,
      "halim": 2465,
      "mod": 2466,
      "##ye": 2467,
      "baw": 2468,
      "##isa": 2469,
      "##ill": 2470,
      "##alaki": 2471,
      "##angyar": 2472,
      "##so": 2473,
      "##usyon": 2474,
      "10": 2475,
      "##iwan": 2476,
      "pangkat": 2477,
      "pakik": 2478,
      "fr": 2479,
      "wikang": 2480,
      "pagd": 2481,
      "mon": 2482,
      "##ipunan": 2483,
      "dal": 2484,
      "mang": 2485,
      "kapag": 2486,
      "##iz": 2487,
      "bayan": 2488,
      "##uto": 2489,
      "##bay": 2490,
      "timog": 2491,
      "kor": 2492,
      "huk": 2493,
      "karamihan": 2494,
      "##panya": 2495,
      "pum": 2496,
      "pol": 2497,
      "##alagang": 2498,
      "im": 2499,
      "tal": 2500,
      "##abah": 2501,
      "##mit": 2502,
      "emp": 2503,
      "kad": 2504,
      "##hi": 2505,
      "##sik": 2506,
      "##imp": 2507,
      "niyang": 2508,
      "##ow": 2509,
      "muling": 2510,
      "kol": 2511,
      "parehong": 2512,
      "le": 2513,
      "nagt": 2514,
      "ac": 2515,
      "kak": 2516,
      "pil": 2517,
      "##aga": 2518,
      "nagm": 2519,
      "194": 2520,
      "##siyon": 2521,
      "bagay": 2522,
      "pamil": 2523,
      "##anganak": 2524,
      "12": 2525,
      "bawat": 2526,
      "##oto": 2527,
      "##wal": 2528,
      "##lad": 2529,
      "bal": 2530,
      "silang": 2531,
      "higit": 2532,
      "lar": 2533,
      "##alaman": 2534,
      "##uc": 2535,
      "##ell": 2536,
      "##ork": 2537,
      "##ustr": 2538,
      "##uri": 2539,
      "##ungan": 2540,
      "##ibigay": 2541,
      "panahong": 2542,
      "gamit": 2543,
      "bar": 2544,
      "pelikula": 2545,
      "kasaluku": 2546,
      "pamahalaan": 2547,
      "halimb": 2548,
      "subalit": 2549,
      "##gan": 2550,
      "##ack": 2551,
      "##asak": 2552,
      "panda": 2553,
      "nagtat": 2554,
      "tub": 2555,
      "##igh": 2556,
      "kanya": 2557,
      "##ate": 2558,
      "##isip": 2559,
      "opis": 2560,
      "##ura": 2561,
      "dating": 2562,
      "##ess": 2563,
      "pandaigdig": 2564,
      "reh": 2565,
      "##ie": 2566,
      "##ment": 2567,
      "pagiging": 2568,
      "##andang": 2569,
      "apat": 2570,
      "hen": 2571,
      "huling": 2572,
      "per": 2573,
      "##ensiya": 2574,
      "krist": 2575,
      "co": 2576,
      "##uang": 2577,
      "malaking": 2578,
      "dum": 2579,
      "##ulot": 2580,
      "hapon": 2581,
      "196": 2582,
      "tel": 2583,
      "##if": 2584,
      "matapos": 2585,
      "##aryo": 2586,
      "##awang": 2587,
      "##ido": 2588,
      "kapangyar": 2589,
      "halimbawa": 2590,
      "##aya": 2591,
      "11": 2592,
      "ii": 2593,
      "lib": 2594,
      "##iba": 2595,
      "ekonom": 2596,
      "##ust": 2597,
      "##iran": 2598,
      "14": 2599,
      "##iwala": 2600,
      "lim": 2601,
      "laban": 2602,
      "car": 2603,
      "eks": 2604,
      "ob": 2605,
      "##po": 2606,
      "ina": 2607,
      "matatag": 2608,
      "ug": 2609,
      "##land": 2610,
      "##duk": 2611,
      "la": 2612,
      "##ly": 2613,
      "eb": 2614,
      "so": 2615,
      "ngayon": 2616,
      "bagaman": 2617,
      "##api": 2618,
      "##art": 2619,
      "000": 2620,
      "git": 2621,
      "pangkal": 2622,
      "##ond": 2623,
      "##iyong": 2624,
      "nob": 2625,
      "13": 2626,
      "##irang": 2627,
      "lik": 2628,
      "##ham": 2629,
      "##ilan": 2630,
      "##apan": 2631,
      "ikalawang": 2632,
      "##umpay": 2633,
      "nah": 2634,
      "kristiy": 2635,
      "##gr": 2636,
      "##abaho": 2637,
      "anim": 2638,
      "hilagang": 2639,
      "ep": 2640,
      "##umb": 2641,
      "##ulugan": 2642,
      "emper": 2643,
      "##ingg": 2644,
      "##ish": 2645,
      "aklat": 2646,
      "##abing": 2647,
      "trad": 2648,
      "##ekt": 2649,
      "seks": 2650,
      "lin": 2651,
      "##agan": 2652,
      "##ugnay": 2653,
      "dr": 2654,
      "he": 2655,
      "nagd": 2656,
      "##ahayag": 2657,
      "##ira": 2658,
      "me": 2659,
      "##ite": 2660,
      "amerik": 2661,
      "##oses": 2662,
      "tsina": 2663,
      "iyon": 2664,
      "pangang": 2665,
      "##ekto": 2666,
      "##araan": 2667,
      "ama": 2668,
      "dek": 2669,
      "nina": 2670,
      "malawak": 2671,
      "##av": 2672,
      "195": 2673,
      "salitang": 2674,
      "##hang": 2675,
      "##itar": 2676,
      "##isyong": 2677,
      "pinam": 2678,
      "##ulasyon": 2679,
      "##aban": 2680,
      "prans": 2681,
      "new": 2682,
      "##syon": 2683,
      "##ungo": 2684,
      "nakik": 2685,
      "kahit": 2686,
      "##akita": 2687,
      "binubuo": 2688,
      "opisyal": 2689,
      "katang": 2690,
      "nagkaroon": 2691,
      "##ath": 2692,
      "##atili": 2693,
      "##atid": 2694,
      "nagsimula": 2695,
      "##angh": 2696,
      "partik": 2697,
      "digma": 2698,
      "paggamit": 2699,
      "##uturing": 2700,
      "sc": 2701,
      "pers": 2702,
      "sen": 2703,
      "##ial": 2704,
      "met": 2705,
      "paar": 2706,
      "pis": 2707,
      "##lam": 2708,
      "simbahan": 2709,
      "digmaang": 2710,
      "##utukoy": 2711,
      "tungkol": 2712,
      "kuw": 2713,
      "sel": 2714,
      "##isang": 2715,
      "nangang": 2716,
      "organ": 2717,
      "##qu": 2718,
      "kanluran": 2719,
      "sining": 2720,
      "##upo": 2721,
      "##ver": 2722,
      "katawan": 2723,
      "##te": 2724,
      "teor": 2725,
      "##ante": 2726,
      "sinaunang": 2727,
      "##itika": 2728,
      "komun": 2729,
      "matatagpuan": 2730,
      "##per": 2731,
      "##ati": 2732,
      "mayroon": 2733,
      "bas": 2734,
      "sik": 2735,
      "wika": 2736,
      "kala": 2737,
      "##alig": 2738,
      "republ": 2739,
      "med": 2740,
      "##co": 2741,
      "lok": 2742,
      "##ida": 2743,
      "lalaki": 2744,
      "intern": 2745,
      "komp": 2746,
      "gaya": 2747,
      "bak": 2748,
      "dan": 2749,
      "for": 2750,
      "sarili": 2751,
      "##iwalay": 2752,
      "pambansang": 2753,
      "paraan": 2754,
      "romano": 2755,
      "sol": 2756,
      "##iniwala": 2757,
      "tubig": 2758,
      "emperador": 2759,
      "##abaw": 2760,
      "kast": 2761,
      "el": 2762,
      "silangan": 2763,
      "##itaw": 2764,
      "nal": 2765,
      "##arap": 2766,
      "bl": 2767,
      "ipinanganak": 2768,
      "lit": 2769,
      "ok": 2770,
      "pans": 2771,
      "gayun": 2772,
      "kapangyarihan": 2773,
      "lang": 2774,
      "##enyo": 2775,
      "##utan": 2776,
      "##anging": 2777,
      "gam": 2778,
      "relih": 2779,
      "us": 2780,
      "##ibil": 2781,
      "##alabas": 2782,
      "##ive": 2783,
      "dir": 2784,
      "po": 2785,
      "sap": 2786,
      "##agong": 2787,
      "##ono": 2788,
      "##rop": 2789,
      "##iit": 2790,
      "ginawa": 2791,
      "agham": 2792,
      "sy": 2793,
      "tun": 2794,
      "##ato": 2795,
      "anyo": 2796,
      "papa": 2797,
      "se": 2798,
      "to": 2799,
      "##han": 2800,
      "##angalan": 2801,
      "##alarawan": 2802,
      "malapit": 2803,
      "##aganap": 2804,
      "pagg": 2805,
      "##umang": 2806,
      "##osto": 2807,
      "##usan": 2808,
      "193": 2809,
      "ring": 2810,
      "##nang": 2811,
      "aleman": 2812,
      "##min": 2813,
      "mataas": 2814,
      "kontr": 2815,
      "halos": 2816,
      "dapat": 2817,
      "sing": 2818,
      "##hip": 2819,
      "##unin": 2820,
      "##hin": 2821,
      "pakikipag": 2822,
      "pab": 2823,
      "##itor": 2824,
      "pagkaka": 2825,
      "awit": 2826,
      "cr": 2827,
      "##ti": 2828,
      "europa": 2829,
      "buk": 2830,
      "siy": 2831,
      "imperyong": 2832,
      "buw": 2833,
      "tan": 2834,
      "tem": 2835,
      "##ne": 2836,
      "##ena": 2837,
      "##ibers": 2838,
      "produk": 2839,
      "punong": 2840,
      "kapatid": 2841,
      "pinaka": 2842,
      "bata": 2843,
      "##sak": 2844,
      "##along": 2845,
      "##ge": 2846,
      "##iwanag": 2847,
      "##asok": 2848,
      "##ihang": 2849,
      "pagsas": 2850,
      "##ilb": 2851,
      "ark": 2852,
      "her": 2853,
      "gus": 2854,
      "nagh": 2855,
      "dem": 2856,
      "ibin": 2857,
      "ginamit": 2858,
      "##ebr": 2859,
      "##luw": 2860,
      "pangkalahat": 2861,
      "##yer": 2862,
      "ex": 2863,
      "##bong": 2864,
      "bul": 2865,
      "ur": 2866,
      "##ov": 2867,
      "##ons": 2868,
      "griy": 2869,
      "##agal": 2870,
      "##iwa": 2871,
      "##stit": 2872,
      "puw": 2873,
      "pamilya": 2874,
      "hari": 2875,
      "pres": 2876,
      "award": 2877,
      "griyeg": 2878,
      "dak": 2879,
      "klas": 2880,
      "##uso": 2881,
      "##taon": 2882,
      "ins": 2883,
      "mags": 2884,
      "namatay": 2885,
      "dekada": 2886,
      "daan": 2887,
      "##ical": 2888,
      "oras": 2889,
      "simula": 2890,
      "militar": 2891,
      "##ice": 2892,
      "kasalukuyang": 2893,
      "##usunod": 2894,
      "naka": 2895,
      "##iyo": 2896,
      "pant": 2897,
      "kalak": 2898,
      "bab": 2899,
      "nakapag": 2900,
      "##enta": 2901,
      "##ling": 2902,
      "sinas": 2903,
      "ital": 2904,
      "sul": 2905,
      "##alip": 2906,
      "##ind": 2907,
      "kaharian": 2908,
      "gen": 2909,
      "qu": 2910,
      "##lim": 2911,
      "katol": 2912,
      "col": 2913,
      "##erb": 2914,
      "##ikasyon": 2915,
      "##esis": 2916,
      "##dia": 2917,
      "##oby": 2918,
      "itinatag": 2919,
      "populasyon": 2920,
      "do": 2921,
      "##ka": 2922,
      "pinuno": 2923,
      "##paman": 2924,
      "##uro": 2925,
      "sistema": 2926,
      "##uy": 2927,
      "##atawan": 2928,
      "hay": 2929,
      "##abot": 2930,
      "pamant": 2931,
      "prins": 2932,
      "eduk": 2933,
      "madalas": 2934,
      "##ilis": 2935,
      "##osop": 2936,
      "prop": 2937,
      "pilipino": 2938,
      "gayunpaman": 2939,
      "hul": 2940,
      "mor": 2941,
      "##apang": 2942,
      "makab": 2943,
      "orih": 2944,
      "##ck": 2945,
      "grupo": 2946,
      "paaralan": 2947,
      "orihinal": 2948,
      "21": 2949,
      "##maan": 2950,
      "##ahi": 2951,
      "rehiyon": 2952,
      "dam": 2953,
      "##ahin": 2954,
      "##rap": 2955,
      "ilan": 2956,
      "ding": 2957,
      "mins": 2958,
      "##atuloy": 2959,
      "rec": 2960,
      "##akop": 2961,
      "dep": 2962,
      "maliit": 2963,
      "##ataas": 2964,
      "nagmula": 2965,
      "kaw": 2966,
      "sch": 2967,
      "##uth": 2968,
      "lat": 2969,
      "##tion": 2970,
      "##ius": 2971,
      "##ulta": 2972,
      "neg": 2973,
      "mayn": 2974,
      "milyong": 2975,
      "ul": 2976,
      "##ert": 2977,
      "pangm": 2978,
      "pamum": 2979,
      "unibers": 2980,
      "karapat": 2981,
      "pati": 2982,
      "modern": 2983,
      "silangang": 2984,
      "ba": 2985,
      "lay": 2986,
      "os": 2987,
      "##utub": 2988,
      "set": 2989,
      "##ril": 2990,
      "digmaan": 2991,
      "lupa": 2992,
      "fran": 2993,
      "partikular": 2994,
      "pagsus": 2995,
      "##ulungan": 2996,
      "kahulugan": 2997,
      "sistemang": 2998,
      "##ight": 2999,
      "##uns": 3000,
      "##ose": 3001,
      "##ipat": 3002,
      "##ton": 3003,
      "##imb": 3004,
      "dagat": 3005,
      "##atayan": 3006,
      "##adala": 3007,
      "##usang": 3008,
      "##olog": 3009,
      "trans": 3010,
      "simbahang": 3011,
      "sab": 3012,
      "maynila": 3013,
      "##istang": 3014,
      "##ve": 3015,
      "##irahan": 3016,
      "kur": 3017,
      "##unta": 3018,
      "mater": 3019,
      "akt": 3020,
      "napak": 3021,
      "em": 3022,
      "##uon": 3023,
      "##son": 3024,
      "maaari": 3025,
      "labanan": 3026,
      "sumunod": 3027,
      "##alin": 3028,
      "191": 3029,
      "pinakamalaking": 3030,
      "##ormal": 3031,
      "##ff": 3032,
      "ide": 3033,
      "##kas": 3034,
      "##atan": 3035,
      "itinuturing": 3036,
      "lokal": 3037,
      "cl": 3038,
      "##ric": 3039,
      "##ho": 3040,
      "##nan": 3041,
      "pangulo": 3042,
      "192": 3043,
      "antas": 3044,
      "bay": 3045,
      "##iano": 3046,
      "progr": 3047,
      "lalaw": 3048,
      "##kr": 3049,
      "proses": 3050,
      "hom": 3051,
      "##udi": 3052,
      "pangh": 3053,
      "salita": 3054,
      "kadalas": 3055,
      "del": 3056,
      "bib": 3057,
      "##kol": 3058,
      "##ubre": 3059,
      "be": 3060,
      "biy": 3061,
      "hes": 3062,
      "kinab": 3063,
      "pagbabago": 3064,
      "pilosop": 3065,
      "##iang": 3066,
      "##ary": 3067,
      "ugn": 3068,
      "katangian": 3069,
      "tur": 3070,
      "anumang": 3071,
      "##olohiyang": 3072,
      "kadalasang": 3073,
      "##tas": 3074,
      "##ies": 3075,
      "reb": 3076,
      "et": 3077,
      "##uhang": 3078,
      "ipinag": 3079,
      "kamatayan": 3080,
      "prinsip": 3081,
      "bansang": 3082,
      "##ry": 3083,
      "kont": 3084,
      "marso": 3085,
      "##ivers": 3086,
      "bce": 3087,
      "espes": 3088,
      "natat": 3089,
      "##ihin": 3090,
      "pangalang": 3091,
      "una": 3092,
      "buwan": 3093,
      "banda": 3094,
      "##ash": 3095,
      "kasapi": 3096,
      "marami": 3097,
      "##aryong": 3098,
      "pagm": 3099,
      "gan": 3100,
      "##alagay": 3101,
      "##tan": 3102,
      "alam": 3103,
      "dinast": 3104,
      "elek": 3105,
      "tak": 3106,
      "tala": 3107,
      "##asang": 3108,
      "nagbibigay": 3109,
      "ir": 3110,
      "##unlad": 3111,
      "##tos": 3112,
      "##ekn": 3113,
      "sang": 3114,
      "sand": 3115,
      "##asya": 3116,
      "hayop": 3117,
      "gu": 3118,
      "rad": 3119,
      "##akan": 3120,
      "##usay": 3121,
      "gitnang": 3122,
      "serb": 3123,
      "kastila": 3124,
      "nar": 3125,
      "int": 3126,
      "kakay": 3127,
      "limang": 3128,
      "seksuwal": 3129,
      "kalaunan": 3130,
      "muli": 3131,
      "ped": 3132,
      "##alidad": 3133,
      "##ela": 3134,
      "enero": 3135,
      "nitong": 3136,
      "##yay": 3137,
      "##all": 3138,
      "##ukl": 3139,
      "##eta": 3140,
      "serye": 3141,
      "bro": 3142,
      "pand": 3143,
      "univers": 3144,
      "big": 3145,
      "gaw": 3146,
      "mo": 3147,
      "##lang": 3148,
      "laro": 3149,
      "industr": 3150,
      "kinabib": 3151,
      "des": 3152,
      "tul": 3153,
      "magp": 3154,
      "disyembre": 3155,
      "ko": 3156,
      "larangan": 3157,
      "##iro": 3158,
      "##atak": 3159,
      "##uti": 3160,
      "##ahati": 3161,
      "##ebisyon": 3162,
      "gumawa": 3163,
      "gawain": 3164,
      "publ": 3165,
      "prob": 3166,
      "agosto": 3167,
      "musika": 3168,
      "ehip": 3169,
      "mapag": 3170,
      "pul": 3171,
      "##isasyon": 3172,
      "##elo": 3173,
      "pinap": 3174,
      "lalawigan": 3175,
      "kinabibilangan": 3176,
      "kim": 3177,
      "##lor": 3178,
      "##atang": 3179,
      "##isyo": 3180,
      "prot": 3181,
      "bahay": 3182,
      "paghah": 3183,
      "him": 3184,
      "##gad": 3185,
      "##ital": 3186,
      "mayo": 3187,
      "##eho": 3188,
      "ekonomiya": 3189,
      "pangkalahatang": 3190,
      "##inang": 3191,
      "##iral": 3192,
      "##aysay": 3193,
      "super": 3194,
      "joh": 3195,
      "ol": 3196,
      "vid": 3197,
      "##amatay": 3198,
      "pelikulang": 3199,
      "##agdag": 3200,
      "##tubre": 3201,
      "##yag": 3202,
      "##arang": 3203,
      "##erasyon": 3204,
      "batay": 3205,
      "25": 3206,
      "pet": 3207,
      "##enteng": 3208,
      "roma": 3209,
      "amerikano": 3210,
      "oktubre": 3211,
      "##aki": 3212,
      "##ograp": 3213,
      "inilabas": 3214,
      "##ulugang": 3215,
      "pook": 3216,
      "unibersidad": 3217,
      "##hen": 3218,
      "##yun": 3219,
      "##onya": 3220,
      "abril": 3221,
      "edad": 3222,
      "cor": 3223,
      "kong": 3224,
      "##ahe": 3225,
      "##ibigan": 3226,
      "kasunod": 3227,
      "gre": 3228,
      "lalo": 3229,
      "ro": 3230,
      "sibil": 3231,
      "##aram": 3232,
      "##por": 3233,
      "##ibid": 3234,
      "sakit": 3235,
      "nobyembre": 3236,
      "pandaigdigang": 3237,
      "##ebrero": 3238,
      "pebrero": 3239,
      "tekn": 3240,
      "##se": 3241,
      "##are": 3242,
      "noon": 3243,
      "modernong": 3244,
      "##igang": 3245,
      "kanila": 3246,
      "paggawa": 3247,
      "kristiyano": 3248,
      "##ko": 3249,
      "##one": 3250,
      "##ich": 3251,
      "kalag": 3252,
      "papel": 3253,
      "##ys": 3254,
      "##olusyon": 3255,
      "ilog": 3256,
      "manun": 3257,
      "espanya": 3258,
      "##anggit": 3259,
      "panlipunan": 3260,
      "edukasyon": 3261,
      "##isto": 3262,
      "202": 3263,
      "sinabi": 3264,
      "imperyo": 3265,
      "griyego": 3266,
      "lipunan": 3267,
      "##agumpay": 3268,
      "karagd": 3269,
      "kabu": 3270,
      "asya": 3271,
      "tumutukoy": 3272,
      "tradisyon": 3273,
      "yo": 3274,
      "##ence": 3275,
      "pagkain": 3276,
      "katutub": 3277,
      "umi": 3278,
      "partido": 3279,
      "philip": 3280,
      "dok": 3281,
      "hang": 3282,
      "hun": 3283,
      "kump": 3284,
      "##ona": 3285,
      "30": 3286,
      "har": 3287,
      "on": 3288,
      "ut": 3289,
      "##ilo": 3290,
      "##ukat": 3291,
      "##uyod": 3292,
      "elektr": 3293,
      "##alog": 3294,
      "190": 3295,
      "batang": 3296,
      "miy": 3297,
      "##yano": 3298,
      "##alam": 3299,
      "angk": 3300,
      "##omb": 3301,
      "magb": 3302,
      "mac": 3303,
      "kaysa": 3304,
      "##pany": 3305,
      "##aliksik": 3306,
      "mamam": 3307,
      "mer": 3308,
      "##ional": 3309,
      "pampol": 3310,
      "str": 3311,
      "##unuan": 3312,
      "##ost": 3313,
      "nakab": 3314,
      "ari": 3315,
      "asawa": 3316,
      "189": 3317,
      "##ugnayan": 3318,
      "nangangah": 3319,
      "##atlong": 3320,
      "##alaro": 3321,
      "##enn": 3322,
      "##igo": 3323,
      "inih": 3324,
      "##ugan": 3325,
      "halip": 3326,
      "katoliko": 3327,
      "record": 3328,
      "100": 3329,
      "ah": 3330,
      "bol": 3331,
      "##pe": 3332,
      "magm": 3333,
      "##iwang": 3334,
      "arm": 3335,
      "##leng": 3336,
      "marc": 3337,
      "##ismong": 3338,
      "manl": 3339,
      "uma": 3340,
      "##iel": 3341,
      "##atibong": 3342,
      "##adem": 3343,
      "instit": 3344,
      "pagkakata": 3345,
      "gumagamit": 3346,
      "video": 3347,
      "nagsas": 3348,
      "daigdig": 3349,
      "dantaon": 3350,
      "hud": 3351,
      "##istro": 3352,
      "tinawag": 3353,
      "mahalagang": 3354,
      "samant": 3355,
      "sent": 3356,
      "##anay": 3357,
      "naw": 3358,
      "##akilala": 3359,
      "##olo": 3360,
      "nagsis": 3361,
      "sariling": 3362,
      "dakilang": 3363,
      "bo": 3364,
      "tiy": 3365,
      "##ith": 3366,
      "pangalawang": 3367,
      "setyembre": 3368,
      "hunyo": 3369,
      "##ore": 3370,
      "reg": 3371,
      "##athala": 3372,
      "wala": 3373,
      "##ide": 3374,
      "##uter": 3375,
      "2011": 3376,
      "pinagm": 3377,
      "net": 3378,
      "##ool": 3379,
      "##alitan": 3380,
      "##iks": 3381,
      "##uman": 3382,
      "##ugo": 3383,
      "##aano": 3384,
      "bers": 3385,
      "ge": 3386,
      "##ock": 3387,
      "babaeng": 3388,
      "amerika": 3389,
      "philipp": 3390,
      "##rat": 3391,
      "##awid": 3392,
      "maaring": 3393,
      "##ics": 3394,
      "##entong": 3395,
      "nagbigay": 3396,
      "indibid": 3397,
      "hulyo": 3398,
      "gl": 3399,
      "##ailangan": 3400,
      "pagkab": 3401,
      "char": 3402,
      "kop": 3403,
      "##ood": 3404,
      "nais": 3405,
      "##truk": 3406,
      "lumitaw": 3407,
      "##araang": 3408,
      "dalawa": 3409,
      "miyemb": 3410,
      "austr": 3411,
      "##aguyod": 3412,
      "##abay": 3413,
      "##imulang": 3414,
      "telebisyon": 3415,
      "republika": 3416,
      "hesus": 3417,
      "mangg": 3418,
      "hukbong": 3419,
      "his": 3420,
      "##ii": 3421,
      "##ines": 3422,
      "gulang": 3423,
      "sil": 3424,
      "tanging": 3425,
      "##igil": 3426,
      "nakas": 3427,
      "apr": 3428,
      "likas": 3429,
      "york": 3430,
      "##ihim": 3431,
      "kabis": 3432,
      "bis": 3433,
      "##ental": 3434,
      "pagkakaroon": 3435,
      "kultura": 3436,
      "##uin": 3437,
      "##ator": 3438,
      "##istr": 3439,
      "amp": 3440,
      "##orta": 3441,
      "##idong": 3442,
      "2010": 3443,
      "ig": 3444,
      "##zon": 3445,
      "##que": 3446,
      "##esto": 3447,
      "##igyan": 3448,
      "nakap": 3449,
      "patak": 3450,
      "ce": 3451,
      "##ev": 3452,
      "##araniw": 3453,
      "##ukan": 3454,
      "kaugnayan": 3455,
      "2008": 3456,
      "tunay": 3457,
      "layunin": 3458,
      "materyal": 3459,
      "proseso": 3460,
      "john": 3461,
      "miyembro": 3462,
      "nin": 3463,
      "##ft": 3464,
      "##alat": 3465,
      "##age": 3466,
      "ini": 3467,
      "manan": 3468,
      "##luwens": 3469,
      "eng": 3470,
      "rus": 3471,
      "##amin": 3472,
      "##ayos": 3473,
      "teritor": 3474,
      "school": 3475,
      "bangk": 3476,
      "ros": 3477,
      "##atas": 3478,
      "##alakay": 3479,
      "akda": 3480,
      "korea": 3481,
      "tuw": 3482,
      "##alal": 3483,
      "kababa": 3484,
      "sumusunod": 3485,
      "nilikha": 3486,
      "minsan": 3487,
      "rito": 3488,
      "##uot": 3489,
      "##erh": 3490,
      "##tod": 3491,
      "##old": 3492,
      "##inggil": 3493,
      "magmula": 3494,
      "wh": 3495,
      "naga": 3496,
      "comm": 3497,
      "plat": 3498,
      "##li": 3499,
      "##vel": 3500,
      "##ektor": 3501,
      "##eksiyon": 3502,
      "bur": 3503,
      "##san": 3504,
      "relihiyon": 3505,
      "lingg": 3506,
      "yug": 3507,
      "##iban": 3508,
      "##anggol": 3509,
      "patuloy": 3510,
      "pranses": 3511,
      "can": 3512,
      "labas": 3513,
      "nai": 3514,
      "##ace": 3515,
      "university": 3516,
      "ehipto": 3517,
      "23": 3518,
      "huli": 3519,
      "pah": 3520,
      "nait": 3521,
      "##orn": 3522,
      "maagang": 3523,
      "##ampok": 3524,
      "negos": 3525,
      "##asyo": 3526,
      "##awit": 3527,
      "parang": 3528,
      "naglalaman": 3529,
      "daang": 3530,
      "konsep": 3531,
      "kilalang": 3532,
      "##alipas": 3533,
      "##ayong": 3534,
      "##iyal": 3535,
      "napag": 3536,
      "pinakamah": 3537,
      "latin": 3538,
      "manunulat": 3539,
      "##ao": 3540,
      "##ibang": 3541,
      "tsino": 3542,
      "##yayari": 3543,
      "bit": 3544,
      "lag": 3545,
      "##agam": 3546,
      "hilaga": 3547,
      "##work": 3548,
      "##ley": 3549,
      "all": 3550,
      "isinulat": 3551,
      "lupain": 3552,
      "pampolitika": 3553,
      "nilang": 3554,
      "##0s": 3555,
      "##ispo": 3556,
      "##ikan": 3557,
      "##emat": 3558,
      "mababang": 3559,
      "bir": 3560,
      "##law": 3561,
      "##ont": 3562,
      "##usa": 3563,
      "##ipl": 3564,
      "##erno": 3565,
      "city": 3566,
      "##undan": 3567,
      "##yunal": 3568,
      "sir": 3569,
      "##irap": 3570,
      "distr": 3571,
      "22": 3572,
      "hinggil": 3573,
      "sun": 3574,
      "##ayaan": 3575,
      "##ulin": 3576,
      "islam": 3577,
      "##ene": 3578,
      "tagumpay": 3579,
      "pagsis": 3580,
      "##agatang": 3581,
      "kulay": 3582,
      "ho": 3583,
      "##ake": 3584,
      "makapag": 3585,
      "taga": 3586,
      "##ress": 3587,
      "pagkakataon": 3588,
      "halaga": 3589,
      "##alian": 3590,
      "##agsak": 3591,
      "isra": 3592,
      "pamayan": 3593,
      "##olohikal": 3594,
      "bibl": 3595,
      "israel": 3596,
      "##her": 3597,
      "##ahok": 3598,
      "ibig": 3599,
      "ibabaw": 3600,
      "trabaho": 3601,
      "kanlurang": 3602,
      "fil": 3603,
      "pre": 3604,
      "##ral": 3605,
      "##way": 3606,
      "##agay": 3607,
      "##esa": 3608,
      "inhin": 3609,
      "aral": 3610,
      "idin": 3611,
      "pransiya": 3612,
      "##unsad": 3613,
      "dinastiyang": 3614,
      "##yu": 3615,
      "##oro": 3616,
      "##usugan": 3617,
      "makik": 3618,
      "gayon": 3619,
      "pinags": 3620,
      "nagkaka": 3621,
      "kababaihan": 3622,
      "bahag": 3623,
      "lip": 3624,
      "##ler": 3625,
      "samp": 3626,
      "ist": 3627,
      "ministro": 3628,
      "linya": 3629,
      "sem": 3630,
      "##lan": 3631,
      "##ibay": 3632,
      "mart": 3633,
      "##ria": 3634,
      "##erd": 3635,
      "##taas": 3636,
      "##tern": 3637,
      "deb": 3638,
      "palig": 3639,
      "bumalik": 3640,
      "bud": 3641,
      "mis": 3642,
      "##ilangang": 3643,
      "kapan": 3644,
      "pampubl": 3645,
      "britan": 3646,
      "gusali": 3647,
      "mun": 3648,
      "##mento": 3649,
      "##aso": 3650,
      "##ultura": 3651,
      "##uting": 3652,
      "matagumpay": 3653,
      "##ahanan": 3654,
      "lumil": 3655,
      "hangganan": 3656,
      "panit": 3657,
      "##etiko": 3658,
      "music": 3659,
      "##unting": 3660,
      "dom": 3661,
      "soby": 3662,
      "##agpuan": 3663,
      "##ors": 3664,
      "##omet": 3665,
      "##ahanap": 3666,
      "pisikal": 3667,
      "##yn": 3668,
      "##yat": 3669,
      "##ole": 3670,
      "espany": 3671,
      "makak": 3672,
      "banal": 3673,
      "person": 3674,
      "espanyol": 3675,
      "##ld": 3676,
      "##alita": 3677,
      "##ick": 3678,
      "kapwa": 3679,
      "term": 3680,
      "ganitong": 3681,
      "lakas": 3682,
      "ra": 3683,
      "tom": 3684,
      "tawag": 3685,
      "##ret": 3686,
      "kasarian": 3687,
      "kond": 3688,
      "chr": 3689,
      "##ungkahi": 3690,
      "nanin": 3691,
      "kabisera": 3692,
      "##inasyon": 3693,
      "##ima": 3694,
      "##upad": 3695,
      "comp": 3696,
      "kasalukuyan": 3697,
      "network": 3698,
      "tip": 3699,
      "##ts": 3700,
      "##ca": 3701,
      "pinan": 3702,
      "##anghal": 3703,
      "##der": 3704,
      "##ipin": 3705,
      "pamumuno": 3706,
      "sw": 3707,
      "stat": 3708,
      "##ier": 3709,
      "##kod": 3710,
      "kanta": 3711,
      "##ilipat": 3712,
      "2006": 3713,
      "iii": 3714,
      "sentr": 3715,
      "italya": 3716,
      "jose": 3717,
      "mong": 3718,
      "wor": 3719,
      "##dang": 3720,
      "##itiko": 3721,
      "##entr": 3722,
      "init": 3723,
      "##ica": 3724,
      "##alakbay": 3725,
      "kuwento": 3726,
      "propes": 3727,
      "pulo": 3728,
      "##ij": 3729,
      "nakilala": 3730,
      "2012": 3731,
      "juan": 3732,
      "sunod": 3733,
      "##mo": 3734,
      "##awaran": 3735,
      "kaso": 3736,
      "karera": 3737,
      "patungo": 3738,
      "dumating": 3739,
      "bel": 3740,
      "hit": 3741,
      "##va": 3742,
      "ikatlong": 3743,
      "natur": 3744,
      "2009": 3745,
      "##turang": 3746,
      "muslim": 3747,
      "pananaw": 3748,
      "bukod": 3749,
      "cal": 3750,
      "lub": 3751,
      "##anismo": 3752,
      "##ulit": 3753,
      "magkak": 3754,
      "nanalo": 3755,
      "resulta": 3756,
      "imb": 3757,
      "but": 3758,
      "sur": 3759,
      "##umento": 3760,
      "##ote": 3761,
      "kaibigan": 3762,
      "186": 3763,
      "mit": 3764,
      "rock": 3765,
      "sos": 3766,
      "##ako": 3767,
      "##ult": 3768,
      "##able": 3769,
      "estasyon": 3770,
      "mahigit": 3771,
      "studi": 3772,
      "##orte": 3773,
      "nangangahulugang": 3774,
      "will": 3775,
      "##ias": 3776,
      "nau": 3777,
      "##amahala": 3778,
      "##ersa": 3779,
      "maria": 3780,
      "posisyon": 3781,
      "##ilbi": 3782,
      "teritoryo": 3783,
      "world": 3784,
      "best": 3785,
      "pe": 3786,
      "##amm": 3787,
      "##igtas": 3788,
      "pagka": 3789,
      "franc": 3790,
      "##uklasan": 3791,
      "haring": 3792,
      "sund": 3793,
      "sangk": 3794,
      "##yl": 3795,
      "##inig": 3796,
      "##asiwa": 3797,
      "##ilya": 3798,
      "##akter": 3799,
      "##ahagi": 3800,
      "##eses": 3801,
      "pinang": 3802,
      "kasund": 3803,
      "unit": 3804,
      "pangkas": 3805,
      "pagpapat": 3806,
      "obispo": 3807,
      "produkto": 3808,
      "tahanan": 3809,
      "##atig": 3810,
      "##ilalim": 3811,
      "kabat": 3812,
      "pangkaraniw": 3813,
      "kinaka": 3814,
      "umiiral": 3815,
      "sentro": 3816,
      "dib": 3817,
      "gal": 3818,
      "pad": 3819,
      "##atiling": 3820,
      "isip": 3821,
      "arab": 3822,
      "##antong": 3823,
      "##angkin": 3824,
      "dav": 3825,
      "south": 3826,
      "pagkakaiba": 3827,
      "makabagong": 3828,
      "marcos": 3829,
      "dugo": 3830,
      "er": 3831,
      "##uz": 3832,
      "##ium": 3833,
      "##ilyo": 3834,
      "##uring": 3835,
      "##ibig": 3836,
      "katawag": 3837,
      "proy": 3838,
      "##aloob": 3839,
      "pagkakat": 3840,
      "26": 3841,
      "af": 3842,
      "air": 3843,
      "bill": 3844,
      "##yente": 3845,
      "##arl": 3846,
      "##osa": 3847,
      "pamagat": 3848,
      "##ekta": 3849,
      "##ugang": 3850,
      "##edral": 3851,
      "ikin": 3852,
      "national": 3853,
      "gawaing": 3854,
      "gamitin": 3855,
      "demok": 3856,
      "hel": 3857,
      "jack": 3858,
      "##az": 3859,
      "##ber": 3860,
      "##alawak": 3861,
      "nangung": 3862,
      "lumipat": 3863,
      "kinik": 3864,
      "##aysayang": 3865,
      "mid": 3866,
      "pormal": 3867,
      "##tom": 3868,
      "##usyong": 3869,
      "##ipiko": 3870,
      "pagkaraan": 3871,
      "magulang": 3872,
      "malakas": 3873,
      "maliban": 3874,
      "makat": 3875,
      "dahilan": 3876,
      "hukbo": 3877,
      "jam": 3878,
      "##lay": 3879,
      "##inc": 3880,
      "##isenyo": 3881,
      "##ikling": 3882,
      "pinangalan": 3883,
      "nakita": 3884,
      "karakter": 3885,
      "ass": 3886,
      "nagsimulang": 3887,
      "paksa": 3888,
      "magkaroon": 3889,
      "programa": 3890,
      "pagmam": 3891,
      "mamamayan": 3892,
      "bil": 3893,
      "don": 3894,
      "##go": 3895,
      "##iam": 3896,
      "unlad": 3897,
      "kalayaan": 3898,
      "##ansin": 3899,
      "pamamahala": 3900,
      "ipinap": 3901,
      "palabas": 3902,
      "itinayo": 3903,
      "disenyo": 3904,
      "sanhi": 3905,
      "24": 3906,
      "mol": 3907,
      "##itn": 3908,
      "##akit": 3909,
      "##enc": 3910,
      "kabila": 3911,
      "tagalog": 3912,
      "europeo": 3913,
      "tungkulin": 3914,
      "baybay": 3915,
      "aprika": 3916,
      "fo": 3917,
      "##yari": 3918,
      "##anang": 3919,
      "##unong": 3920,
      "##ungat": 3921,
      "##dic": 3922,
      "##ugis": 3923,
      "karaniwan": 3924,
      "bid": 3925,
      "rob": 3926,
      "##papawid": 3927,
      "##ational": 3928,
      "##aligiran": 3929,
      "kakayahan": 3930,
      "industriya": 3931,
      "##ican": 3932,
      "mabilis": 3933,
      "koleh": 3934,
      "ideya": 3935,
      "ugnayan": 3936,
      "beses": 3937,
      "high": 3938,
      "nanan": 3939,
      "##ting": 3940,
      "##iet": 3941,
      "##ean": 3942,
      "##ipon": 3943,
      "paniniwala": 3944,
      "saligang": 3945,
      "artista": 3946,
      "plan": 3947,
      "kapanah": 3948,
      "##lin": 3949,
      "##ibidad": 3950,
      "kaugnay": 3951,
      "pinakamataas": 3952,
      "luc": 3953,
      "konsepto": 3954,
      "##iyano": 3955,
      "##orya": 3956,
      "tinutukoy": 3957,
      "amerikanong": 3958,
      "serbisyo": 3959,
      "31": 3960,
      "go": 3961,
      "port": 3962,
      "paano": 3963,
      "##atr": 3964,
      "nakal": 3965,
      "##eth": 3966,
      "##antay": 3967,
      "lumang": 3968,
      "2014": 3969,
      "talaan": 3970,
      "kabuuang": 3971,
      "pinagmulan": 3972,
      "nagkakaisang": 3973,
      "pero": 3974,
      "tug": 3975,
      "##atayang": 3976,
      "pagpapa": 3977,
      "arkit": 3978,
      "linggo": 3979,
      "inhinyer": 3980,
      "bi": 3981,
      "mic": 3982,
      "sus": 3983,
      "##ual": 3984,
      "##kat": 3985,
      "##uklas": 3986,
      "magiging": 3987,
      "ano": 3988,
      "unyong": 3989,
      "labis": 3990,
      "##eksto": 3991,
      "##ampal": 3992,
      "kilusang": 3993,
      "karapatan": 3994,
      "film": 3995,
      "pw": 3996,
      "soc": 3997,
      "##ner": 3998,
      "##imulan": 3999,
      "katedral": 4000,
      "rey": 4001,
      "kailangan": 4002,
      "agr": 4003,
      "elemento": 4004,
      "komunista": 4005,
      "tanyag": 4006,
      "##agad": 4007,
      "##ini": 4008,
      "sinus": 4009,
      "kauna": 4010,
      "bato": 4011,
      "heneral": 4012,
      "samantalang": 4013,
      "pampublikong": 4014,
      "##oss": 4015,
      "pangg": 4016,
      "##uhit": 4017,
      "makap": 4018,
      "##undok": 4019,
      "natagpuan": 4020,
      "hapones": 4021,
      "malawakang": 4022,
      "indibidwal": 4023,
      "28": 4024,
      "aawit": 4025,
      "ca": 4026,
      "jo": 4027,
      "sukat": 4028,
      "##ez": 4029,
      "##uran": 4030,
      "##trabaho": 4031,
      "kalik": 4032,
      "##undin": 4033,
      "2005": 4034,
      "2000": 4035,
      "2013": 4036,
      "##asanay": 4037,
      "kumulang": 4038,
      "alex": 4039,
      "##umbas": 4040,
      "pagganap": 4041,
      "ulit": 4042,
      "munisip": 4043,
      "27": 4044,
      "dat": 4045,
      "##eus": 4046,
      "tagap": 4047,
      "##ormasyon": 4048,
      "temp": 4049,
      "manlalaro": 4050,
      "lt": 4051,
      "##enida": 4052,
      "kailan": 4053,
      "2004": 4054,
      "##anghel": 4055,
      "makikita": 4056,
      "sulat": 4057,
      "##rom": 4058,
      "napap": 4059,
      "##inaw": 4060,
      "##ugh": 4061,
      "##iliit": 4062,
      "nakatuon": 4063,
      "ebanghel": 4064,
      "##asin": 4065,
      "##ilos": 4066,
      "##iyahan": 4067,
      "##trol": 4068,
      "natuklasan": 4069,
      "santo": 4070,
      "##amba": 4071,
      "star": 4072,
      "nagtatag": 4073,
      "alemanya": 4074,
      "bibliya": 4075,
      "tulong": 4076,
      "we": 4077,
      "##ros": 4078,
      "##uel": 4079,
      "##nam": 4080,
      "nail": 4081,
      "nakipag": 4082,
      "kasangk": 4083,
      "trono": 4084,
      "santa": 4085,
      "doon": 4086,
      "hol": 4087,
      "##ile": 4088,
      "##idente": 4089,
      "188": 4090,
      "gayundin": 4091,
      "brit": 4092,
      "humantong": 4093,
      "epekto": 4094,
      "kabataan": 4095,
      "kalikasan": 4096,
      "iisang": 4097,
      "sens": 4098,
      "##yonal": 4099,
      "pinat": 4100,
      "panin": 4101,
      "##iriwang": 4102,
      "katay": 4103,
      "##iwatig": 4104,
      "kinuha": 4105,
      "katutubong": 4106,
      "kw": 4107,
      "kaka": 4108,
      "misyon": 4109,
      "pir": 4110,
      "puno": 4111,
      "val": 4112,
      "##yr": 4113,
      "##arya": 4114,
      "##ones": 4115,
      "##awala": 4116,
      "##awalan": 4117,
      "2007": 4118,
      "##own": 4119,
      "teoriya": 4120,
      "##luwensiya": 4121,
      "bundok": 4122,
      "cent": 4123,
      "japan": 4124,
      "que": 4125,
      "tang": 4126,
      "##ua": 4127,
      "##arin": 4128,
      "##aharap": 4129,
      "##rob": 4130,
      "main": 4131,
      "##ico": 4132,
      "binuo": 4133,
      "2019": 4134,
      "malaki": 4135,
      "sinasabing": 4136,
      "karapatang": 4137,
      "tiyak": 4138,
      "##pak": 4139,
      "##ear": 4140,
      "##ason": 4141,
      "##ilit": 4142,
      "atom": 4143,
      "##osp": 4144,
      "nakuha": 4145,
      "natit": 4146,
      "##eksyon": 4147,
      "enerh": 4148,
      "humigit": 4149,
      "pananaliksik": 4150,
      "kawalan": 4151,
      "natatanging": 4152,
      "ber": 4153,
      "mek": 4154,
      "rek": 4155,
      "##ke": 4156,
      "##akda": 4157,
      "##unc": 4158,
      "##unawa": 4159,
      "nagiging": 4160,
      "##orma": 4161,
      "##oks": 4162,
      "matemat": 4163,
      "2016": 4164,
      "##ect": 4165,
      "##kolar": 4166,
      "geor": 4167,
      "palag": 4168,
      "web": 4169,
      "##yuter": 4170,
      "##aks": 4171,
      "##unayan": 4172,
      "pagkamatay": 4173,
      "akadem": 4174,
      "lumabas": 4175,
      "amb": 4176,
      "halaman": 4177,
      "day": 4178,
      "fl": 4179,
      "pahayag": 4180,
      "##log": 4181,
      "sag": 4182,
      "##ass": 4183,
      "##iter": 4184,
      "##ign": 4185,
      "##asyonal": 4186,
      "kalusugan": 4187,
      "paghih": 4188,
      "international": 4189,
      "pansin": 4190,
      "patakaran": 4191,
      "sobyet": 4192,
      "goby": 4193,
      "##use": 4194,
      "tauhan": 4195,
      "##ensya": 4196,
      "##ensiyon": 4197,
      "kinatawan": 4198,
      "##loob": 4199,
      "tumut": 4200,
      "united": 4201,
      "29": 4202,
      "ben": 4203,
      "say": 4204,
      "##amant": 4205,
      "##uko": 4206,
      "maliliit": 4207,
      "esk": 4208,
      "##uwag": 4209,
      "2017": 4210,
      "bumubuo": 4211,
      "##endo": 4212,
      "element": 4213,
      "##asalita": 4214,
      "eksper": 4215,
      "pedro": 4216,
      "hugis": 4217,
      "son": 4218,
      "ting": 4219,
      "##port": 4220,
      "##eno": 4221,
      "##istan": 4222,
      "pagbibigay": 4223,
      "2003": 4224,
      "##ataya": 4225,
      "##ograpiya": 4226,
      "kolehiyo": 4227,
      "##uga": 4228,
      "##pir": 4229,
      "##kop": 4230,
      "##ahint": 4231,
      "sinundan": 4232,
      "##upa": 4233,
      "kaganap": 4234,
      "diyosesis": 4235,
      "bakal": 4236,
      "histor": 4237,
      "alexand": 4238,
      "##do": 4239,
      "##atandang": 4240,
      "magn": 4241,
      "katumbas": 4242,
      "mao": 4243,
      "##istahan": 4244,
      "makas": 4245,
      "prib": 4246,
      "ginagawa": 4247,
      "milyon": 4248,
      "nagpatuloy": 4249,
      "alej": 4250,
      "pinamagatang": 4251,
      "studio": 4252,
      "ger": 4253,
      "pitong": 4254,
      "seg": 4255,
      "ukol": 4256,
      "##anatili": 4257,
      "##alya": 4258,
      "##ure": 4259,
      "india": 4260,
      "##oka": 4261,
      "umabot": 4262,
      "nagbab": 4263,
      "nabuo": 4264,
      "const": 4265,
      "pamahalaang": 4266,
      "espesyal": 4267,
      "proble": 4268,
      "philippine": 4269,
      "yugto": 4270,
      "pinaniniwala": 4271,
      "gar": 4272,
      "##yp": 4273,
      "##sh": 4274,
      "lumikha": 4275,
      "inglat": 4276,
      "namum": 4277,
      "sangay": 4278,
      "##ield": 4279,
      "tuwing": 4280,
      "negosyo": 4281,
      "alejand": 4282,
      "gas": 4283,
      "jos": 4284,
      "kun": 4285,
      "men": 4286,
      "tok": 4287,
      "##ann": 4288,
      "##akat": 4289,
      "##tog": 4290,
      "pinalitan": 4291,
      "pampang": 4292,
      "cons": 4293,
      "##uturo": 4294,
      "urb": 4295,
      "olimp": 4296,
      "2020": 4297,
      "glob": 4298,
      "50": 4299,
      "pur": 4300,
      "##wang": 4301,
      "##amo": 4302,
      "##isan": 4303,
      "##abit": 4304,
      "magt": 4305,
      "##anggal": 4306,
      "nakatanggap": 4307,
      "gitna": 4308,
      "organisasyon": 4309,
      "kontrol": 4310,
      "single": 4311,
      "pakikipagt": 4312,
      "karagdagan": 4313,
      "naninirahan": 4314,
      "los": 4315,
      "pig": 4316,
      "vir": 4317,
      "##mang": 4318,
      "##onan": 4319,
      "pamamaraan": 4320,
      "prinsipe": 4321,
      "pamayanan": 4322,
      "fel": 4323,
      "##dam": 4324,
      "sasak": 4325,
      "##uta": 4326,
      "katagang": 4327,
      "##eda": 4328,
      "##panan": 4329,
      "nakakuha": 4330,
      "sapag": 4331,
      "siyent": 4332,
      "teknolohiya": 4333,
      "jackson": 4334,
      "32": 4335,
      "dulo": 4336,
      "fre": 4337,
      "king": 4338,
      "loh": 4339,
      "pund": 4340,
      "##uj": 4341,
      "##yeng": 4342,
      "##atibo": 4343,
      "##atura": 4344,
      "unahang": 4345,
      "manila": 4346,
      "1990": 4347,
      "##utol": 4348,
      "pilosopiya": 4349,
      "##agamot": 4350,
      "kapanahunan": 4351,
      "40": 4352,
      "band": 4353,
      "leg": 4354,
      "##rer": 4355,
      "##bang": 4356,
      "##de": 4357,
      "##akt": 4358,
      "##eter": 4359,
      "##ektong": 4360,
      "astr": 4361,
      "natapos": 4362,
      "awtor": 4363,
      "kagawaran": 4364,
      "panlabas": 4365,
      "spec": 4366,
      "popular": 4367,
      "kolon": 4368,
      "drama": 4369,
      "nakikita": 4370,
      "sci": 4371,
      "munisipalidad": 4372,
      "filipin": 4373,
      "gro": 4374,
      "liwanag": 4375,
      "##he": 4376,
      "##wn": 4377,
      "##alala": 4378,
      "##amat": 4379,
      "kaalaman": 4380,
      "tumat": 4381,
      "gumanap": 4382,
      "kamay": 4383,
      "inilarawan": 4384,
      "relasyon": 4385,
      "pantay": 4386,
      "proyekto": 4387,
      "mik": 4388,
      "tula": 4389,
      "walong": 4390,
      "##aliwanag": 4391,
      "mahusay": 4392,
      "##epend": 4393,
      "nagpapakita": 4394,
      "pangkaraniwang": 4395,
      "lond": 4396,
      "nint": 4397,
      "tar": 4398,
      "##ks": 4399,
      "##let": 4400,
      "kasan": 4401,
      "magl": 4402,
      "maka": 4403,
      "187": 4404,
      "##orth": 4405,
      "interes": 4406,
      "posib": 4407,
      "nangungunang": 4408,
      "gobyerno": 4409,
      "sek": 4410,
      "sob": 4411,
      "##ior": 4412,
      "##asama": 4413,
      "##illa": 4414,
      "##ahiwatig": 4415,
      "naganap": 4416,
      "##ubh": 4417,
      "katim": 4418,
      "paglikha": 4419,
      "##igas": 4420,
      "simp": 4421,
      "gumagawa": 4422,
      "ebid": 4423,
      "nagdulot": 4424,
      "klase": 4425,
      "nintendo": 4426,
      "mem": 4427,
      "##lano": 4428,
      "##yos": 4429,
      "nad": 4430,
      "##akatawan": 4431,
      "##ise": 4432,
      "katoto": 4433,
      "kaban": 4434,
      "prim": 4435,
      "tinatayang": 4436,
      "paglal": 4437,
      "paglalarawan": 4438,
      "2015": 4439,
      "estadong": 4440,
      "post": 4441,
      "pagdating": 4442,
      "##impluwens": 4443,
      "pagsusuri": 4444,
      "sapagkat": 4445,
      "bandang": 4446,
      "ga": 4447,
      "gil": 4448,
      "kina": 4449,
      "puso": 4450,
      "##ph": 4451,
      "##col": 4452,
      "##ikap": 4453,
      "katao": 4454,
      "##uhin": 4455,
      "ipag": 4456,
      "ortod": 4457,
      "2001": 4458,
      "samahan": 4459,
      "kristiyanismo": 4460,
      "sabihin": 4461,
      "kalagayan": 4462,
      "ulo": 4463,
      "##ach": 4464,
      "##yante": 4465,
      "naunang": 4466,
      "inaas": 4467,
      "nakaraang": 4468,
      "malalaking": 4469,
      "sinimulan": 4470,
      "##anggun": 4471,
      "nangyari": 4472,
      "##ture": 4473,
      "ibinigay": 4474,
      "publiko": 4475,
      "gt": 4476,
      "mel": 4477,
      "wat": 4478,
      "##si": 4479,
      "##ilidad": 4480,
      "##uke": 4481,
      "##utang": 4482,
      "mai": 4483,
      "maikling": 4484,
      "malayang": 4485,
      "pagkakas": 4486,
      "abs": 4487,
      "madaling": 4488,
      "pagtatalik": 4489,
      "kalaunang": 4490,
      "elektron": 4491,
      "bersyon": 4492,
      "kinikilala": 4493,
      "bidyo": 4494,
      "##ampalataya": 4495,
      "sm": 4496,
      "##mer": 4497,
      "##za": 4498,
      "##ase": 4499,
      "##ulog": 4500,
      "panloob": 4501,
      "anyong": 4502,
      "kapaligiran": 4503,
      "impormasyon": 4504,
      "kamaka": 4505,
      "kalakhang": 4506,
      "karagdagang": 4507,
      "kasunduan": 4508,
      "ganap": 4509,
      "galing": 4510,
      "tungo": 4511,
      "##tle": 4512,
      "##mon": 4513,
      "##lab": 4514,
      "##ansa": 4515,
      "##ayap": 4516,
      "pangulong": 4517,
      "paris": 4518,
      "##anggi": 4519,
      "##ensiyang": 4520,
      "binigyan": 4521,
      "artik": 4522,
      "##board": 4523,
      "sikat": 4524,
      "republikang": 4525,
      "sapat": 4526,
      "bituin": 4527,
      "francis": 4528,
      "35": 4529,
      "av": 4530,
      "cap": 4531,
      "tila": 4532,
      "sama": 4533,
      "##alili": 4534,
      "##ola": 4535,
      "##ute": 4536,
      "##ire": 4537,
      "##irit": 4538,
      "##ugali": 4539,
      "kapul": 4540,
      "tagas": 4541,
      "##stem": 4542,
      "direktor": 4543,
      "kakayahang": 4544,
      "parangal": 4545,
      "william": 4546,
      "agad": 4547,
      "buh": 4548,
      "guro": 4549,
      "tangga": 4550,
      "##itikal": 4551,
      "isla": 4552,
      "nagaganap": 4553,
      "##alangkas": 4554,
      "##tatag": 4555,
      "prod": 4556,
      "2018": 4557,
      "sakop": 4558,
      "pangangailangan": 4559,
      "espesye": 4560,
      "tanggapan": 4561,
      "gant": 4562,
      "sto": 4563,
      "##ron": 4564,
      "##daman": 4565,
      "##ontrol": 4566,
      "##ayat": 4567,
      "##iyas": 4568,
      "##away": 4569,
      "##elang": 4570,
      "masa": 4571,
      "pagbub": 4572,
      "sumali": 4573,
      "##eph": 4574,
      "operasyon": 4575,
      "pumasok": 4576,
      "etn": 4577,
      "you": 4578,
      "bark": 4579,
      "cali": 4580,
      "itaas": 4581,
      "lalaking": 4582,
      "##tain": 4583,
      "mait": 4584,
      "##iwasan": 4585,
      "##uporta": 4586,
      "kapar": 4587,
      "ref": 4588,
      "mahalaga": 4589,
      "abenida": 4590,
      "##unti": 4591,
      "american": 4592,
      "limit": 4593,
      "nakikilala": 4594,
      "metro": 4595,
      "internet": 4596,
      "tulay": 4597,
      "manggagawa": 4598,
      "war": 4599,
      "##arong": 4600,
      "aten": 4601,
      "##tao": 4602,
      "##eder": 4603,
      "tagapang": 4604,
      "kompanya": 4605,
      "palip": 4606,
      "impluwensiya": 4607,
      "sekswal": 4608,
      "babil": 4609,
      "constant": 4610,
      "iw": 4611,
      "mand": 4612,
      "##rabaho": 4613,
      "##gor": 4614,
      "##bur": 4615,
      "##ning": 4616,
      "##sahan": 4617,
      "angel": 4618,
      "##ibot": 4619,
      "##ukto": 4620,
      "##ode": 4621,
      "##iwaan": 4622,
      "##anteng": 4623,
      "aks": 4624,
      "pagsasanay": 4625,
      "##act": 4626,
      "mahabang": 4627,
      "labing": 4628,
      "krus": 4629,
      "kumpanya": 4630,
      "bumuo": 4631,
      "larong": 4632,
      "metal": 4633,
      "david": 4634,
      "center": 4635,
      "eksperim": 4636,
      "aqu": 4637,
      "gabi": 4638,
      "hanay": 4639,
      "ram": 4640,
      "##sang": 4641,
      "atake": 4642,
      "##ubok": 4643,
      "magd": 4644,
      "##aanong": 4645,
      "181": 4646,
      "gumamit": 4647,
      "##ambuhay": 4648,
      "pananakop": 4649,
      "termin": 4650,
      "imin": 4651,
      "eksp": 4652,
      "katangiang": 4653,
      "##ilbing": 4654,
      "suliran": 4655,
      "distrito": 4656,
      "panitikan": 4657,
      "james": 4658,
      "kyo": 4659,
      "korte": 4660,
      "lih": 4661,
      "uk": 4662,
      "wal": 4663,
      "##bah": 4664,
      "sas": 4665,
      "nagw": 4666,
      "##unga": 4667,
      "##ement": 4668,
      "kapulungan": 4669,
      "##eksuwal": 4670,
      "pagpup": 4671,
      "tagapagt": 4672,
      "modelo": 4673,
      "nagtapos": 4674,
      "kapangyarihang": 4675,
      "obs": 4676,
      "system": 4677,
      "dami": 4678,
      "##atakbo": 4679,
      "katayuan": 4680,
      "inglatera": 4681,
      "katimugang": 4682,
      "form": 4683,
      "gag": 4684,
      "jud": 4685,
      "km": 4686,
      "larawan": 4687,
      "susunod": 4688,
      "##uluhan": 4689,
      "mark": 4690,
      "184": 4691,
      "umalis": 4692,
      "admin": 4693,
      "nabub": 4694,
      "pagpatay": 4695,
      "pinamunuan": 4696,
      "rebolusyon": 4697,
      "britanya": 4698,
      "lumilitaw": 4699,
      "sosyal": 4700,
      "administr": 4701,
      "ton": 4702,
      "##pi": 4703,
      "##wood": 4704,
      "sah": 4705,
      "##into": 4706,
      "##asiwaan": 4707,
      "##itch": 4708,
      "##omen": 4709,
      "ikal": 4710,
      "pagsasal": 4711,
      "##ariang": 4712,
      "ipinakilala": 4713,
      "salaysay": 4714,
      "sumasak": 4715,
      "gumag": 4716,
      "1997": 4717,
      "nanatili": 4718,
      "naniniwala": 4719,
      "usap": 4720,
      "colle": 4721,
      "cam": 4722,
      "mismo": 4723,
      "sari": 4724,
      "##arating": 4725,
      "##erto": 4726,
      "nomin": 4727,
      "##utas": 4728,
      "paglalakbay": 4729,
      "komers": 4730,
      "krim": 4731,
      "independ": 4732,
      "elec": 4733,
      "nasabing": 4734,
      "resp": 4735,
      "literal": 4736,
      "tradisyonal": 4737,
      "sampung": 4738,
      "personal": 4739,
      "mekan": 4740,
      "liham": 4741,
      "dah": 4742,
      "diy": 4743,
      "han": 4744,
      "iv": 4745,
      "pen": 4746,
      "red": 4747,
      "riz": 4748,
      "##laban": 4749,
      "##cast": 4750,
      "##agsik": 4751,
      "pangyayari": 4752,
      "##olusyong": 4753,
      "##etr": 4754,
      "##tra": 4755,
      "alk": 4756,
      "##ions": 4757,
      "ste": 4758,
      "nagkak": 4759,
      "naglabas": 4760,
      "sign": 4761,
      "plano": 4762,
      "hukuman": 4763,
      "ebolusyon": 4764,
      "relihiyos": 4765,
      "nagawa": 4766,
      "##itnaan": 4767,
      "ebanghelyo": 4768,
      "60": 4769,
      "diwa": 4770,
      "ec": 4771,
      "one": 4772,
      "##forn": 4773,
      "##anib": 4774,
      "##ikt": 4775,
      "##unahan": 4776,
      "paglil": 4777,
      "##panyang": 4778,
      "##ambing": 4779,
      "anti": 4780,
      "time": 4781,
      "griyegong": 4782,
      "##imbag": 4783,
      "mongol": 4784,
      "arkitek": 4785,
      "californ": 4786,
      "rizal": 4787,
      "bon": 4788,
      "cav": 4789,
      "dim": 4790,
      "flor": 4791,
      "hot": 4792,
      "haba": 4793,
      "harap": 4794,
      "mes": 4795,
      "num": 4796,
      "north": 4797,
      "##usal": 4798,
      "##ukas": 4799,
      "##ekl": 4800,
      "##upan": 4801,
      "##alakal": 4802,
      "mahah": 4803,
      "mababa": 4804,
      "##arka": 4805,
      "daantaon": 4806,
      "minsang": 4807,
      "ugnayang": 4808,
      "paghahari": 4809,
      "katutubo": 4810,
      "baybayin": 4811,
      "agrik": 4812,
      "california": 4813,
      "sit": 4814,
      "##ix": 4815,
      "##ango": 4816,
      "##aly": 4817,
      "##agn": 4818,
      "##inabang": 4819,
      "##aksiyon": 4820,
      "##ull": 4821,
      "pangino": 4822,
      "##ando": 4823,
      "185": 4824,
      "artist": 4825,
      "suporta": 4826,
      "tunog": 4827,
      "pablo": 4828,
      "broad": 4829,
      "kongres": 4830,
      "kalagitnaan": 4831,
      "kaganapan": 4832,
      "gantimp": 4833,
      "bk": 4834,
      "gob": 4835,
      "kh": 4836,
      "tre": 4837,
      "##ild": 4838,
      "##awi": 4839,
      "##esya": 4840,
      "panun": 4841,
      "##andaan": 4842,
      "org": 4843,
      "off": 4844,
      "ent": 4845,
      "partidong": 4846,
      "nasasak": 4847,
      "nakikipag": 4848,
      "kompyuter": 4849,
      "pamantasan": 4850,
      "radyo": 4851,
      "bangko": 4852,
      "pribadong": 4853,
      "olimpiko": 4854,
      "rit": 4855,
      "##hanan": 4856,
      "##car": 4857,
      "##ña": 4858,
      "##alapit": 4859,
      "##ikat": 4860,
      "##ikano": 4861,
      "##ese": 4862,
      "##oll": 4863,
      "katan": 4864,
      "hinirang": 4865,
      "##iwalang": 4866,
      "matat": 4867,
      "paglip": 4868,
      "2002": 4869,
      "##angka": 4870,
      "papunta": 4871,
      "1999": 4872,
      "konseho": 4873,
      "talambuhay": 4874,
      "##velop": 4875,
      "enerhiya": 4876,
      "##yd": 4877,
      "##ki": 4878,
      "##ahal": 4879,
      "##ungg": 4880,
      "##omp": 4881,
      "pantao": 4882,
      "pagkilala": 4883,
      "matagal": 4884,
      "##ektang": 4885,
      "selula": 4886,
      "christ": 4887,
      "##rid": 4888,
      "##uyo": 4889,
      "##patuloy": 4890,
      "##lak": 4891,
      "##ere": 4892,
      "##isyunal": 4893,
      "##ikayat": 4894,
      "inf": 4895,
      "##ome": 4896,
      "alp": 4897,
      "##istika": 4898,
      "##ersang": 4899,
      "paglabas": 4900,
      "disipl": 4901,
      "1980": 4902,
      "espasyo": 4903,
      "kore": 4904,
      "kadal": 4905,
      "exp": 4906,
      "##ology": 4907,
      "termino": 4908,
      "##usalem": 4909,
      "bang": 4910,
      "yunit": 4911,
      "##atong": 4912,
      "##arth": 4913,
      "##ayak": 4914,
      "isyu": 4915,
      "##ugalian": 4916,
      "alagad": 4917,
      "##ister": 4918,
      "1998": 4919,
      "kumb": 4920,
      "pagtit": 4921,
      "##ondo": 4922,
      "nangangailangan": 4923,
      "awards": 4924,
      "quark": 4925,
      "bahaging": 4926,
      "george": 4927,
      "dil": 4928,
      "field": 4929,
      "my": 4930,
      "top": 4931,
      "ung": 4932,
      "##ba": 4933,
      "##ky": 4934,
      "naip": 4935,
      "##ale": 4936,
      "##asagawa": 4937,
      "##usob": 4938,
      "pina": 4939,
      "##rot": 4940,
      "unti": 4941,
      "max": 4942,
      "maip": 4943,
      "ginawang": 4944,
      "##ario": 4945,
      "oper": 4946,
      "##ortahan": 4947,
      "pagtatayo": 4948,
      "rehiyong": 4949,
      "tradisyunal": 4950,
      "paaralang": 4951,
      "organismo": 4952,
      "base": 4953,
      "instr": 4954,
      "##araming": 4955,
      "rusya": 4956,
      "nauugnay": 4957,
      "sundalo": 4958,
      "awtoridad": 4959,
      "dip": 4960,
      "dulot": 4961,
      "klim": 4962,
      "law": 4963,
      "pot": 4964,
      "song": 4965,
      "sec": 4966,
      "tv": 4967,
      "##du": 4968,
      "##ingan": 4969,
      "##iss": 4970,
      "##urang": 4971,
      "##ungang": 4972,
      "##ete": 4973,
      "altern": 4974,
      "kalaban": 4975,
      "pinakas": 4976,
      "pagbuo": 4977,
      "namang": 4978,
      "media": 4979,
      "aug": 4980,
      "fa": 4981,
      "hip": 4982,
      "muk": 4983,
      "##tang": 4984,
      "##alok": 4985,
      "##amitan": 4986,
      "##osisyon": 4987,
      "##iram": 4988,
      "kateg": 4989,
      "pinakawalan": 4990,
      "maharl": 4991,
      "##ernador": 4992,
      "magkaka": 4993,
      "punto": 4994,
      "dalubh": 4995,
      "academ": 4996,
      "nagmum": 4997,
      "ugat": 4998,
      "pinamum": 4999,
      "siyam": 5000,
      "hangin": 5001,
      "hudyo": 5002,
      "natural": 5003,
      "katawagang": 5004,
      "portug": 5005,
      "alejandro": 5006,
      "hak": 5007,
      "hard": 5008,
      "lalak": 5009,
      "out": 5010,
      "vic": 5011,
      "##ón": 5012,
      "nagtrabaho": 5013,
      "malay": 5014,
      "kard": 5015,
      "##anti": 5016,
      "estilo": 5017,
      "aposto": 5018,
      "halalan": 5019,
      "pinagk": 5020,
      "abo": 5021,
      "##ungkulan": 5022,
      "dumad": 5023,
      "sentral": 5024,
      "filipino": 5025,
      "katotohanan": 5026,
      "dati": 5027,
      "jer": 5028,
      "mos": 5029,
      "nuk": 5030,
      "##erm": 5031,
      "##unl": 5032,
      "##ipikasyon": 5033,
      "##elih": 5034,
      "##ukuha": 5035,
      "##uksan": 5036,
      "estr": 5037,
      "##upong": 5038,
      "develop": 5039,
      "##low": 5040,
      "repres": 5041,
      "1970": 5042,
      "##anao": 5043,
      "pumap": 5044,
      "kakulang": 5045,
      "teorya": 5046,
      "komunidad": 5047,
      "syn": 5048,
      "arke": 5049,
      "pangkalahatan": 5050,
      "utak": 5051,
      "pinakamahusay": 5052,
      "problema": 5053,
      "apostol": 5054,
      "dalaw": 5055,
      "iisip": 5056,
      "lalong": 5057,
      "##den": 5058,
      "##adr": 5059,
      "##igr": 5060,
      "##usto": 5061,
      "mata": 5062,
      "##uwa": 5063,
      "konstit": 5064,
      "nagsilbi": 5065,
      "pinagb": 5066,
      "umu": 5067,
      "magka": 5068,
      "linyang": 5069,
      "puwersa": 5070,
      "klasikong": 5071,
      "sinasabi": 5072,
      "kabuuan": 5073,
      "philippines": 5074,
      "paligid": 5075,
      "##ahintulot": 5076,
      "science": 5077,
      "gir": 5078,
      "lap": 5079,
      "mot": 5080,
      "su": 5081,
      "##ee": 5082,
      "##zo": 5083,
      "##ware": 5084,
      "##ative": 5085,
      "##asid": 5086,
      "##ilalang": 5087,
      "##itis": 5088,
      "##igp": 5089,
      "pagkas": 5090,
      "aralan": 5091,
      "##alawakan": 5092,
      "##iana": 5093,
      "makita": 5094,
      "ginto": 5095,
      "sumus": 5096,
      "natut": 5097,
      "espirit": 5098,
      "##ific": 5099,
      "internasyonal": 5100,
      "pamantayang": 5101,
      "##ometro": 5102,
      "billboard": 5103,
      "cle": 5104,
      "eh": 5105,
      "fac": 5106,
      "gold": 5107,
      "teksto": 5108,
      "vi": 5109,
      "##tim": 5110,
      "##ux": 5111,
      "##ilong": 5112,
      "##amil": 5113,
      "##ahiwalay": 5114,
      "##ema": 5115,
      "makipag": 5116,
      "tinanggap": 5117,
      "##udad": 5118,
      "love": 5119,
      "##ardo": 5120,
      "naglalarawan": 5121,
      "##ampas": 5122,
      "awiting": 5123,
      "inspir": 5124,
      "inihayag": 5125,
      "propesor": 5126,
      "posibleng": 5127,
      "gobernador": 5128,
      "kakulangan": 5129,
      "hap": 5130,
      "land": 5131,
      "##rasya": 5132,
      "##hel": 5133,
      "##alia": 5134,
      "##ingkod": 5135,
      "kand": 5136,
      "marahil": 5137,
      "kalihim": 5138,
      "kaisip": 5139,
      "estud": 5140,
      "ako": 5141,
      "##abasa": 5142,
      "grupong": 5143,
      "impluwens": 5144,
      "##tural": 5145,
      "1995": 5146,
      "saring": 5147,
      "mangang": 5148,
      "black": 5149,
      "##ibilidad": 5150,
      "##inding": 5151,
      "miss": 5152,
      "quezon": 5153,
      "pinamumunuan": 5154,
      "represent": 5155,
      "33": 5156,
      "bc": 5157,
      "ih": 5158,
      "##bon": 5159,
      "##angi": 5160,
      "##anta": 5161,
      "naa": 5162,
      "nga": 5163,
      "##agawang": 5164,
      "##inangan": 5165,
      "##akbo": 5166,
      "##ingin": 5167,
      "isina": 5168,
      "##impapawid": 5169,
      "park": 5170,
      "##leto": 5171,
      "##anggo": 5172,
      "rev": 5173,
      "salin": 5174,
      "##ebenta": 5175,
      "mahirap": 5176,
      "pinakamab": 5177,
      "1986": 5178,
      "##anganakan": 5179,
      "teoriyang": 5180,
      "templo": 5181,
      "london": 5182,
      "kasanayan": 5183,
      "paliparan": 5184,
      "agrikultura": 5185,
      "kardinal": 5186,
      "by": 5187,
      "balangkas": 5188,
      "talagang": 5189,
      "##win": 5190,
      "##angay": 5191,
      "sat": 5192,
      "isk": 5193,
      "##utong": 5194,
      "##etikong": 5195,
      "##ople": 5196,
      "asir": 5197,
      "binago": 5198,
      "pagbagsak": 5199,
      "pinagt": 5200,
      "1994": 5201,
      "mamatay": 5202,
      "lokasyon": 5203,
      "pagsasama": 5204,
      "presyo": 5205,
      "pamantayan": 5206,
      "institusyon": 5207,
      "kopya": 5208,
      "datos": 5209,
      "natitirang": 5210,
      "tokyo": 5211,
      "##ayapaan": 5212,
      "terminong": 5213,
      "45": 5214,
      "leh": 5215,
      "lawak": 5216,
      "with": 5217,
      "##hur": 5218,
      "##lik": 5219,
      "##ition": 5220,
      "kaniya": 5221,
      "##tres": 5222,
      "##oth": 5223,
      "kailangang": 5224,
      "##alakas": 5225,
      "##atayo": 5226,
      "palitan": 5227,
      "pagkakak": 5228,
      "buto": 5229,
      "inilathala": 5230,
      "inilunsad": 5231,
      "diin": 5232,
      "##asaad": 5233,
      "model": 5234,
      "blg": 5235,
      "siyudad": 5236,
      "gawin": 5237,
      "nawala": 5238,
      "debut": 5239,
      "kabanata": 5240,
      "nabubuhay": 5241,
      "kadalasan": 5242,
      "klima": 5243,
      "500": 5244,
      "bih": 5245,
      "bra": 5246,
      "cop": 5247,
      "sn": 5248,
      "sanggun": 5249,
      "##uch": 5250,
      "##kl": 5251,
      "##iyak": 5252,
      "pangs": 5253,
      "##ipikong": 5254,
      "##rod": 5255,
      "alang": 5256,
      "pinakak": 5257,
      "komisyon": 5258,
      "app": 5259,
      "palat": 5260,
      "lou": 5261,
      "seryeng": 5262,
      "play": 5263,
      "##alaya": 5264,
      "kilusan": 5265,
      "1945": 5266,
      "1960": 5267,
      "anime": 5268,
      "temper": 5269,
      "programang": 5270,
      "nagsisimula": 5271,
      "sangkap": 5272,
      "palaging": 5273,
      "college": 5274,
      "respons": 5275,
      "kongreso": 5276,
      "academy": 5277,
      "cat": 5278,
      "fir": 5279,
      "sib": 5280,
      "##form": 5281,
      "##iman": 5282,
      "##ungong": 5283,
      "pinas": 5284,
      "nakamit": 5285,
      "nakaka": 5286,
      "##ugon": 5287,
      "##edy": 5288,
      "##obo": 5289,
      "itim": 5290,
      "##erson": 5291,
      "gresya": 5292,
      "palarong": 5293,
      "1991": 5294,
      "anton": 5295,
      "1987": 5296,
      "kulturang": 5297,
      "kanluraning": 5298,
      "kalakalan": 5299,
      "prinsipyo": 5300,
      "##berg": 5301,
      "tingnan": 5302,
      "makasaysayang": 5303,
      "legal": 5304,
      "bos": 5305,
      "cir": 5306,
      "clas": 5307,
      "damit": 5308,
      "pok": 5309,
      "toto": 5310,
      "##aon": 5311,
      "##damin": 5312,
      "##atom": 5313,
      "##ami": 5314,
      "##amahan": 5315,
      "##akal": 5316,
      "##aksyon": 5317,
      "##ulak": 5318,
      "##eria": 5319,
      "##tol": 5320,
      "pari": 5321,
      "kasulat": 5322,
      "malinaw": 5323,
      "kapanganakan": 5324,
      "##ansiya": 5325,
      "kinilala": 5326,
      "sumulat": 5327,
      "tumanggap": 5328,
      "##ego": 5329,
      "pagpili": 5330,
      "kagamitan": 5331,
      "saklaw": 5332,
      "posit": 5333,
      "pagbabagong": 5334,
      "monark": 5335,
      "kuwentong": 5336,
      "##ologo": 5337,
      "nakabatay": 5338,
      "charles": 5339,
      "ninuno": 5340,
      "afric": 5341,
      "inhinyeriyang": 5342,
      "dagdag": 5343,
      "hid": 5344,
      "kita": 5345,
      "liga": 5346,
      "nor": 5347,
      "pic": 5348,
      "##red": 5349,
      "##dom": 5350,
      "##inis": 5351,
      "nangyayari": 5352,
      "ikalim": 5353,
      "kalye": 5354,
      "kalahati": 5355,
      "titik": 5356,
      "##ensyon": 5357,
      "pilipinong": 5358,
      "1992": 5359,
      "##anais": 5360,
      "politika": 5361,
      "pansamant": 5362,
      "herusalem": 5363,
      "aktibidad": 5364,
      "##hou": 5365,
      "pulis": 5366,
      "nakasulat": 5367,
      "molek": 5368,
      "kundi": 5369,
      "siyentipiko": 5370,
      "god": 5371,
      "normal": 5372,
      "trop": 5373,
      "##by": 5374,
      "##bal": 5375,
      "##iation": 5376,
      "##su": 5377,
      "##we": 5378,
      "##wiran": 5379,
      "##ji": 5380,
      "##atiko": 5381,
      "##ille": 5382,
      "##iksiyon": 5383,
      "##awin": 5384,
      "##usap": 5385,
      "##ipo": 5386,
      "##ipe": 5387,
      "pinatay": 5388,
      "panuk": 5389,
      "anong": 5390,
      "##etong": 5391,
      "arian": 5392,
      "##reo": 5393,
      "183": 5394,
      "pampul": 5395,
      "musikang": 5396,
      "inilalarawan": 5397,
      "tatlo": 5398,
      "##resulta": 5399,
      "tagapagp": 5400,
      "pamilyang": 5401,
      "direktang": 5402,
      "##krip": 5403,
      "gregor": 5404,
      "engine": 5405,
      "pinangalanan": 5406,
      "group": 5407,
      "artikulo": 5408,
      "girl": 5409,
      "den": 5410,
      "dipl": 5411,
      "sanggol": 5412,
      "##roses": 5413,
      "##ni": 5414,
      "##alsik": 5415,
      "isda": 5416,
      "##unay": 5417,
      "##ady": 5418,
      "##igat": 5419,
      "##usin": 5420,
      "##urs": 5421,
      "##irapan": 5422,
      "##entaryo": 5423,
      "aktor": 5424,
      "patay": 5425,
      "binuksan": 5426,
      "kristo": 5427,
      "kampanya": 5428,
      "acc": 5429,
      "nagtatrabaho": 5430,
      "nobela": 5431,
      "awitin": 5432,
      "italyano": 5433,
      "records": 5434,
      "pangkasarian": 5435,
      "##unawaan": 5436,
      "suliranin": 5437,
      "nominasyon": 5438,
      "##eklara": 5439,
      "aari": 5440,
      "blo": 5441,
      "had": 5442,
      "lahi": 5443,
      "ren": 5444,
      "ulat": 5445,
      "##asiya": 5446,
      "##isk": 5447,
      "##abag": 5448,
      "##oma": 5449,
      "##oph": 5450,
      "tinut": 5451,
      "kaut": 5452,
      "paul": 5453,
      "paglipat": 5454,
      "natanggap": 5455,
      "##turo": 5456,
      "romant": 5457,
      "##resyon": 5458,
      "carl": 5459,
      "organis": 5460,
      "prosesong": 5461,
      "alamat": 5462,
      "dinastiya": 5463,
      "##arami": 5464,
      "samantala": 5465,
      "astronom": 5466,
      "##iyasat": 5467,
      "angeles": 5468,
      "70": 5469,
      "gab": 5470,
      "hor": 5471,
      "hawak": 5472,
      "##rang": 5473,
      "##uyan": 5474,
      "##yagan": 5475,
      "##ington": 5476,
      "##isina": 5477,
      "##awal": 5478,
      "pangp": 5479,
      "magh": 5480,
      "katap": 5481,
      "hinango": 5482,
      "taas": 5483,
      "##ott": 5484,
      "masas": 5485,
      "aktres": 5486,
      "patri": 5487,
      "##acio": 5488,
      "apoy": 5489,
      "##agatan": 5490,
      "pagdiriwang": 5491,
      "balat": 5492,
      "puwesto": 5493,
      "sultan": 5494,
      "general": 5495,
      "silid": 5496,
      "russ": 5497,
      "pinagsama": 5498,
      "kinakailangan": 5499,
      "demokrat": 5500,
      "pampulitika": 5501,
      "fe": 5502,
      "gaanong": 5503,
      "hiwalay": 5504,
      "kod": 5505,
      "mens": 5506,
      "rod": 5507,
      "tab": 5508,
      "##ser": 5509,
      "##50": 5510,
      "##anasan": 5511,
      "##ags": 5512,
      "##inong": 5513,
      "##ision": 5514,
      "##uma": 5515,
      "##esh": 5516,
      "##oli": 5517,
      "##ider": 5518,
      "indi": 5519,
      "##uka": 5520,
      "nakad": 5521,
      "malays": 5522,
      "alin": 5523,
      "natalo": 5524,
      "pinagh": 5525,
      "mind": 5526,
      "pananampalataya": 5527,
      "1988": 5528,
      "posisyong": 5529,
      "kilometro": 5530,
      "kristiyanong": 5531,
      "petsa": 5532,
      "magbigay": 5533,
      "##peto": 5534,
      "##truktura": 5535,
      "demokrasya": 5536,
      "robert": 5537,
      "rekord": 5538,
      "broadcast": 5539,
      "lalake": 5540,
      "konstitusyon": 5541,
      "inspirasyon": 5542,
      "80": 5543,
      "ev": 5544,
      "lun": 5545,
      "libong": 5546,
      "wakas": 5547,
      "##ty": 5548,
      "##likasyon": 5549,
      "##yin": 5550,
      "##ney": 5551,
      "##cl": 5552,
      "##cil": 5553,
      "##angalang": 5554,
      "##anaw": 5555,
      "naz": 5556,
      "##agaling": 5557,
      "##isita": 5558,
      "##esta": 5559,
      "##omon": 5560,
      "##trak": 5561,
      "malamang": 5562,
      "##edon": 5563,
      "paa": 5564,
      "pangkultura": 5565,
      "apar": 5566,
      "##alikha": 5567,
      "##ival": 5568,
      "opt": 5569,
      "##akasal": 5570,
      "andre": 5571,
      "tagapagtatag": 5572,
      "pamilihan": 5573,
      "game": 5574,
      "singap": 5575,
      "##robers": 5576,
      "matematika": 5577,
      "pundasyon": 5578,
      "obserb": 5579,
      "##roseso": 5580,
      "bot": 5581,
      "cast": 5582,
      "fin": 5583,
      "fern": 5584,
      "jul": 5585,
      "kos": 5586,
      "live": 5587,
      "put": 5588,
      "tor": 5589,
      "yah": 5590,
      "##me": 5591,
      "##gre": 5592,
      "##siyong": 5593,
      "##agon": 5594,
      "##ayaw": 5595,
      "pinili": 5596,
      "##alaan": 5597,
      "##oko": 5598,
      "sinulat": 5599,
      "matinding": 5600,
      "binab": 5601,
      "kahalag": 5602,
      "labi": 5603,
      "mabuting": 5604,
      "##lav": 5605,
      "kumakatawan": 5606,
      "nilalang": 5607,
      "isinasagawa": 5608,
      "kadahil": 5609,
      "barangay": 5610,
      "ekonomiko": 5611,
      "nahahati": 5612,
      "nahalal": 5613,
      "gamot": 5614,
      "depend": 5615,
      "kuryente": 5616,
      "kimikal": 5617,
      "simpleng": 5618,
      "mahahalagang": 5619,
      "panginoon": 5620,
      "host": 5621,
      "iisa": 5622,
      "kir": 5623,
      "lam": 5624,
      "payak": 5625,
      "##rip": 5626,
      "##lant": 5627,
      "##no": 5628,
      "##indi": 5629,
      "##ateh": 5630,
      "##gas": 5631,
      "##erong": 5632,
      "##ikot": 5633,
      "island": 5634,
      "iskolar": 5635,
      "##igma": 5636,
      "##ibabaw": 5637,
      "##irma": 5638,
      "##undong": 5639,
      "kaib": 5640,
      "kaugalian": 5641,
      "pinakama": 5642,
      "##acter": 5643,
      "paglul": 5644,
      "180": 5645,
      "namuno": 5646,
      "1996": 5647,
      "##untunin": 5648,
      "nilalaman": 5649,
      "nabanggit": 5650,
      "nakatira": 5651,
      "carol": 5652,
      "partikulo": 5653,
      "corpor": 5654,
      "indibiduwal": 5655,
      "micha": 5656,
      "reyna": 5657,
      "alexandria": 5658,
      "nukle": 5659,
      "development": 5660,
      "listahan": 5661,
      "meh": 5662,
      "ps": 5663,
      "west": 5664,
      "##ris": 5665,
      "##yum": 5666,
      "##aha": 5667,
      "##ikit": 5668,
      "##abaan": 5669,
      "isp": 5670,
      "##ade": 5671,
      "##osis": 5672,
      "##ipis": 5673,
      "pareho": 5674,
      "##ubog": 5675,
      "nakar": 5676,
      "ibon": 5677,
      "mail": 5678,
      "araling": 5679,
      "##entang": 5680,
      "alon": 5681,
      "kapalit": 5682,
      "that": 5683,
      "pagsulat": 5684,
      "kahoy": 5685,
      "nagsasalita": 5686,
      "kritiko": 5687,
      "kamag": 5688,
      "inilagay": 5689,
      "isinagawa": 5690,
      "mapa": 5691,
      "160": 5692,
      "1946": 5693,
      "damdamin": 5694,
      "rebolusyong": 5695,
      "institute": 5696,
      "domin": 5697,
      "hakbang": 5698,
      "pagkakakilan": 5699,
      "galit": 5700,
      "iyong": 5701,
      "ray": 5702,
      "ruso": 5703,
      "sed": 5704,
      "##60": 5705,
      "ating": 5706,
      "##ulay": 5707,
      "##unog": 5708,
      "##ume": 5709,
      "nagng": 5710,
      "##ely": 5711,
      "inilipat": 5712,
      "mais": 5713,
      "maur": 5714,
      "maiwasan": 5715,
      "proto": 5716,
      "lumaki": 5717,
      "binib": 5718,
      "kinas": 5719,
      "tumagal": 5720,
      "##angkop": 5721,
      "##insan": 5722,
      "##ambal": 5723,
      "##yanong": 5724,
      "1993": 5725,
      "##aranas": 5726,
      "pagtatapos": 5727,
      "1989": 5728,
      "teles": 5729,
      "##ife": 5730,
      "sound": 5731,
      "1950": 5732,
      "pagpapaunlad": 5733,
      "british": 5734,
      "electr": 5735,
      "michael": 5736,
      "42": 5737,
      "det": 5738,
      "mir": 5739,
      "palak": 5740,
      "wil": 5741,
      "##rong": 5742,
      "##cy": 5743,
      "##ory": 5744,
      "##roduk": 5745,
      "kasing": 5746,
      "hindu": 5747,
      "arg": 5748,
      "prom": 5749,
      "tinuturing": 5750,
      "binibig": 5751,
      "chart": 5752,
      "ikaapat": 5753,
      "kris": 5754,
      "##umpleto": 5755,
      "##utok": 5756,
      "lee": 5757,
      "likod": 5758,
      "epis": 5759,
      "pisika": 5760,
      "kastilyo": 5761,
      "langit": 5762,
      "osp": 5763,
      "turk": 5764,
      "australia": 5765,
      "kondisyon": 5766,
      "pinaniniwalaang": 5767,
      "francisco": 5768,
      "##igpit": 5769,
      "corporation": 5770,
      "cb": 5771,
      "down": 5772,
      "ku": 5773,
      "laki": 5774,
      "mismong": 5775,
      "punt": 5776,
      "test": 5777,
      "tanggap": 5778,
      "women": 5779,
      "##agtat": 5780,
      "##aster": 5781,
      "##asaka": 5782,
      "ath": 5783,
      "##ingi": 5784,
      "##isag": 5785,
      "##apar": 5786,
      "##abog": 5787,
      "##umentong": 5788,
      "##enna": 5789,
      "##ural": 5790,
      "kasamang": 5791,
      "magandang": 5792,
      "matandang": 5793,
      "kapayapaan": 5794,
      "##uwid": 5795,
      "binanggit": 5796,
      "sumas": 5797,
      "komed": 5798,
      "182": 5799,
      "tagapags": 5800,
      "soft": 5801,
      "pangangasiwa": 5802,
      "##aligtas": 5803,
      "bulak": 5804,
      "ipinagb": 5805,
      "kontrobers": 5806,
      "himpapawid": 5807,
      "bolt": 5808,
      "regular": 5809,
      "paligsahan": 5810,
      "assoc": 5811,
      "social": 5812,
      "webs": 5813,
      "gilid": 5814,
      "malaysia": 5815,
      "ospital": 5816,
      "aab": 5817,
      "bun": 5818,
      "doc": 5819,
      "ha": 5820,
      "lor": 5821,
      "por": 5822,
      "piling": 5823,
      "##ani": 5824,
      "##itud": 5825,
      "##onna": 5826,
      "##amento": 5827,
      "##ahulugan": 5828,
      "##abilang": 5829,
      "##ush": 5830,
      "pangl": 5831,
      "##uridad": 5832,
      "paminsan": 5833,
      "malayo": 5834,
      "sino": 5835,
      "marx": 5836,
      "ginanap": 5837,
      "pinakab": 5838,
      "ipinat": 5839,
      "ipinahayag": 5840,
      "magkakas": 5841,
      "pagtanggap": 5842,
      "##alisasyon": 5843,
      "komunikasyon": 5844,
      "mapagk": 5845,
      "protest": 5846,
      "merk": 5847,
      "naitala": 5848,
      "katawagan": 5849,
      "nagbabago": 5850,
      "iminungkahi": 5851,
      "temperatura": 5852,
      "ikalimang": 5853,
      "300": 5854,
      "boy": 5855,
      "camb": 5856,
      "hon": 5857,
      "jeh": 5858,
      "lawa": 5859,
      "rich": 5860,
      "tampok": 5861,
      "##anga": 5862,
      "##alapi": 5863,
      "##gaw": 5864,
      "##ahas": 5865,
      "##apo": 5866,
      "##esyon": 5867,
      "##usahan": 5868,
      "panig": 5869,
      "##ubo": 5870,
      "kasalan": 5871,
      "kasabay": 5872,
      "malalim": 5873,
      "##ugtong": 5874,
      "##ugtog": 5875,
      "karagatan": 5876,
      "kalend": 5877,
      "##abase": 5878,
      "halamang": 5879,
      "luzon": 5880,
      "roman": 5881,
      "antio": 5882,
      "nagpat": 5883,
      "##alayong": 5884,
      "space": 5885,
      "halimaw": 5886,
      "nobelang": 5887,
      "##umber": 5888,
      "senado": 5889,
      "tema": 5890,
      "produksiyon": 5891,
      "puwersang": 5892,
      "moral": 5893,
      "kontin": 5894,
      "pederal": 5895,
      "##gado": 5896,
      "galil": 5897,
      "ambag": 5898,
      "ortodoks": 5899,
      "singapore": 5900,
      "back": 5901,
      "bilis": 5902,
      "kem": 5903,
      "leb": 5904,
      "mul": 5905,
      "utos": 5906,
      "van": 5907,
      "##fer": 5908,
      "##ange": 5909,
      "nayon": 5910,
      "##ahad": 5911,
      "##apa": 5912,
      "##une": 5913,
      "##awalang": 5914,
      "##enang": 5915,
      "##osh": 5916,
      "##imo": 5917,
      "pangt": 5918,
      "inis": 5919,
      "pinah": 5920,
      "##uki": 5921,
      "##istiko": 5922,
      "trip": 5923,
      "batayan": 5924,
      "order": 5925,
      "enter": 5926,
      "museo": 5927,
      "party": 5928,
      "##intulad": 5929,
      "pagtatanghal": 5930,
      "##ayagan": 5931,
      "1972": 5932,
      "henry": 5933,
      "libro": 5934,
      "##lywood": 5935,
      "paggalaw": 5936,
      "gusto": 5937,
      "magsasaka": 5938,
      "pagsusulat": 5939,
      "gawi": 5940,
      "probins": 5941,
      "doktr": 5942,
      "##atoryo": 5943,
      "materyales": 5944,
      "martin": 5945,
      "state": 5946,
      "pagmamay": 5947,
      "produc": 5948,
      "sumasaklaw": 5949,
      "alpab": 5950,
      "koreano": 5951,
      "mukha": 5952,
      "dalubhasa": 5953,
      "pansamantalang": 5954,
      "38": 5955,
      "camp": 5956,
      "east": 5957,
      "hong": 5958,
      "jean": 5959,
      "lak": 5960,
      "##pas": 5961,
      "##dan": 5962,
      "##ja": 5963,
      "##atikong": 5964,
      "##ame": 5965,
      "##ams": 5966,
      "##ulok": 5967,
      "##aping": 5968,
      "##enda": 5969,
      "nagresulta": 5970,
      "kanon": 5971,
      "##ukunan": 5972,
      "hinaharap": 5973,
      "##tress": 5974,
      "kaunl": 5975,
      "ipinalabas": 5976,
      "ipinangalan": 5977,
      "komb": 5978,
      "palasyo": 5979,
      "konstruk": 5980,
      "karamdaman": 5981,
      "1979": 5982,
      "1973": 5983,
      "aktibong": 5984,
      "house": 5985,
      "pamayanang": 5986,
      "sentrong": 5987,
      "lubos": 5988,
      "ebidensiya": 5989,
      "disiplina": 5990,
      "ceb": 5991,
      "hur": 5992,
      "ken": 5993,
      "lut": 5994,
      "number": 5995,
      "was": 5996,
      "##men": 5997,
      "##hala": 5998,
      "##line": 5999,
      "##ny": 6000,
      "##atlo": 6001,
      "##ilikha": 6002,
      "##esar": 6003,
      "##oso": 6004,
      "##orp": 6005,
      "##ibal": 6006,
      "sicil": 6007,
      "##utin": 6008,
      "kasaysayang": 6009,
      "pagkal": 6010,
      "makalipas": 6011,
      "kalapit": 6012,
      "kayaman": 6013,
      "##chi": 6014,
      "pagsubok": 6015,
      "aspeto": 6016,
      "pagpapak": 6017,
      "##ilingkod": 6018,
      "1984": 6019,
      "1978": 6020,
      "mont": 6021,
      "henerasyon": 6022,
      "1969": 6023,
      "syria": 6024,
      "bukas": 6025,
      "intsik": 6026,
      "gawing": 6027,
      "great": 6028,
      "lumilikha": 6029,
      "##ijing": 6030,
      "pinangunahan": 6031,
      "nananatiling": 6032,
      "piraso": 6033,
      "barko": 6034,
      "babilonya": 6035,
      "##uktok": 6036,
      "louis": 6037,
      "class": 6038,
      "##agtatalik": 6039,
      "bisa": 6040,
      "ic": 6041,
      "kid": 6042,
      "kalawakan": 6043,
      "pala": 6044,
      "wik": 6045,
      "##our": 6046,
      "##don": 6047,
      "##angang": 6048,
      "##ora": 6049,
      "##ime": 6050,
      "pampan": 6051,
      "hinah": 6052,
      "taiwan": 6053,
      "sinag": 6054,
      "sinakop": 6055,
      "##anggihan": 6056,
      "kaaway": 6057,
      "kinalaman": 6058,
      "##ungkahing": 6059,
      "adv": 6060,
      "isinama": 6061,
      "tech": 6062,
      "##asailalim": 6063,
      "##alisis": 6064,
      "opisina": 6065,
      "mex": 6066,
      "iran": 6067,
      "##amahalaan": 6068,
      "pinangalanang": 6069,
      "tugon": 6070,
      "sasakyang": 6071,
      "kategorya": 6072,
      "estudyante": 6073,
      "37": 6074,
      "bre": 6075,
      "bomb": 6076,
      "cas": 6077,
      "cer": 6078,
      "cab": 6079,
      "centr": 6080,
      "foss": 6081,
      "je": 6082,
      "log": 6083,
      "tamang": 6084,
      "wind": 6085,
      "wash": 6086,
      "##bol": 6087,
      "##zan": 6088,
      "##aru": 6089,
      "##akot": 6090,
      "##ulasyong": 6091,
      "##isp": 6092,
      "##apantay": 6093,
      "##iyento": 6094,
      "##abl": 6095,
      "##abalik": 6096,
      "##uning": 6097,
      "##urn": 6098,
      "inhen": 6099,
      "parlam": 6100,
      "pagkawala": 6101,
      "##ihas": 6102,
      "union": 6103,
      "##uportahan": 6104,
      "real": 6105,
      "kalahok": 6106,
      "ginint": 6107,
      "##ahating": 6108,
      "tumulong": 6109,
      "grand": 6110,
      "napaka": 6111,
      "##aliit": 6112,
      "naglingkod": 6113,
      "indones": 6114,
      "nanatiling": 6115,
      "##ations": 6116,
      "reporm": 6117,
      "simbolo": 6118,
      "nasyonal": 6119,
      "kilos": 6120,
      "pagbabalik": 6121,
      "act": 6122,
      "sikolohiyang": 6123,
      "bababa": 6124,
      "edukasyong": 6125,
      "angkan": 6126,
      "nangangahulugan": 6127,
      "umaabot": 6128,
      "canada": 6129,
      "kinakailangang": 6130,
      "krusada": 6131,
      "eksperimento": 6132,
      "nasasakupan": 6133,
      "ritwal": 6134,
      "africa": 6135,
      "53": 6136,
      "90": 6137,
      "bub": 6138,
      "dula": 6139,
      "heb": 6140,
      "khan": 6141,
      "mc": 6142,
      "rem": 6143,
      "sk": 6144,
      "yang": 6145,
      "##ailalim": 6146,
      "##uong": 6147,
      "##mas": 6148,
      "##ger": 6149,
      "##pa": 6150,
      "##alth": 6151,
      "##ining": 6152,
      "##aris": 6153,
      "##ahim": 6154,
      "##inga": 6155,
      "nagrer": 6156,
      "##usbong": 6157,
      "inc": 6158,
      "pinunong": 6159,
      "kata": 6160,
      "arch": 6161,
      "aristo": 6162,
      "sinis": 6163,
      "itlog": 6164,
      "kabah": 6165,
      "ginam": 6166,
      "estim": 6167,
      "ash": 6168,
      "lumip": 6169,
      "itinalaga": 6170,
      "##iver": 6171,
      "umunlad": 6172,
      "1985": 6173,
      "179": 6174,
      "##uston": 6175,
      "##ektibong": 6176,
      "##aligt": 6177,
      "relihiyong": 6178,
      "home": 6179,
      "panghimpapawid": 6180,
      "beijing": 6181,
      "koponan": 6182,
      "##ammad": 6183,
      "makapangyar": 6184,
      "virg": 6185,
      "kingdom": 6186,
      "species": 6187,
      "pagkakakilanlan": 6188,
      "nagngangalang": 6189,
      "fossil": 6190,
      "34": 6191,
      "cong": 6192,
      "cub": 6193,
      "hab": 6194,
      "las": 6195,
      "mala": 6196,
      "muh": 6197,
      "mult": 6198,
      "pula": 6199,
      "sug": 6200,
      "suw": 6201,
      "tis": 6202,
      "vis": 6203,
      "##ras": 6204,
      "##oob": 6205,
      "##bp": 6206,
      "##anya": 6207,
      "naib": 6208,
      "##inta": 6209,
      "##ated": 6210,
      "##aria": 6211,
      "##ony": 6212,
      "panay": 6213,
      "pagkalipas": 6214,
      "anatom": 6215,
      "kataas": 6216,
      "unting": 6217,
      "malaman": 6218,
      "##oke": 6219,
      "kabihas": 6220,
      "dinala": 6221,
      "tra": 6222,
      "cha": 6223,
      "mahal": 6224,
      "itinat": 6225,
      "pagkakab": 6226,
      "romanong": 6227,
      "she": 6228,
      "nabuhay": 6229,
      "bumagsak": 6230,
      "159": 6231,
      "kolonya": 6232,
      "nagtatampok": 6233,
      "tradisyong": 6234,
      "pangangalaga": 6235,
      "kanluranin": 6236,
      "medisina": 6237,
      "naghah": 6238,
      "club": 6239,
      "konteksto": 6240,
      "armen": 6241,
      "houston": 6242,
      "istasyon": 6243,
      "tipan": 6244,
      "mitolohiyang": 6245,
      "paghihiwalay": 6246,
      "##ugaliang": 6247,
      "arkitektura": 6248,
      "paglipas": 6249,
      "washington": 6250,
      "earth": 6251,
      "fer": 6252,
      "ham": 6253,
      "hand": 6254,
      "line": 6255,
      "pors": 6256,
      "rh": 6257,
      "rub": 6258,
      "tay": 6259,
      "##relih": 6260,
      "##yero": 6261,
      "##euc": 6262,
      "##ering": 6263,
      "##isidad": 6264,
      "##awad": 6265,
      "pangatlong": 6266,
      "##ody": 6267,
      "taunang": 6268,
      "arius": 6269,
      "ilarawan": 6270,
      "##reen": 6271,
      "##che": 6272,
      "thom": 6273,
      "tumpak": 6274,
      "look": 6275,
      "##atagan": 6276,
      "##angkutan": 6277,
      "##ept": 6278,
      "disk": 6279,
      "end": 6280,
      "serv": 6281,
      "isinilang": 6282,
      "##uck": 6283,
      "ugali": 6284,
      "seleuc": 6285,
      "sikolohiya": 6286,
      "pagsasagawa": 6287,
      "angkop": 6288,
      "found": 6289,
      "pagsasalin": 6290,
      "komersyal": 6291,
      "portuges": 6292,
      "circ": 6293,
      "carlos": 6294,
      "patriarka": 6295,
      "association": 6296,
      "cebu": 6297,
      "52": 6298,
      "62": 6299,
      "bob": 6300,
      "cla": 6301,
      "dist": 6302,
      "ever": 6303,
      "ferd": 6304,
      "kesa": 6305,
      "li": 6306,
      "mov": 6307,
      "pera": 6308,
      "skolar": 6309,
      "tirahan": 6310,
      "win": 6311,
      "##nanais": 6312,
      "##wel": 6313,
      "napan": 6314,
      "ngayong": 6315,
      "sad": 6316,
      "##alaran": 6317,
      "##asyunal": 6318,
      "##aralan": 6319,
      "##ings": 6320,
      "pagtaas": 6321,
      "##igi": 6322,
      "kani": 6323,
      "panganib": 6324,
      "##ibusyon": 6325,
      "pagkuha": 6326,
      "pagkilos": 6327,
      "##etnam": 6328,
      "katam": 6329,
      "##empor": 6330,
      "malaya": 6331,
      "karangalan": 6332,
      "kapit": 6333,
      "##reto": 6334,
      "##antad": 6335,
      "makuha": 6336,
      "track": 6337,
      "asawang": 6338,
      "antrop": 6339,
      "pambansa": 6340,
      "imperyal": 6341,
      "177": 6342,
      "leon": 6343,
      "##iff": 6344,
      "basil": 6345,
      "gampan": 6346,
      "1939": 6347,
      "gusaling": 6348,
      "columb": 6349,
      "bahagyang": 6350,
      "personalidad": 6351,
      "hits": 6352,
      "kamakailan": 6353,
      "##burg": 6354,
      "aquino": 6355,
      "pagpupulong": 6356,
      "katanyagan": 6357,
      "kaisipan": 6358,
      "diplom": 6359,
      "mindanao": 6360,
      "entertain": 6361,
      "ferdin": 6362,
      "39": 6363,
      "galak": 6364,
      "good": 6365,
      "laman": 6366,
      "mi": 6367,
      "mur": 6368,
      "mom": 6369,
      "mich": 6370,
      "munting": 6371,
      "pit": 6372,
      "tans": 6373,
      "vo": 6374,
      "von": 6375,
      "##ran": 6376,
      "##af": 6377,
      "##aong": 6378,
      "##ces": 6379,
      "##ariling": 6380,
      "##akh": 6381,
      "##apiko": 6382,
      "##umo": 6383,
      "pangung": 6384,
      "##ipi": 6385,
      "##ipunang": 6386,
      "inu": 6387,
      "inak": 6388,
      "pins": 6389,
      "##etang": 6390,
      "##diwang": 6391,
      "katunayan": 6392,
      "##uho": 6393,
      "alf": 6394,
      "alipin": 6395,
      "##uparan": 6396,
      "makina": 6397,
      "makata": 6398,
      "masel": 6399,
      "paulit": 6400,
      "titulo": 6401,
      "pagsapit": 6402,
      "orb": 6403,
      "ipinakita": 6404,
      "kompanyang": 6405,
      "tumakas": 6406,
      "chann": 6407,
      "kron": 6408,
      "pangunahin": 6409,
      "##laon": 6410,
      "##raft": 6411,
      "magkat": 6412,
      "kumik": 6413,
      "pasyente": 6414,
      "1983": 6415,
      "150": 6416,
      "conc": 6417,
      "1976": 6418,
      "pumunta": 6419,
      "actress": 6420,
      "perman": 6421,
      "##ustuhan": 6422,
      "pagkakaisa": 6423,
      "biyetnam": 6424,
      "roon": 6425,
      "platform": 6426,
      "kolonyal": 6427,
      "kapuluang": 6428,
      "kyous": 6429,
      "independiy": 6430,
      "kasulatan": 6431,
      "ginintuang": 6432,
      "ferdinand": 6433,
      "400": 6434,
      "buo": 6435,
      "dj": 6436,
      "dar": 6437,
      "dest": 6438,
      "kl": 6439,
      "kawan": 6440,
      "yaman": 6441,
      "##heng": 6442,
      "##cul": 6443,
      "##dib": 6444,
      "##jo": 6445,
      "ngipin": 6446,
      "##alawa": 6447,
      "##atro": 6448,
      "##ilik": 6449,
      "##ilim": 6450,
      "##itikang": 6451,
      "##ulutan": 6452,
      "##ising": 6453,
      "##tot": 6454,
      "##urch": 6455,
      "nakabase": 6456,
      "##ets": 6457,
      "hinih": 6458,
      "##tre": 6459,
      "malub": 6460,
      "##iwas": 6461,
      "##ayanan": 6462,
      "karagatang": 6463,
      "karanasan": 6464,
      "##alawig": 6465,
      "kalul": 6466,
      "tinukoy": 6467,
      "estasyong": 6468,
      "pagsalakay": 6469,
      "label": 6470,
      "##ekstong": 6471,
      "agu": 6472,
      "edisyon": 6473,
      "antip": 6474,
      "nagpas": 6475,
      "reproduk": 6476,
      "konserb": 6477,
      "konsilyo": 6478,
      "pagpop": 6479,
      "baboy": 6480,
      "nakapagpap": 6481,
      "natatangi": 6482,
      "sandat": 6483,
      "igles": 6484,
      "naitatag": 6485,
      "pangkasaysayan": 6486,
      "##ency": 6487,
      "pinaniniwalaan": 6488,
      "global": 6489,
      "nagwagi": 6490,
      "depende": 6491,
      "channel": 6492,
      "73": 6493,
      "digit": 6494,
      "just": 6495,
      "pi": 6496,
      "porm": 6497,
      "tuktok": 6498,
      "##uit": 6499,
      "##lish": 6500,
      "##89": 6501,
      "##ford": 6502,
      "##ño": 6503,
      "##arch": 6504,
      "##arungan": 6505,
      "##ilitang": 6506,
      "##uluhang": 6507,
      "##abuti": 6508,
      "##oseksuwal": 6509,
      "parir": 6510,
      "##ubukan": 6511,
      "##etisyon": 6512,
      "paraang": 6513,
      "maliwanag": 6514,
      "##ander": 6515,
      "##alangin": 6516,
      "titulong": 6517,
      "trib": 6518,
      "lumal": 6519,
      "kahabaan": 6520,
      "komite": 6521,
      "##udulot": 6522,
      "##lathala": 6523,
      "madonna": 6524,
      "show": 6525,
      "pananalapi": 6526,
      "arts": 6527,
      "##ender": 6528,
      "samahang": 6529,
      "1975": 6530,
      "lead": 6531,
      "nagtagal": 6532,
      "1949": 6533,
      "1940": 6534,
      "##umbalik": 6535,
      "screen": 6536,
      "pamumuhay": 6537,
      "##imbento": 6538,
      "aktib": 6539,
      "nakabab": 6540,
      "pagsisikap": 6541,
      "tawagin": 6542,
      "naturang": 6543,
      "kasangkapan": 6544,
      "sonic": 6545,
      "dalawamp": 6546,
      "fernando": 6547,
      "richard": 6548,
      "inhenyer": 6549,
      "entertainment": 6550,
      "galaks": 6551,
      "99": 6552,
      "balak": 6553,
      "baka": 6554,
      "card": 6555,
      "fest": 6556,
      "gub": 6557,
      "himp": 6558,
      "huwag": 6559,
      "light": 6560,
      "mamb": 6561,
      "ot": 6562,
      "pulang": 6563,
      "sis": 6564,
      "sop": 6565,
      "tol": 6566,
      "##12": 6567,
      "##ugad": 6568,
      "##gro": 6569,
      "##kan": 6570,
      "##wasyon": 6571,
      "##vi": 6572,
      "##fi": 6573,
      "saint": 6574,
      "##ald": 6575,
      "##aging": 6576,
      "##aril": 6577,
      "##ayagang": 6578,
      "##akbay": 6579,
      "pagw": 6580,
      "not": 6581,
      "##urong": 6582,
      "##utr": 6583,
      "maling": 6584,
      "area": 6585,
      "alak": 6586,
      "kapistahan": 6587,
      "##reh": 6588,
      "kayarian": 6589,
      "akdang": 6590,
      "ipinadala": 6591,
      "nagsus": 6592,
      "napat": 6593,
      "##apatid": 6594,
      "##ahanga": 6595,
      "reporma": 6596,
      "pasipiko": 6597,
      "company": 6598,
      "resear": 6599,
      "politiko": 6600,
      "##ower": 6601,
      "barb": 6602,
      "kurso": 6603,
      "takot": 6604,
      "sandata": 6605,
      "radio": 6606,
      "stre": 6607,
      "nagsasagawa": 6608,
      "igin": 6609,
      "patakarang": 6610,
      "english": 6611,
      "joseph": 6612,
      "sobrang": 6613,
      "##impluwensiyahan": 6614,
      "tagasunod": 6615,
      "gumagalaw": 6616,
      "gantimpala": 6617,
      "mehiko": 6618,
      "mexico": 6619,
      "muhammad": 6620,
      "research": 6621,
      "bh": 6622,
      "gma": 6623,
      "jr": 6624,
      "jac": 6625,
      "kenn": 6626,
      "long": 6627,
      "pon": 6628,
      "puting": 6629,
      "suz": 6630,
      "yelo": 6631,
      "##sing": 6632,
      "nav": 6633,
      "##ague": 6634,
      "##gasyon": 6635,
      "##akaw": 6636,
      "##akyat": 6637,
      "##apekto": 6638,
      "bilangg": 6639,
      "##utasyon": 6640,
      "magpap": 6641,
      "katulong": 6642,
      "##antum": 6643,
      "ikaw": 6644,
      "kalim": 6645,
      "kalidad": 6646,
      "kaunting": 6647,
      "patungong": 6648,
      "nagsagawa": 6649,
      "kritikal": 6650,
      "##ector": 6651,
      "##ther": 6652,
      "1948": 6653,
      "bakit": 6654,
      "solong": 6655,
      "liter": 6656,
      "pabor": 6657,
      "##alipin": 6658,
      "manggagamot": 6659,
      "yugos": 6660,
      "##oleon": 6661,
      "seguridad": 6662,
      "urbano": 6663,
      "numero": 6664,
      "sanggunian": 6665,
      "kayamanan": 6666,
      "thomas": 6667,
      "kyousuke": 6668,
      "cur": 6669,
      "oc": 6670,
      "plas": 6671,
      "pondo": 6672,
      "ret": 6673,
      "sung": 6674,
      "ten": 6675,
      "who": 6676,
      "##rol": 6677,
      "##mar": 6678,
      "##sen": 6679,
      "##com": 6680,
      "##65": 6681,
      "##weh": 6682,
      "##anim": 6683,
      "sabay": 6684,
      "##alaysay": 6685,
      "##ababa": 6686,
      "##uni": 6687,
      "##awas": 6688,
      "iniwan": 6689,
      "##ulaan": 6690,
      "nakaligtas": 6691,
      "pagkam": 6692,
      "ann": 6693,
      "analisis": 6694,
      "##ette": 6695,
      "kalalak": 6696,
      "prem": 6697,
      "tinit": 6698,
      "paunang": 6699,
      "batong": 6700,
      "lumahok": 6701,
      "kahariang": 6702,
      "pagpapanatili": 6703,
      "##atauhan": 6704,
      "nanirahan": 6705,
      "pagtuturo": 6706,
      "pananalita": 6707,
      "nagpapahiwatig": 6708,
      "liberal": 6709,
      "kontrata": 6710,
      "depart": 6711,
      "transp": 6712,
      "aktibo": 6713,
      "doktor": 6714,
      "sirk": 6715,
      "padre": 6716,
      "hollywood": 6717,
      "inaasahan": 6718,
      "kamakailang": 6719,
      "tagapangulo": 6720,
      "dahon": 6721,
      "diper": 6722,
      "estrateh": 6723,
      "katapusan": 6724,
      "kahalagahan": 6725,
      "aangkin": 6726,
      "dob": 6727,
      "dion": 6728,
      "hik": 6729,
      "hanap": 6730,
      "halagang": 6731,
      "lr": 6732,
      "lil": 6733,
      "roy": 6734,
      "santi": 6735,
      "ver": 6736,
      "voc": 6737,
      "year": 6738,
      "##aig": 6739,
      "##ban": 6740,
      "##87": 6741,
      "##ward": 6742,
      "##vin": 6743,
      "##als": 6744,
      "##ars": 6745,
      "##onyo": 6746,
      "##amig": 6747,
      "##adang": 6748,
      "##eso": 6749,
      "##osyon": 6750,
      "##olf": 6751,
      "##ibing": 6752,
      "parok": 6753,
      "nic": 6754,
      "##lex": 6755,
      "##odes": 6756,
      "katalik": 6757,
      "sint": 6758,
      "kapital": 6759,
      "asunc": 6760,
      "degre": 6761,
      "napoleon": 6762,
      "##umpati": 6763,
      "parte": 6764,
      "relat": 6765,
      "conn": 6766,
      "lupon": 6767,
      "medic": 6768,
      "##lamig": 6769,
      "oks": 6770,
      "cruz": 6771,
      "daanan": 6772,
      "##uther": 6773,
      "napakalaking": 6774,
      "panitikang": 6775,
      "##tomas": 6776,
      "pwersa": 6777,
      "atomo": 6778,
      "console": 6779,
      "saserd": 6780,
      "kodigo": 6781,
      "mensahe": 6782,
      "carolina": 6783,
      "cbn": 6784,
      "software": 6785,
      "central": 6786,
      "44": 6787,
      "bac": 6788,
      "tanda": 6789,
      "vill": 6790,
      "##rig": 6791,
      "##din": 6792,
      "##62": 6793,
      "##ze": 6794,
      "##iti": 6795,
      "##ingibabaw": 6796,
      "##aph": 6797,
      "##igt": 6798,
      "pangw": 6799,
      "##ibol": 6800,
      "##opol": 6801,
      "bagama": 6802,
      "prakt": 6803,
      "itinuring": 6804,
      "##atagal": 6805,
      "pagkakapantay": 6806,
      "step": 6807,
      "namam": 6808,
      "kumuha": 6809,
      "pagtut": 6810,
      "simbol": 6811,
      "america": 6812,
      "interp": 6813,
      "pagtatangka": 6814,
      "kaguluhan": 6815,
      "##ukuyin": 6816,
      "163": 6817,
      "1968": 6818,
      "##ifacio": 6819,
      "aklatan": 6820,
      "kompos": 6821,
      "bakter": 6822,
      "gene": 6823,
      "pamantasang": 6824,
      "layuning": 6825,
      "pilosopo": 6826,
      "##yayaring": 6827,
      "terminal": 6828,
      "kondado": 6829,
      "tipikal": 6830,
      "arabe": 6831,
      "planeta": 6832,
      "mainam": 6833,
      "pahayagan": 6834,
      "sayaw": 6835,
      "namumuno": 6836,
      "inaasahang": 6837,
      "##iktima": 6838,
      "bonifacio": 6839,
      "august": 6840,
      "modelong": 6841,
      "first": 6842,
      "organisasyong": 6843,
      "bulaklak": 6844,
      "techn": 6845,
      "49": 6846,
      "72": 6847,
      "bern": 6848,
      "bunga": 6849,
      "cre": 6850,
      "dag": 6851,
      "erop": 6852,
      "lamb": 6853,
      "mr": 6854,
      "mans": 6855,
      "vol": 6856,
      "##10": 6857,
      "##mot": 6858,
      "##yahan": 6859,
      "##ct": 6860,
      "##cia": 6861,
      "##64": 6862,
      "##xas": 6863,
      "##ink": 6864,
      "##akip": 6865,
      "##organ": 6866,
      "##uruan": 6867,
      "##ibilang": 6868,
      "##eko": 6869,
      "mall": 6870,
      "##ugol": 6871,
      "esc": 6872,
      "sintomas": 6873,
      "alitan": 6874,
      "mary": 6875,
      "princ": 6876,
      "tren": 6877,
      "asidong": 6878,
      "##mana": 6879,
      "kahal": 6880,
      "church": 6881,
      "bany": 6882,
      "##tory": 6883,
      "##astas": 6884,
      "musik": 6885,
      "add": 6886,
      "teatro": 6887,
      "arthur": 6888,
      "kagub": 6889,
      "157": 6890,
      "phil": 6891,
      "phys": 6892,
      "manga": 6893,
      "count": 6894,
      "1963": 6895,
      "##ropol": 6896,
      "sex": 6897,
      "season": 6898,
      "moro": 6899,
      "teknikal": 6900,
      "nagsisilbing": 6901,
      "bersiyon": 6902,
      "##ontin": 6903,
      "lipunang": 6904,
      "people": 6905,
      "sangkatauhan": 6906,
      "isipan": 6907,
      "relihiyoso": 6908,
      "kandid": 6909,
      "mangangalakal": 6910,
      "pinagtibay": 6911,
      "antonio": 6912,
      "yahweh": 6913,
      "aabuso": 6914,
      "ginampanan": 6915,
      "virgin": 6916,
      "kaluluwa": 6917,
      "55": 6918,
      "75": 6919,
      "dna": 6920,
      "hem": 6921,
      "horm": 6922,
      "muon": 6923,
      "mister": 6924,
      "mundong": 6925,
      "pista": 6926,
      "ruta": 6927,
      "uugnay": 6928,
      "zeus": 6929,
      "##tiko": 6930,
      "##his": 6931,
      "##ym": 6932,
      "##ci": 6933,
      "saw": 6934,
      "##ares": 6935,
      "##ility": 6936,
      "##itz": 6937,
      "##omagn": 6938,
      "##uts": 6939,
      "ibn": 6940,
      "kataga": 6941,
      "kathang": 6942,
      "malab": 6943,
      "##ential": 6944,
      "##edeng": 6945,
      "kapitan": 6946,
      "kalahating": 6947,
      "kaloob": 6948,
      "tinanggihan": 6949,
      "ginagam": 6950,
      "taglamig": 6951,
      "aking": 6952,
      "pangkasal": 6953,
      "##ahatid": 6954,
      "ori": 6955,
      "kahulugang": 6956,
      "tumaas": 6957,
      "tumukoy": 6958,
      "nations": 6959,
      "pinakamatandang": 6960,
      "##anganib": 6961,
      "mill": 6962,
      "madoka": 6963,
      "##untang": 6964,
      "games": 6965,
      "produktong": 6966,
      "pinakaunang": 6967,
      "materya": 6968,
      "rebel": 6969,
      "kumpara": 6970,
      "sunog": 6971,
      "budd": 6972,
      "pigura": 6973,
      "krimen": 6974,
      "signal": 6975,
      "impluwensya": 6976,
      "##agsikang": 6977,
      "teleskop": 6978,
      "galileo": 6979,
      "digital": 6980,
      "47": 6981,
      "biktima": 6982,
      "du": 6983,
      "dc": 6984,
      "der": 6985,
      "jason": 6986,
      "non": 6987,
      "tamb": 6988,
      "uugali": 6989,
      "work": 6990,
      "##ook": 6991,
      "##uce": 6992,
      "##buhay": 6993,
      "##61": 6994,
      "##zilla": 6995,
      "##vd": 6996,
      "##fa": 6997,
      "##ane": 6998,
      "##alamang": 6999,
      "##arapat": 7000,
      "##ilitar": 7001,
      "##itt": 7002,
      "##onic": 7003,
      "ayos": 7004,
      "##ahalaga": 7005,
      "##isha": 7006,
      "##ikli": 7007,
      "##igong": 7008,
      "nakasal": 7009,
      "magamit": 7010,
      "##ict": 7011,
      "malayong": 7012,
      "##ents": 7013,
      "##entro": 7014,
      "ala": 7015,
      "##edo": 7016,
      "bagyo": 7017,
      "baguhin": 7018,
      "ikot": 7019,
      "masamang": 7020,
      "pac": 7021,
      "kahalili": 7022,
      "nagsasaad": 7023,
      "salungat": 7024,
      "paglago": 7025,
      "pagpapakita": 7026,
      "labor": 7027,
      "paghahanap": 7028,
      "##alingan": 7029,
      "pasko": 7030,
      "plast": 7031,
      "1971": 7032,
      "pakikib": 7033,
      "##utos": 7034,
      "nagmam": 7035,
      "1941": 7036,
      "##ellite": 7037,
      "1965": 7038,
      "pangkalusugan": 7039,
      "##ave": 7040,
      "1959": 7041,
      "intel": 7042,
      "tiyan": 7043,
      "pahint": 7044,
      "istilo": 7045,
      "##iety": 7046,
      "lucas": 7047,
      "kailanman": 7048,
      "paniniwalang": 7049,
      "organo": 7050,
      "maharlikang": 7051,
      "satellite": 7052,
      "puntong": 7053,
      "kalalakihan": 7054,
      "85": 7055,
      "daw": 7056,
      "div": 7057,
      "gi": 7058,
      "key": 7059,
      "ligtas": 7060,
      "memb": 7061,
      "pusa": 7062,
      "rot": 7063,
      "ranggo": 7064,
      "sr": 7065,
      "talaga": 7066,
      "tuloy": 7067,
      "tukuyin": 7068,
      "##11": 7069,
      "##bc": 7070,
      "##bigay": 7071,
      "##yadong": 7072,
      "##80": 7073,
      "##nap": 7074,
      "##ex": 7075,
      "##cop": 7076,
      "##63": 7077,
      "##wer": 7078,
      "##agin": 7079,
      "##itiw": 7080,
      "##ahero": 7081,
      "##iso": 7082,
      "##apr": 7083,
      "##iyan": 7084,
      "##adak": 7085,
      "pangyayaring": 7086,
      "##ele": 7087,
      "pagkuk": 7088,
      "karne": 7089,
      "kapas": 7090,
      "bagamat": 7091,
      "##chus": 7092,
      "titi": 7093,
      "##alaganap": 7094,
      "##alagyan": 7095,
      "komiks": 7096,
      "natin": 7097,
      "mahigpit": 7098,
      "palaro": 7099,
      "simulang": 7100,
      "mabuti": 7101,
      "milya": 7102,
      "indiyano": 7103,
      "1982": 7104,
      "##agdan": 7105,
      "##alisa": 7106,
      "daloy": 7107,
      "bayani": 7108,
      "nagdadala": 7109,
      "1954": 7110,
      "medyo": 7111,
      "##onood": 7112,
      "produksyon": 7113,
      "sulu": 7114,
      "pilosopiyang": 7115,
      "ipinagpatuloy": 7116,
      "character": 7117,
      "naiiba": 7118,
      "kasunduang": 7119,
      "pagpapatupad": 7120,
      "pagkakatuklas": 7121,
      "mainit": 7122,
      "##ospital": 7123,
      "elementong": 7124,
      "history": 7125,
      "pakikipagtalik": 7126,
      "felipe": 7127,
      "lohika": 7128,
      "ortodok": 7129,
      "gagamba": 7130,
      "relihiyosong": 7131,
      "engineering": 7132,
      "##relihiyon": 7133,
      "sandatahang": 7134,
      "festival": 7135,
      "degree": 7136,
      "43": 7137,
      "77": 7138,
      "bea": 7139,
      "boto": 7140,
      "cath": 7141,
      "guhit": 7142,
      "hiro": 7143,
      "ira": 7144,
      "jun": 7145,
      "kada": 7146,
      "lihim": 7147,
      "ox": 7148,
      "pulong": 7149,
      "tabi": 7150,
      "table": 7151,
      "ven": 7152,
      "##ren": 7153,
      "##tug": 7154,
      "##uya": 7155,
      "##hu": 7156,
      "##kad": 7157,
      "##zu": 7158,
      "##ania": 7159,
      "##atwiran": 7160,
      "##asim": 7161,
      "##arta": 7162,
      "##ilahok": 7163,
      "##erang": 7164,
      "##erya": 7165,
      "##abeth": 7166,
      "##enyong": 7167,
      "##igla": 7168,
      "noo": 7169,
      "pinip": 7170,
      "##ukang": 7171,
      "magagamit": 7172,
      "unyon": 7173,
      "malamig": 7174,
      "##entina": 7175,
      "karn": 7176,
      "makamit": 7177,
      "kabaligt": 7178,
      "tinag": 7179,
      "kaagad": 7180,
      "##alakalan": 7181,
      "##chel": 7182,
      "##ilipas": 7183,
      "##ohol": 7184,
      "pamamaraang": 7185,
      "ipinagd": 7186,
      "paglusob": 7187,
      "##ebal": 7188,
      "##hai": 7189,
      "amang": 7190,
      "##angkang": 7191,
      "##angkilik": 7192,
      "kamp": 7193,
      "pakinabang": 7194,
      "abd": 7195,
      "papuntang": 7196,
      "stone": 7197,
      "isinalin": 7198,
      "bumaba": 7199,
      "minim": 7200,
      "diego": 7201,
      "samakat": 7202,
      "panlipunang": 7203,
      "supr": 7204,
      "170": 7205,
      "from": 7206,
      "imahe": 7207,
      "##uriang": 7208,
      "1964": 7209,
      "liber": 7210,
      "lima": 7211,
      "daniel": 7212,
      "nalaman": 7213,
      "langis": 7214,
      "presid": 7215,
      "pangmilitar": 7216,
      "##ological": 7217,
      "dele": 7218,
      "pandagat": 7219,
      "##atake": 7220,
      "himagsikang": 7221,
      "budista": 7222,
      "tomas": 7223,
      "propesyonal": 7224,
      "helen": 7225,
      "nagkakaroon": 7226,
      "##unggali": 7227,
      "espiritu": 7228,
      "romantikong": 7229,
      "kinasas": 7230,
      "merkado": 7231,
      "lebel": 7232,
      "pinsala": 7233,
      "parokya": 7234,
      "asuncion": 7235,
      "kagubatan": 7236,
      "54": 7237,
      "bor": 7238,
      "eth": 7239,
      "fri": 7240,
      "hyd": 7241,
      "ky": 7242,
      "mito": 7243,
      "norm": 7244,
      "tanong": 7245,
      "xii": 7246,
      "##gy": 7247,
      "##hito": 7248,
      "##song": 7249,
      "##68": 7250,
      "##66": 7251,
      "##wil": 7252,
      "##onia": 7253,
      "##amahagi": 7254,
      "atbp": 7255,
      "##aham": 7256,
      "##umin": 7257,
      "##ori": 7258,
      "##etikal": 7259,
      "maayos": 7260,
      "##iction": 7261,
      "sinasal": 7262,
      "mateo": 7263,
      "kapansin": 7264,
      "##ahantong": 7265,
      "kaunti": 7266,
      "prof": 7267,
      "kahirapan": 7268,
      "nagsulat": 7269,
      "komit": 7270,
      "apely": 7271,
      "##angkot": 7272,
      "hall": 7273,
      "gumaganap": 7274,
      "##ungkol": 7275,
      "tsinong": 7276,
      "konsehong": 7277,
      "nakatatandang": 7278,
      "##ukuyang": 7279,
      "ekonomika": 7280,
      "pinamamahalaan": 7281,
      "direksiyon": 7282,
      "homo": 7283,
      "dokumento": 7284,
      "nagsisilbi": 7285,
      "mananaliksik": 7286,
      "pagsisiyasat": 7287,
      "budismo": 7288,
      "sobyetiko": 7289,
      "kakaibang": 7290,
      "pakikipagtulungan": 7291,
      "lehis": 7292,
      "positibong": 7293,
      "hebreo": 7294,
      "independiyenteng": 7295,
      "praktikal": 7296,
      "ortodokso": 7297,
      "64": 7298,
      "600": 7299,
      "dio": 7300,
      "dvd": 7301,
      "jes": 7302,
      "kot": 7303,
      "om": 7304,
      "pk": 7305,
      "pla": 7306,
      "sust": 7307,
      "tu": 7308,
      "ty": 7309,
      "##81": 7310,
      "##85": 7311,
      "##eal": 7312,
      "##sin": 7313,
      "##67": 7314,
      "nauna": 7315,
      "##alungat": 7316,
      "##agu": 7317,
      "##agas": 7318,
      "##arn": 7319,
      "##ilin": 7320,
      "##ilyong": 7321,
      "##amas": 7322,
      "##akay": 7323,
      "##akdang": 7324,
      "##awasan": 7325,
      "##esulta": 7326,
      "##olekta": 7327,
      "inang": 7328,
      "pares": 7329,
      "panalangin": 7330,
      "##row": 7331,
      "##ubay": 7332,
      "##ution": 7333,
      "##etro": 7334,
      "##etika": 7335,
      "estat": 7336,
      "kapans": 7337,
      "press": 7338,
      "tagahanga": 7339,
      "akyat": 7340,
      "pagsulong": 7341,
      "binig": 7342,
      "kinok": 7343,
      "##ehan": 7344,
      "gran": 7345,
      "##rique": 7346,
      "gayong": 7347,
      "pinakamalaki": 7348,
      "##yansa": 7349,
      "serem": 7350,
      "kumalat": 7351,
      "shin": 7352,
      "human": 7353,
      "##ordin": 7354,
      "##agdaan": 7355,
      "##agdagan": 7356,
      "mapap": 7357,
      "espasyong": 7358,
      "1947": 7359,
      "balita": 7360,
      "eliz": 7361,
      "tour": 7362,
      "1930": 7363,
      "genre": 7364,
      "public": 7365,
      "ehips": 7366,
      "white": 7367,
      "idinagdag": 7368,
      "##ipinta": 7369,
      "pagkaing": 7370,
      "sundalong": 7371,
      "##itney": 7372,
      "entabl": 7373,
      "ungg": 7374,
      "alternatibong": 7375,
      "ehers": 7376,
      "palatandaan": 7377,
      "godzilla": 7378,
      "komedya": 7379,
      "kemikal": 7380,
      "royal": 7381,
      "iraq": 7382,
      "samakatuwid": 7383,
      "entablado": 7384,
      "65": 7385,
      "aal": 7386,
      "cul": 7387,
      "dala": 7388,
      "gn": 7389,
      "gano": 7390,
      "hig": 7391,
      "misyong": 7392,
      "pio": 7393,
      "suso": 7394,
      "tro": 7395,
      "tapat": 7396,
      "viet": 7397,
      "wii": 7398,
      "##uf": 7399,
      "##uing": 7400,
      "##mi": 7401,
      "##gal": 7402,
      "##gen": 7403,
      "##ss": 7404,
      "##ster": 7405,
      "##wat": 7406,
      "##ven": 7407,
      "##alunan": 7408,
      "##ilig": 7409,
      "##itin": 7410,
      "##ahawak": 7411,
      "##isismo": 7412,
      "##abal": 7413,
      "##uhunan": 7414,
      "master": 7415,
      "tinig": 7416,
      "aksyon": 7417,
      "pangkap": 7418,
      "dev": 7419,
      "##akain": 7420,
      "##uda": 7421,
      "aplikasyon": 7422,
      "gramm": 7423,
      "##asanib": 7424,
      "##atao": 7425,
      "mabigat": 7426,
      "umiral": 7427,
      "nagbalik": 7428,
      "inilimbag": 7429,
      "subs": 7430,
      "paghuh": 7431,
      "humih": 7432,
      "hill": 7433,
      "154": 7434,
      "nagpapahintulot": 7435,
      "nakakat": 7436,
      "pumayag": 7437,
      "acco": 7438,
      "##iew": 7439,
      "##landes": 7440,
      "##ektahan": 7441,
      "head": 7442,
      "perseus": 7443,
      "presyon": 7444,
      "pantel": 7445,
      "##erba": 7446,
      "claris": 7447,
      "kontempor": 7448,
      "integ": 7449,
      "protesta": 7450,
      "laguna": 7451,
      "birhen": 7452,
      "pader": 7453,
      "##osaur": 7454,
      "##azz": 7455,
      "midya": 7456,
      "nananatili": 7457,
      "##atris": 7458,
      "society": 7459,
      "sagisag": 7460,
      "urban": 7461,
      "memor": 7462,
      "water": 7463,
      "etniko": 7464,
      "eksped": 7465,
      "tagapagtaguyod": 7466,
      "econom": 7467,
      "express": 7468,
      "potens": 7469,
      "victor": 7470,
      "dumadaan": 7471,
      "clem": 7472,
      "indonesia": 7473,
      "santiago": 7474,
      "eroplano": 7475,
      "63": 7476,
      "dark": 7477,
      "gang": 7478,
      "jin": 7479,
      "lig": 7480,
      "muna": 7481,
      "ple": 7482,
      "pont": 7483,
      "uus": 7484,
      "way": 7485,
      "yum": 7486,
      "##uyang": 7487,
      "##bi": 7488,
      "##bes": 7489,
      "##alop": 7490,
      "##aming": 7491,
      "##amental": 7492,
      "##ayt": 7493,
      "##aker": 7494,
      "##unud": 7495,
      "##ester": 7496,
      "##imog": 7497,
      "##olb": 7498,
      "nakaraan": 7499,
      "magaz": 7500,
      "mali": 7501,
      "alis": 7502,
      "alta": 7503,
      "matt": 7504,
      "makilala": 7505,
      "kabab": 7506,
      "prus": 7507,
      "thr": 7508,
      "##tero": 7509,
      "trapiko": 7510,
      "pagsamba": 7511,
      "##alimuot": 7512,
      "salapi": 7513,
      "paglalagay": 7514,
      "tumanggi": 7515,
      "chem": 7516,
      "china": 7517,
      "palay": 7518,
      "palibot": 7519,
      "nagbago": 7520,
      "pagtatatag": 7521,
      "artistang": 7522,
      "155": 7523,
      "1977": 7524,
      "korpor": 7525,
      "persian": 7526,
      "senador": 7527,
      "medikal": 7528,
      "internasyunal": 7529,
      "uring": 7530,
      "##ova": 7531,
      "##onsumo": 7532,
      "dako": 7533,
      "lupaing": 7534,
      "serbisyong": 7535,
      "green": 7536,
      "hango": 7537,
      "austria": 7538,
      "lubhang": 7539,
      "butas": 7540,
      "pangkaraniwan": 7541,
      "nakalilipas": 7542,
      "sasakyan": 7543,
      "buhok": 7544,
      "pagkasira": 7545,
      "poké": 7546,
      "kautusan": 7547,
      "protestante": 7548,
      "himpilan": 7549,
      "##ground": 7550,
      "kinasasangkutan": 7551,
      "elizabeth": 7552,
      "auto": 7553,
      "bunt": 7554,
      "cy": 7555,
      "dalis": 7556,
      "gon": 7557,
      "gaano": 7558,
      "kn": 7559,
      "let": 7560,
      "lac": 7561,
      "lep": 7562,
      "leo": 7563,
      "tut": 7564,
      "##14": 7565,
      "##my": 7566,
      "##get": 7567,
      "##án": 7568,
      "##áng": 7569,
      "##angat": 7570,
      "##anas": 7571,
      "##alde": 7572,
      "##inam": 7573,
      "##atic": 7574,
      "##aho": 7575,
      "##aps": 7576,
      "##ids": 7577,
      "##idisenyo": 7578,
      "##idigma": 7579,
      "pana": 7580,
      "panrelihiyon": 7581,
      "##ukol": 7582,
      "kasuot": 7583,
      "pagkah": 7584,
      "pagkaraang": 7585,
      "##emin": 7586,
      "##ugma": 7587,
      "##otiko": 7588,
      "##upin": 7589,
      "##upiter": 7590,
      "masyadong": 7591,
      "kaay": 7592,
      "##ahilig": 7593,
      "##iligaw": 7594,
      "tumataas": 7595,
      "nats": 7596,
      "##angkat": 7597,
      "pagkatalo": 7598,
      "##alitang": 7599,
      "##ormasyong": 7600,
      "enrique": 7601,
      "nagkamit": 7602,
      "magkas": 7603,
      "pagpip": 7604,
      "##eau": 7605,
      "posibilidad": 7606,
      "pagbabawal": 7607,
      "mamalya": 7608,
      "talamp": 7609,
      "lev": 7610,
      "149": 7611,
      "pangkalinangan": 7612,
      "metropol": 7613,
      "##tein": 7614,
      "solo": 7615,
      "##abawal": 7616,
      "pakikipags": 7617,
      "biyolohiya": 7618,
      "sandali": 7619,
      "##uklok": 7620,
      "2021": 7621,
      "plato": 7622,
      "##roskop": 7623,
      "kasangkot": 7624,
      "tumatanggap": 7625,
      "dimensiyon": 7626,
      "mesop": 7627,
      "maxim": 7628,
      "nagmumula": 7629,
      "##traktura": 7630,
      "kalendaryong": 7631,
      "repormang": 7632,
      "katamt": 7633,
      "hitsura": 7634,
      "##igtasan": 7635,
      "county": 7636,
      "ipinagdiriwang": 7637,
      "apelyido": 7638,
      "clarissa": 7639,
      "pokémon": 7640,
      "83": 7641,
      "82": 7642,
      "aalok": 7643,
      "aalipin": 7644,
      "fuj": 7645,
      "gland": 7646,
      "hospital": 7647,
      "ix": 7648,
      "lobo": 7649,
      "life": 7650,
      "nangg": 7651,
      "piano": 7652,
      "sektor": 7653,
      "tw": 7654,
      "vii": 7655,
      "##gang": 7656,
      "##ios": 7657,
      "##kis": 7658,
      "##ject": 7659,
      "##aloy": 7660,
      "##atasan": 7661,
      "##ayad": 7662,
      "atlant": 7663,
      "##ule": 7664,
      "##awasak": 7665,
      "kantang": 7666,
      "inst": 7667,
      "##omos": 7668,
      "##ukaw": 7669,
      "nakah": 7670,
      "nakatag": 7671,
      "magasin": 7672,
      "##etic": 7673,
      "maari": 7674,
      "maaga": 7675,
      "##otam": 7676,
      "sinumang": 7677,
      "##ogn": 7678,
      "##istikong": 7679,
      "makagawa": 7680,
      "prin": 7681,
      "dinisenyo": 7682,
      "lumago": 7683,
      "paglilipat": 7684,
      "kred": 7685,
      "##tures": 7686,
      "##ahangad": 7687,
      "pampagtatalik": 7688,
      "tinatanggap": 7689,
      "naglal": 7690,
      "naglalayong": 7691,
      "nagpadala": 7692,
      "pasilidad": 7693,
      "pasahero": 7694,
      "##onomiya": 7695,
      "neur": 7696,
      "1981": 7697,
      "nasus": 7698,
      "##iller": 7699,
      "##ization": 7700,
      "talumpati": 7701,
      "1942": 7702,
      "libingan": 7703,
      "##grap": 7704,
      "1958": 7705,
      "pagguhit": 7706,
      "pakikipaglaban": 7707,
      "dakila": 7708,
      "transport": 7709,
      "etika": 7710,
      "pagmaman": 7711,
      "desisyon": 7712,
      "publish": 7713,
      "utang": 7714,
      "pagkabuhay": 7715,
      "tuwirang": 7716,
      "tugtug": 7717,
      "stock": 7718,
      "market": 7719,
      "florida": 7720,
      "office": 7721,
      "maharlika": 7722,
      "golden": 7723,
      "responsable": 7724,
      "andrew": 7725,
      "kirino": 7726,
      "buntot": 7727,
      "parlamento": 7728,
      "malubhang": 7729,
      "bilangguan": 7730,
      "interpret": 7731,
      "vietnam": 7732,
      "57": 7733,
      "69": 7734,
      "bok": 7735,
      "bayang": 7736,
      "bantay": 7737,
      "galaw": 7738,
      "gard": 7739,
      "gaganap": 7740,
      "hat": 7741,
      "lis": 7742,
      "liv": 7743,
      "luther": 7744,
      "mu": 7745,
      "nh": 7746,
      "niy": 7747,
      "neo": 7748,
      "ri": 7749,
      "tama": 7750,
      "tuntunin": 7751,
      "##13": 7752,
      "##17": 7753,
      "##tulungan": 7754,
      "##bas": 7755,
      "##bayan": 7756,
      "##yasyon": 7757,
      "##yenteng": 7758,
      "##yebal": 7759,
      "##eto": 7760,
      "##kreto": 7761,
      "##can": 7762,
      "anghel": 7763,
      "##asawa": 7764,
      "##iles": 7765,
      "##ahon": 7766,
      "##iyolohiya": 7767,
      "##awig": 7768,
      "##enz": 7769,
      "##imar": 7770,
      "pangalawa": 7771,
      "##ibutan": 7772,
      "##ukay": 7773,
      "kasab": 7774,
      "pagkap": 7775,
      "unawa": 7776,
      "paraon": 7777,
      "##try": 7778,
      "ilaw": 7779,
      "mass": 7780,
      "kabuo": 7781,
      "kalinangan": 7782,
      "##ohiya": 7783,
      "ipinak": 7784,
      "nagsilbing": 7785,
      "salamin": 7786,
      "tumungo": 7787,
      "champ": 7788,
      "pagpapahayag": 7789,
      "##torya": 7790,
      "##ahinga": 7791,
      "abala": 7792,
      "nagpakita": 7793,
      "nagpunta": 7794,
      "pagtukoy": 7795,
      "bros": 7796,
      "daungan": 7797,
      "minuto": 7798,
      "cont": 7799,
      "punk": 7800,
      "tagapagl": 7801,
      "tagapagb": 7802,
      "europe": 7803,
      "populasyong": 7804,
      "##ize": 7805,
      "polit": 7806,
      "larangang": 7807,
      "##landiya": 7808,
      "##ektibo": 7809,
      "gayunman": 7810,
      "1937": 7811,
      "naghih": 7812,
      "kawing": 7813,
      "1920": 7814,
      "bigkas": 7815,
      "online": 7816,
      "burol": 7817,
      "domest": 7818,
      "ipinapakita": 7819,
      "senso": 7820,
      "atenas": 7821,
      "matatanda": 7822,
      "panukala": 7823,
      "aparato": 7824,
      "boltahe": 7825,
      "kontinente": 7826,
      "doktrina": 7827,
      "nagreresulta": 7828,
      "makapangyarihang": 7829,
      "foundation": 7830,
      "musikero": 7831,
      "unggoy": 7832,
      "magazine": 7833,
      "mesopotam": 7834,
      "74": 7835,
      "bec": 7836,
      "bene": 7837,
      "hus": 7838,
      "liw": 7839,
      "mt": 7840,
      "puk": 7841,
      "penn": 7842,
      "suk": 7843,
      "sha": 7844,
      "zo": 7845,
      "##ram": 7846,
      "##rus": 7847,
      "##ić": 7848,
      "##82": 7849,
      "##cer": 7850,
      "##vid": 7851,
      "##agandang": 7852,
      "##gay": 7853,
      "##arili": 7854,
      "##aragdag": 7855,
      "##its": 7856,
      "##itikan": 7857,
      "##amali": 7858,
      "##ulto": 7859,
      "##aheng": 7860,
      "##erv": 7861,
      "##ikos": 7862,
      "##abong": 7863,
      "##abol": 7864,
      "istruktura": 7865,
      "kanser": 7866,
      "##ipik": 7867,
      "##ella": 7868,
      "##ides": 7869,
      "pinar": 7870,
      "##ukal": 7871,
      "karga": 7872,
      "##uwi": 7873,
      "##ilaan": 7874,
      "kalam": 7875,
      "kain": 7876,
      "pinakadak": 7877,
      "tagagawa": 7878,
      "##cher": 7879,
      "estilong": 7880,
      "lumalabas": 7881,
      "patungkol": 7882,
      "kinal": 7883,
      "sumailalim": 7884,
      "import": 7885,
      "napatay": 7886,
      "##emble": 7887,
      "mabuo": 7888,
      "kamal": 7889,
      "buod": 7890,
      "namamahala": 7891,
      "madre": 7892,
      "##digma": 7893,
      "commit": 7894,
      "comics": 7895,
      "152": 7896,
      "mapang": 7897,
      "1974": 7898,
      "residente": 7899,
      "##ows": 7900,
      "##ucle": 7901,
      "tubo": 7902,
      "libre": 7903,
      "emperatris": 7904,
      "nagdala": 7905,
      "blue": 7906,
      "klasikal": 7907,
      "pagsusulit": 7908,
      "##rich": 7909,
      "nararapat": 7910,
      "harv": 7911,
      "##ihimagsik": 7912,
      "pahina": 7913,
      "makakuha": 7914,
      "raj": 7915,
      "switch": 7916,
      "dibdib": 7917,
      "tangway": 7918,
      "##yosong": 7919,
      "gaul": 7920,
      "pagbubukas": 7921,
      "gantimpalang": 7922,
      "instrumento": 7923,
      "totoong": 7924,
      "molekula": 7925,
      "demokratikong": 7926,
      "##ahimik": 7927,
      "permanenteng": 7928,
      "aktibista": 7929,
      "lrt": 7930,
      "relatibidad": 7931,
      "pantelebisyon": 7932,
      "clemente": 7933,
      "84": 7934,
      "bus": 7935,
      "bari": 7936,
      "cel": 7937,
      "capit": 7938,
      "code": 7939,
      "hati": 7940,
      "ly": 7941,
      "nep": 7942,
      "pus": 7943,
      "sea": 7944,
      "tes": 7945,
      "tig": 7946,
      "##ail": 7947,
      "##lu": 7948,
      "##yor": 7949,
      "##ding": 7950,
      "##zz": 7951,
      "##fare": 7952,
      "##ñas": 7953,
      "##âh": 7954,
      "##alye": 7955,
      "##ats": 7956,
      "##atupad": 7957,
      "##ahambing": 7958,
      "##ingnan": 7959,
      "##iklab": 7960,
      "##unaw": 7961,
      "##osyo": 7962,
      "pinal": 7963,
      "pintor": 7964,
      "panat": 7965,
      "##iri": 7966,
      "##oda": 7967,
      "nakalipas": 7968,
      "pagkatao": 7969,
      "##yok": 7970,
      "ars": 7971,
      "alyansa": 7972,
      "matibay": 7973,
      "##ede": 7974,
      "##edad": 7975,
      "karah": 7976,
      "kabut": 7977,
      "kaligtasan": 7978,
      "##alakad": 7979,
      "ther": 7980,
      "orden": 7981,
      "sumasal": 7982,
      "pagpapakilala": 7983,
      "bank": 7984,
      "itinakda": 7985,
      "impeksiyon": 7986,
      "##iyosesis": 7987,
      "isinus": 7988,
      "169": 7989,
      "tagapagmana": 7990,
      "european": 7991,
      "pagdaka": 7992,
      "counc": 7993,
      "##arte": 7994,
      "1952": 7995,
      "solusyon": 7996,
      "little": 7997,
      "pabalik": 7998,
      "italyanong": 7999,
      "kawalang": 8000,
      "frank": 8001,
      "embah": 8002,
      "##atanyag": 8003,
      "pulitika": 8004,
      "paghahanda": 8005,
      "##inangang": 8006,
      "utada": 8007,
      "recording": 8008,
      "bisant": 8009,
      "iniulat": 8010,
      "hitler": 8011,
      "frances": 8012,
      "briton": 8013,
      "german": 8014,
      "pagkakasunud": 8015,
      "kaparehong": 8016,
      "##ridge": 8017,
      "pinakasalan": 8018,
      "##adrado": 8019,
      "landas": 8020,
      "krisis": 8021,
      "congress": 8022,
      "gampanin": 8023,
      "columbia": 8024,
      "pangwakas": 8025,
      "kompositor": 8026,
      "bakterya": 8027,
      "lehislat": 8028,
      "kapansanan": 8029,
      "benedic": 8030,
      "council": 8031,
      "95": 8032,
      "cos": 8033,
      "cand": 8034,
      "dy": 8035,
      "damb": 8036,
      "far": 8037,
      "glas": 8038,
      "gilb": 8039,
      "kagamit": 8040,
      "layo": 8041,
      "luna": 8042,
      "misa": 8043,
      "nes": 8044,
      "oh": 8045,
      "tap": 8046,
      "tsa": 8047,
      "tekstong": 8048,
      "ud": 8049,
      "##ues": 8050,
      "##langan": 8051,
      "##yus": 8052,
      "##yento": 8053,
      "##kus": 8054,
      "##cus": 8055,
      "##69": 8056,
      "##anc": 8057,
      "saudi": 8058,
      "##agaw": 8059,
      "##arista": 8060,
      "##ities": 8061,
      "##ayaran": 8062,
      "##erk": 8063,
      "##isd": 8064,
      "##isadong": 8065,
      "##apt": 8066,
      "##abago": 8067,
      "##imit": 8068,
      "pangd": 8069,
      "##elas": 8070,
      "sira": 8071,
      "intr": 8072,
      "inalis": 8073,
      "nir": 8074,
      "pinta": 8075,
      "##ukod": 8076,
      "magtrabaho": 8077,
      "anuman": 8078,
      "ibaba": 8079,
      "katarungan": 8080,
      "maih": 8081,
      "##entasyon": 8082,
      "alice": 8083,
      "mario": 8084,
      "##ants": 8085,
      "prutas": 8086,
      "ipakita": 8087,
      "tribo": 8088,
      "pagsasa": 8089,
      "lumaban": 8090,
      "##ilio": 8091,
      "paglitaw": 8092,
      "##igasyon": 8093,
      "loc": 8094,
      "itinampok": 8095,
      "##ataang": 8096,
      "mabuhay": 8097,
      "##ality": 8098,
      "luis": 8099,
      "madali": 8100,
      "inilal": 8101,
      "anderson": 8102,
      "nabigo": 8103,
      "pambayan": 8104,
      "teolohiya": 8105,
      "artipis": 8106,
      "konsiy": 8107,
      "pagpasok": 8108,
      "pagpipinta": 8109,
      "##lands": 8110,
      "##ektado": 8111,
      "health": 8112,
      "nagdudulot": 8113,
      "scott": 8114,
      "mediter": 8115,
      "bloke": 8116,
      "pansariling": 8117,
      "kontribusyon": 8118,
      "arkid": 8119,
      "nakapagb": 8120,
      "doug": 8121,
      "1911": 8122,
      "etim": 8123,
      "iral": 8124,
      "peter": 8125,
      "dokum": 8126,
      "ahm": 8127,
      "ahab": 8128,
      "pagkakataong": 8129,
      "konseptong": 8130,
      "birheng": 8131,
      "inhinyero": 8132,
      "pinagsamang": 8133,
      "##ometr": 8134,
      "baybaying": 8135,
      "reyes": 8136,
      "menor": 8137,
      "siyentipikong": 8138,
      "free": 8139,
      "formula": 8140,
      "ikalawa": 8141,
      "mekanikal": 8142,
      "##ission": 8143,
      "isinaad": 8144,
      "totoo": 8145,
      "block": 8146,
      "broadcasting": 8147,
      "kasalanan": 8148,
      "tisyu": 8149,
      "service": 8150,
      "##welt": 8151,
      "kalimitang": 8152,
      "yugoslav": 8153,
      "plasma": 8154,
      "kandidato": 8155,
      "kabaligtaran": 8156,
      "grammy": 8157,
      "talampakan": 8158,
      "committe": 8159,
      "kagamitang": 8160,
      "artipisyal": 8161,
      "59": 8162,
      "aud": 8163,
      "bula": 8164,
      "beng": 8165,
      "bow": 8166,
      "gast": 8167,
      "kud": 8168,
      "nucle": 8169,
      "vene": 8170,
      "##ous": 8171,
      "##kontin": 8172,
      "##ía": 8173,
      "##ank": 8174,
      "##inom": 8175,
      "angg": 8176,
      "##ates": 8177,
      "##onwelt": 8178,
      "##amaan": 8179,
      "atm": 8180,
      "##iyakan": 8181,
      "isahang": 8182,
      "##umulan": 8183,
      "##imika": 8184,
      "##iminasyon": 8185,
      "##ury": 8186,
      "##els": 8187,
      "##omun": 8188,
      "nakatayo": 8189,
      "katiyakan": 8190,
      "maj": 8191,
      "matanda": 8192,
      "kaparaan": 8193,
      "##uwang": 8194,
      "tind": 8195,
      "tagu": 8196,
      "##itain": 8197,
      "akit": 8198,
      "konst": 8199,
      "def": 8200,
      "kinakatawan": 8201,
      "##eha": 8202,
      "paglalaro": 8203,
      "komonwelt": 8204,
      "tumigil": 8205,
      "mahih": 8206,
      "paliwanag": 8207,
      "pagpapalit": 8208,
      "pagpaplano": 8209,
      "##ataong": 8210,
      "pinakamat": 8211,
      "##insunod": 8212,
      "sanaysay": 8213,
      "papasok": 8214,
      "editor": 8215,
      "musikal": 8216,
      "shang": 8217,
      "androm": 8218,
      "brand": 8219,
      "humingi": 8220,
      "comedy": 8221,
      "paggamot": 8222,
      "mapanatili": 8223,
      "nakatala": 8224,
      "##arkahan": 8225,
      "167": 8226,
      "162": 8227,
      "koleksyon": 8228,
      "lega": 8229,
      "##elli": 8230,
      "##essor": 8231,
      "rehim": 8232,
      "cour": 8233,
      "gitara": 8234,
      "drum": 8235,
      "direksyon": 8236,
      "director": 8237,
      "ibinibigay": 8238,
      "##ertebr": 8239,
      "uniberso": 8240,
      "ideolohiya": 8241,
      "ipinagk": 8242,
      "gawad": 8243,
      "elektromagn": 8244,
      "macedon": 8245,
      "nagsasabi": 8246,
      "district": 8247,
      "prep": 8248,
      "bilyon": 8249,
      "panggagamot": 8250,
      "misyonero": 8251,
      "georg": 8252,
      "pampanga": 8253,
      "kapuluan": 8254,
      "constantin": 8255,
      "tony": 8256,
      "kriminal": 8257,
      "alkalde": 8258,
      "dilaw": 8259,
      "##iramdam": 8260,
      "magkakaibang": 8261,
      "abogado": 8262,
      "pictures": 8263,
      "renasim": 8264,
      "kadahilanang": 8265,
      "nukleyar": 8266,
      "kaunlaran": 8267,
      "konstruksiyon": 8268,
      "sicilia": 8269,
      "pampanitikan": 8270,
      "ashoka": 8271,
      "lumipad": 8272,
      "basilika": 8273,
      "pariralang": 8274,
      "hikaru": 8275,
      "oksih": 8276,
      "kahalintulad": 8277,
      "pahintulot": 8278,
      "komiteng": 8279,
      "kotse": 8280,
      "natsume": 8281,
      "cd": 8282,
      "dila": 8283,
      "gagamit": 8284,
      "gawang": 8285,
      "gender": 8286,
      "hy": 8287,
      "kahil": 8288,
      "lob": 8289,
      "porma": 8290,
      "roc": 8291,
      "sesyon": 8292,
      "usa": 8293,
      "vin": 8294,
      "witch": 8295,
      "##aismo": 8296,
      "##br": 8297,
      "##eon": 8298,
      "##cle": 8299,
      "##zil": 8300,
      "##anes": 8301,
      "naimpluwensiyahan": 8302,
      "##arat": 8303,
      "ayaw": 8304,
      "##akap": 8305,
      "##aktong": 8306,
      "##ingat": 8307,
      "##abor": 8308,
      "##abatas": 8309,
      "##abilidad": 8310,
      "##adyang": 8311,
      "##iping": 8312,
      "pinup": 8313,
      "pinalawak": 8314,
      "mayaman": 8315,
      "katipunan": 8316,
      "under": 8317,
      "##ugot": 8318,
      "sinuportahan": 8319,
      "alit": 8320,
      "reaksyon": 8321,
      "bagkus": 8322,
      "nanguna": 8323,
      "kabig": 8324,
      "kabataang": 8325,
      "ginagawang": 8326,
      "proc": 8327,
      "trat": 8328,
      "##ense": 8329,
      "asp": 8330,
      "asian": 8331,
      "asia": 8332,
      "asemble": 8333,
      "hangganang": 8334,
      "paglaki": 8335,
      "tumakbo": 8336,
      "##umpirma": 8337,
      "santos": 8338,
      "pakiramdam": 8339,
      "naglilingkod": 8340,
      "magkapar": 8341,
      "nagpasya": 8342,
      "##untunan": 8343,
      "nilagdaan": 8344,
      "adb": 8345,
      "adams": 8346,
      "arte": 8347,
      "kagustuhan": 8348,
      "samang": 8349,
      "nasakop": 8350,
      "nakakita": 8351,
      "pakikidigma": 8352,
      "monet": 8353,
      "120": 8354,
      "coel": 8355,
      "1967": 8356,
      "telev": 8357,
      "ekonomiyang": 8358,
      "bass": 8359,
      "republic": 8360,
      "solomon": 8361,
      "katolika": 8362,
      "##ights": 8363,
      "1917": 8364,
      "bayad": 8365,
      "brown": 8366,
      "mamamahayag": 8367,
      "institusyong": 8368,
      "nawasak": 8369,
      "aprikano": 8370,
      "iginaw": 8371,
      "teritoryong": 8372,
      "rosa": 8373,
      "rosas": 8374,
      "pagsisimula": 8375,
      "semin": 8376,
      "debate": 8377,
      "britaniko": 8378,
      "##iji": 8379,
      "sosy": 8380,
      "kwento": 8381,
      "akademiko": 8382,
      "mikroskop": 8383,
      "ramon": 8384,
      "##agsikan": 8385,
      "sitwasyon": 8386,
      "panunungkulan": 8387,
      "asirya": 8388,
      "pinakakaraniw": 8389,
      "panukalang": 8390,
      "nazi": 8391,
      "psy": 8392,
      "antioch": 8393,
      "circuit": 8394,
      "nakababatang": 8395,
      "inhenyeriyang": 8396,
      "gubat": 8397,
      "pangkasalukuyang": 8398,
      "pakikibaka": 8399,
      "intelekt": 8400,
      "jesus": 8401,
      "korporasyon": 8402,
      "interpretasyon": 8403,
      "arkidiyosesis": 8404,
      "committee": 8405,
      "iginawad": 8406,
      "92": 8407,
      "balan": 8408,
      "dol": 8409,
      "hub": 8410,
      "ke": 8411,
      "otom": 8412,
      "ras": 8413,
      "roh": 8414,
      "rate": 8415,
      "sant": 8416,
      "vinc": 8417,
      "zamb": 8418,
      "zomb": 8419,
      "##18": 8420,
      "##lit": 8421,
      "##lob": 8422,
      "##yas": 8423,
      "##cr": 8424,
      "naabot": 8425,
      "##aton": 8426,
      "##akitang": 8427,
      "##ulum": 8428,
      "##apekt": 8429,
      "isab": 8430,
      "##unyag": 8431,
      "##ench": 8432,
      "##urh": 8433,
      "##urian": 8434,
      "##elasyon": 8435,
      "pamanang": 8436,
      "##irm": 8437,
      "kasong": 8438,
      "pagkalat": 8439,
      "magtat": 8440,
      "##ektr": 8441,
      "##ekord": 8442,
      "##uhat": 8443,
      "sinamahan": 8444,
      "kabayo": 8445,
      "ginawaran": 8446,
      "this": 8447,
      "pagsabog": 8448,
      "manch": 8449,
      "manuel": 8450,
      "tumatagal": 8451,
      "chal": 8452,
      "natamo": 8453,
      "mahinang": 8454,
      "pagpapalawak": 8455,
      "napili": 8456,
      "disenyong": 8457,
      "estadistika": 8458,
      "tatl": 8459,
      "siglong": 8460,
      "pambaba": 8461,
      "pass": 8462,
      "kagand": 8463,
      "malakihang": 8464,
      "mapan": 8465,
      "nagpapatuloy": 8466,
      "1970s": 8467,
      "173": 8468,
      "175": 8469,
      "mamaya": 8470,
      "pangkatawan": 8471,
      "nagtut": 8472,
      "nagtataguyod": 8473,
      "persa": 8474,
      "eksena": 8475,
      "obl": 8476,
      "ebolb": 8477,
      "nobel": 8478,
      "1953": 8479,
      "1957": 8480,
      "pisikang": 8481,
      "dance": 8482,
      "seat": 8483,
      "1936": 8484,
      "bukid": 8485,
      "tanawin": 8486,
      "ibinalik": 8487,
      "propeta": 8488,
      "1919": 8489,
      "turb": 8490,
      "tuluyang": 8491,
      "kimika": 8492,
      "nagsasabing": 8493,
      "nawalan": 8494,
      "pahayagang": 8495,
      "istilong": 8496,
      "pampubliko": 8497,
      "belle": 8498,
      "proyektong": 8499,
      "bilyong": 8500,
      "enerhiyang": 8501,
      "usapin": 8502,
      "alkohol": 8503,
      "arkitekturang": 8504,
      "cavite": 8505,
      "christian": 8506,
      "##klus": 8507,
      "kosm": 8508,
      "alpabetong": 8509,
      "anatomiya": 8510,
      "pagpoproseso": 8511,
      "galaksiya": 8512,
      "simbolong": 8513,
      "virginia": 8514,
      "kaayusan": 8515,
      "metropolitan": 8516,
      "arsob": 8517,
      "taguig": 8518,
      "andromeda": 8519,
      "93": 8520,
      "aff": 8521,
      "bungo": 8522,
      "data": 8523,
      "hell": 8524,
      "ion": 8525,
      "ich": 8526,
      "jak": 8527,
      "jazz": 8528,
      "lyon": 8529,
      "lalim": 8530,
      "libo": 8531,
      "laganap": 8532,
      "lola": 8533,
      "nit": 8534,
      "nik": 8535,
      "norte": 8536,
      "som": 8537,
      "squ": 8538,
      "tir": 8539,
      "tulungan": 8540,
      "yari": 8541,
      "##19": 8542,
      "##pur": 8543,
      "##bs": 8544,
      "##ball": 8545,
      "##88": 8546,
      "##86": 8547,
      "##damang": 8548,
      "##ée": 8549,
      "##fo": 8550,
      "##ance": 8551,
      "##alab": 8552,
      "##init": 8553,
      "pagnanais": 8554,
      "nagturo": 8555,
      "##igkas": 8556,
      "##oryang": 8557,
      "pinapat": 8558,
      "pamangkin": 8559,
      "##irs": 8560,
      "nakaranas": 8561,
      "pagkapang": 8562,
      "maglaon": 8563,
      "##emo": 8564,
      "malikha": 8565,
      "sinubukan": 8566,
      "alok": 8567,
      "matataas": 8568,
      "ilo": 8569,
      "baga": 8570,
      "##ohen": 8571,
      "pangka": 8572,
      "baha": 8573,
      "pagpapas": 8574,
      "bantog": 8575,
      "itinuro": 8576,
      "pinakamaraming": 8577,
      "##umpa": 8578,
      "open": 8579,
      "stud": 8580,
      "edward": 8581,
      "naglalakbay": 8582,
      "sho": 8583,
      "paghahati": 8584,
      "pagtingin": 8585,
      "nabigyan": 8586,
      "saksi": 8587,
      "##inaldo": 8588,
      "kulto": 8589,
      "kultural": 8590,
      "suport": 8591,
      "##erald": 8592,
      "politikal": 8593,
      "pert": 8594,
      "perp": 8595,
      "laur": 8596,
      "##ondena": 8597,
      "likido": 8598,
      "##avel": 8599,
      "kontra": 8600,
      "##tier": 8601,
      "demonyo": 8602,
      "##indalawang": 8603,
      "negatibong": 8604,
      "clark": 8605,
      "turko": 8606,
      "sandatang": 8607,
      "seksuwalidad": 8608,
      "himagsikan": 8609,
      "merc": 8610,
      "1898": 8611,
      "1896": 8612,
      "##inese": 8613,
      "##istry": 8614,
      "whitney": 8615,
      "negosyante": 8616,
      "pinakamahalagang": 8617,
      "islamiko": 8618,
      "##retiro": 8619,
      "magkakaroon": 8620,
      "butil": 8621,
      "surah": 8622,
      "dayuhan": 8623,
      "dayuhang": 8624,
      "virus": 8625,
      "rebolusyonaryong": 8626,
      "sumusuporta": 8627,
      "monarkiya": 8628,
      "##adyet": 8629,
      "demokratiko": 8630,
      "binibigkas": 8631,
      "doctor": 8632,
      "windows": 8633,
      "saserdote": 8634,
      "kalooban": 8635,
      "oriental": 8636,
      "panatil": 8637,
      "karahasan": 8638,
      "etimolohiya": 8639,
      "otomano": 8640,
      "67": 8641,
      "97": 8642,
      "benta": 8643,
      "cin": 8644,
      "ciro": 8645,
      "dro": 8646,
      "fund": 8647,
      "gol": 8648,
      "hop": 8649,
      "iilang": 8650,
      "kulang": 8651,
      "likha": 8652,
      "lolo": 8653,
      "od": 8654,
      "piy": 8655,
      "run": 8656,
      "site": 8657,
      "tangk": 8658,
      "tetr": 8659,
      "##15": 8660,
      "##rini": 8661,
      "##pano": 8662,
      "##hay": 8663,
      "##sada": 8664,
      "##kel": 8665,
      "##kins": 8666,
      "##alastas": 8667,
      "##agda": 8668,
      "##aganda": 8669,
      "##asag": 8670,
      "##aslang": 8671,
      "##asko": 8672,
      "##onekta": 8673,
      "##ahay": 8674,
      "##ery": 8675,
      "##ison": 8676,
      "##isado": 8677,
      "##apay": 8678,
      "pagnan": 8679,
      "##iyam": 8680,
      "##odia": 8681,
      "1900": 8682,
      "maib": 8683,
      "##uhayan": 8684,
      "##entum": 8685,
      "mars": 8686,
      "ikapit": 8687,
      "ikatlo": 8688,
      "kayang": 8689,
      "pinakap": 8690,
      "pamamahagi": 8691,
      "asos": 8692,
      "##alimb": 8693,
      "binabay": 8694,
      "kinak": 8695,
      "cho": 8696,
      "chinese": 8697,
      "##asanhi": 8698,
      "##rio": 8699,
      "kromos": 8700,
      "pinakamataong": 8701,
      "diskr": 8702,
      "milenyo": 8703,
      "paksang": 8704,
      "papuri": 8705,
      "nagbebenta": 8706,
      "muse": 8707,
      "tatak": 8708,
      "##ection": 8709,
      "timbang": 8710,
      "interaksiyon": 8711,
      "pagtatag": 8712,
      "pagtataguyod": 8713,
      "pambih": 8714,
      "conf": 8715,
      "164": 8716,
      "koron": 8717,
      "korona": 8718,
      "pumup": 8719,
      "pilak": 8720,
      "nagtatapos": 8721,
      "likhang": 8722,
      "dragon": 8723,
      "1951": 8724,
      "1955": 8725,
      "komposisyon": 8726,
      "1933": 8727,
      "katolikong": 8728,
      "1918": 8729,
      "beat": 8730,
      "pandar": 8731,
      "##ograph": 8732,
      "teknolohiyang": 8733,
      "hudaismo": 8734,
      "hispano": 8735,
      "nakapaloob": 8736,
      "pinakamahabang": 8737,
      "allâh": 8738,
      "states": 8739,
      "dibisyon": 8740,
      "bilog": 8741,
      "planetang": 8742,
      "inhinyerong": 8743,
      "micros": 8744,
      "nagtataglay": 8745,
      "natitira": 8746,
      "alexander": 8747,
      "josé": 8748,
      "pundamental": 8749,
      "ateneo": 8750,
      "iwas": 8751,
      "mandir": 8752,
      "paglipad": 8753,
      "umuunlad": 8754,
      "mother": 8755,
      "kadahilanan": 8756,
      "episode": 8757,
      "website": 8758,
      "marxismo": 8759,
      "kenji": 8760,
      "kabahayan": 8761,
      "tanso": 8762,
      "aguinaldo": 8763,
      "ehersisyong": 8764,
      "pinakadakilang": 8765,
      "bisantino": 8766,
      "aut": 8767,
      "asa": 8768,
      "bet": 8769,
      "eu": 8770,
      "fort": 8771,
      "fra": 8772,
      "famil": 8773,
      "gov": 8774,
      "lider": 8775,
      "mort": 8776,
      "oly": 8777,
      "over": 8778,
      "pent": 8779,
      "qing": 8780,
      "ron": 8781,
      "smit": 8782,
      "sipi": 8783,
      "tik": 8784,
      "wang": 8785,
      "yam": 8786,
      "##ae": 8787,
      "##pl": 8788,
      "##83": 8789,
      "##eer": 8790,
      "##kast": 8791,
      "##con": 8792,
      "##drom": 8793,
      "##vre": 8794,
      "##for": 8795,
      "##ilitan": 8796,
      "##illo": 8797,
      "##amis": 8798,
      "##aku": 8799,
      "##isya": 8800,
      "##isda": 8801,
      "pangasiwaan": 8802,
      "##ible": 8803,
      "nicol": 8804,
      "##legal": 8805,
      "bilanggo": 8806,
      "##ubund": 8807,
      "##uty": 8808,
      "pagkad": 8809,
      "##ett": 8810,
      "katib": 8811,
      "##ihing": 8812,
      "mach": 8813,
      "##entino": 8814,
      "alt": 8815,
      "along": 8816,
      "matapang": 8817,
      "karun": 8818,
      "##upit": 8819,
      "##anth": 8820,
      "makati": 8821,
      "masama": 8822,
      "kalipunan": 8823,
      "kalinangang": 8824,
      "prag": 8825,
      "tinanggal": 8826,
      "kaugaliang": 8827,
      "pangkomp": 8828,
      "asukal": 8829,
      "dec": 8830,
      "manip": 8831,
      "salik": 8832,
      "grabit": 8833,
      "##angking": 8834,
      "disc": 8835,
      "umusbong": 8836,
      "##ungkot": 8837,
      "madla": 8838,
      "awt": 8839,
      "kumilos": 8840,
      "reputasyon": 8841,
      "kagaya": 8842,
      "saka": 8843,
      "karamdamang": 8844,
      "supling": 8845,
      "nakakabit": 8846,
      "monop": 8847,
      "##ief": 8848,
      "henetiko": 8849,
      "heograp": 8850,
      "medyebal": 8851,
      "##alabasan": 8852,
      "sapilitang": 8853,
      "1938": 8854,
      "1935": 8855,
      "##ibersaryo": 8856,
      "herm": 8857,
      "bulubund": 8858,
      "magsagawa": 8859,
      "makabuluhang": 8860,
      "ulan": 8861,
      "baut": 8862,
      "kursong": 8863,
      "program": 8864,
      "bigat": 8865,
      "kimikang": 8866,
      "angkin": 8867,
      "##omba": 8868,
      "geisha": 8869,
      "hispan": 8870,
      "sirac": 8871,
      "rail": 8872,
      "pagkakatulad": 8873,
      "airport": 8874,
      "joe": 8875,
      "nailathala": 8876,
      "kasangkapang": 8877,
      "garcia": 8878,
      "londres": 8879,
      "stop": 8880,
      "limitado": 8881,
      "aksidente": 8882,
      "juda": 8883,
      "pagtitipon": 8884,
      "asiryo": 8885,
      "##likadong": 8886,
      "pinakamaagang": 8887,
      "binibigyan": 8888,
      "binibigyang": 8889,
      "lambak": 8890,
      "alaala": 8891,
      "katamtamang": 8892,
      "olymp": 8893,
      "bulubunduk": 8894,
      "79": 8895,
      "89": 8896,
      "aaralan": 8897,
      "bbc": 8898,
      "cesar": 8899,
      "eg": 8900,
      "hust": 8901,
      "ipap": 8902,
      "kus": 8903,
      "kaan": 8904,
      "lahing": 8905,
      "lord": 8906,
      "lukl": 8907,
      "lady": 8908,
      "mest": 8909,
      "pse": 8910,
      "sta": 8911,
      "##rato": 8912,
      "##uugnay": 8913,
      "##ps": 8914,
      "##hib": 8915,
      "##hika": 8916,
      "##yles": 8917,
      "##84": 8918,
      "##nes": 8919,
      "##dor": 8920,
      "##well": 8921,
      "##inh": 8922,
      "##inum": 8923,
      "##aresto": 8924,
      "##akto": 8925,
      "##akwil": 8926,
      "##erc": 8927,
      "pagrer": 8928,
      "##unch": 8929,
      "##ensa": 8930,
      "##enzo": 8931,
      "##igilan": 8932,
      "panganay": 8933,
      "##eline": 8934,
      "inv": 8935,
      "##rohen": 8936,
      "##leta": 8937,
      "##odo": 8938,
      "nakagawa": 8939,
      "kasiyahan": 8940,
      "anal": 8941,
      "anark": 8942,
      "ibalik": 8943,
      "katapat": 8944,
      "##emya": 8945,
      "##eden": 8946,
      "marte": 8947,
      "marka": 8948,
      "##upaan": 8949,
      "kapak": 8950,
      "kaag": 8951,
      "pinakatanyag": 8952,
      "tags": 8953,
      "prok": 8954,
      "pagsakop": 8955,
      "patent": 8956,
      "sala": 8957,
      "pagbebenta": 8958,
      "paglaon": 8959,
      "tumatakbo": 8960,
      "child": 8961,
      "theory": 8962,
      "itinuturo": 8963,
      "impormal": 8964,
      "##insala": 8965,
      "##epsiyon": 8966,
      "pinagtat": 8967,
      "pakistan": 8968,
      "pampam": 8969,
      "stro": 8970,
      "stand": 8971,
      "namuhay": 8972,
      "series": 8973,
      "anth": 8974,
      "pagtanggi": 8975,
      "reper": 8976,
      "nilal": 8977,
      "team": 8978,
      "153": 8979,
      "sakupin": 8980,
      "nagpapat": 8981,
      "freder": 8982,
      "monumento": 8983,
      "mangyari": 8984,
      "hukom": 8985,
      "koleksiyon": 8986,
      "league": 8987,
      "piloto": 8988,
      "1943": 8989,
      "1962": 8990,
      "140": 8991,
      "soul": 8992,
      "137": 8993,
      "like": 8994,
      "metod": 8995,
      "news": 8996,
      "##ather": 8997,
      "##idae": 8998,
      "solar": 8999,
      "nalikha": 9000,
      "bulw": 9001,
      "ural": 9002,
      "puwang": 9003,
      "##osevel": 9004,
      "bibig": 9005,
      "hesw": 9006,
      "pilosopong": 9007,
      "turista": 9008,
      "bigyan": 9009,
      "motor": 9010,
      "industriyal": 9011,
      "tuld": 9012,
      "paghahambing": 9013,
      "roosevel": 9014,
      "young": 9015,
      "umiikot": 9016,
      "pampolitikang": 9017,
      "1899": 9018,
      "inihalal": 9019,
      "biswal": 9020,
      "prehis": 9021,
      "##oroonan": 9022,
      "naniniwalang": 9023,
      "computer": 9024,
      "##osauro": 9025,
      "ikinasal": 9026,
      "arkitekto": 9027,
      "caesar": 9028,
      "katayuang": 9029,
      "##aksiyong": 9030,
      "benep": 9031,
      "sekular": 9032,
      "barkong": 9033,
      "tagapangasiwa": 9034,
      "rebolusyonaryo": 9035,
      "sosyalismo": 9036,
      "mosc": 9037,
      "representasyon": 9038,
      "ligaw": 9039,
      "pulisya": 9040,
      "tagapagpaganap": 9041,
      "masasabing": 9042,
      "estimulasyon": 9043,
      "kapitbah": 9044,
      "darwin": 9045,
      "sintesis": 9046,
      "##organisa": 9047,
      "binigyang": 9048,
      "ekspedisyon": 9049,
      "gaganapin": 9050,
      "benedicto": 9051,
      "kahilingan": 9052,
      "television": 9053,
      "pagkapangulo": 9054,
      "iloilo": 9055,
      "ikapitong": 9056,
      "smith": 9057,
      "pangkompyuter": 9058,
      "roosevelt": 9059,
      "00": 9060,
      "94": 9061,
      "aalis": 9062,
      "cro": 9063,
      "dw": 9064,
      "diks": 9065,
      "diana": 9066,
      "fat": 9067,
      "fash": 9068,
      "feder": 9069,
      "gor": 9070,
      "ilegal": 9071,
      "jav": 9072,
      "jenna": 9073,
      "klin": 9074,
      "mob": 9075,
      "pu": 9076,
      "rap": 9077,
      "rol": 9078,
      "tangg": 9079,
      "tahimik": 9080,
      "wes": 9081,
      "xi": 9082,
      "zoro": 9083,
      "zhou": 9084,
      "##16": 9085,
      "##rad": 9086,
      "##rino": 9087,
      "##tis": 9088,
      "##tanggol": 9089,
      "##gio": 9090,
      "##hat": 9091,
      "##iin": 9092,
      "##ease": 9093,
      "##cp": 9094,
      "##anumbalik": 9095,
      "ngalan": 9096,
      "##alon": 9097,
      "##agot": 9098,
      "##ater": 9099,
      "##ilda": 9100,
      "##akang": 9101,
      "##ulam": 9102,
      "##ahulugang": 9103,
      "##awat": 9104,
      "##imili": 9105,
      "kanan": 9106,
      "##olution": 9107,
      "##ures": 9108,
      "##ukong": 9109,
      "##utive": 9110,
      "taasang": 9111,
      "##track": 9112,
      "##ugunan": 9113,
      "arro": 9114,
      "alc": 9115,
      "alinsunod": 9116,
      "matukoy": 9117,
      "matilda": 9118,
      "##aanim": 9119,
      "ikas": 9120,
      "ikaanim": 9121,
      "tagat": 9122,
      "##alagaan": 9123,
      "##oyd": 9124,
      "orig": 9125,
      "deep": 9126,
      "kahus": 9127,
      "pagbib": 9128,
      "paglaban": 9129,
      "##ebe": 9130,
      "mahina": 9131,
      "apo": 9132,
      "pagkatuto": 9133,
      "pinakamal": 9134,
      "ekw": 9135,
      "ekst": 9136,
      "##aliang": 9137,
      "pakpak": 9138,
      "nagbunga": 9139,
      "madrid": 9140,
      "entr": 9141,
      "magkasama": 9142,
      "indiya": 9143,
      "kumakain": 9144,
      "nagpa": 9145,
      "mineral": 9146,
      "##alason": 9147,
      "1980s": 9148,
      "samuel": 9149,
      "teror": 9150,
      "spes": 9151,
      "104": 9152,
      "##iza": 9153,
      "poly": 9154,
      "empley": 9155,
      "125": 9156,
      "##orkon": 9157,
      "1966": 9158,
      "telep": 9159,
      "trade": 9160,
      "seksiyon": 9161,
      "silanganing": 9162,
      "gamma": 9163,
      "pagsasaliksik": 9164,
      "naghahanap": 9165,
      "presidente": 9166,
      "kalakal": 9167,
      "nakapagp": 9168,
      "quantum": 9169,
      "depos": 9170,
      "##tions": 9171,
      "osorkon": 9172,
      "##ologong": 9173,
      "ugnay": 9174,
      "sibilyan": 9175,
      "##aramdaman": 9176,
      "1901": 9177,
      "1902": 9178,
      "armas": 9179,
      "sentim": 9180,
      "pinagmumulan": 9181,
      "pagkabigo": 9182,
      "bangka": 9183,
      "commun": 9184,
      "communit": 9185,
      "napagk": 9186,
      "laging": 9187,
      "birus": 9188,
      "arabia": 9189,
      "four": 9190,
      "akademya": 9191,
      "tumutulong": 9192,
      "posible": 9193,
      "smash": 9194,
      "judea": 9195,
      "sosyalistang": 9196,
      "##iskubre": 9197,
      "russia": 9198,
      "optikal": 9199,
      "##ript": 9200,
      "athena": 9201,
      "mapagkukunan": 9202,
      "cambridge": 9203,
      "cabrini": 9204,
      "aristokr": 9205,
      "porsiyento": 9206,
      "napanatili": 9207,
      "ikawalong": 9208,
      "teleskopyo": 9209,
      "##aprub": 9210,
      "##zuela": 9211,
      "kabuoan": 9212,
      "puky": 9213,
      "gaultier": 9214,
      "konsiyerto": 9215,
      "panatilihin": 9216,
      "diskriminasyon": 9217,
      "pseud": 9218,
      "tagsibol": 9219,
      "moscow": 9220,
      "87": 9221,
      "aur": 9222,
      "aalaga": 9223,
      "bakas": 9224,
      "diwang": 9225,
      "fame": 9226,
      "haka": 9227,
      "hep": 9228,
      "kel": 9229,
      "kubo": 9230,
      "ling": 9231,
      "lans": 9232,
      "mahilig": 9233,
      "pest": 9234,
      "puti": 9235,
      "riles": 9236,
      "tib": 9237,
      "ump": 9238,
      "##rika": 9239,
      "##rano": 9240,
      "##tibo": 9241,
      "##back": 9242,
      "##yung": 9243,
      "##yod": 9244,
      "##yth": 9245,
      "##ei": 9246,
      "##ship": 9247,
      "##kar": 9248,
      "##ket": 9249,
      "##zpi": 9250,
      "##vo": 9251,
      "##angal": 9252,
      "##alisyon": 9253,
      "##inete": 9254,
      "##atulan": 9255,
      "##itibo": 9256,
      "##ayamang": 9257,
      "##erra": 9258,
      "##isi": 9259,
      "##apu": 9260,
      "##iyun": 9261,
      "isama": 9262,
      "istraktura": 9263,
      "##adal": 9264,
      "##umat": 9265,
      "panging": 9266,
      "##elf": 9267,
      "##idge": 9268,
      "panand": 9269,
      "##leks": 9270,
      "##irekta": 9271,
      "nakam": 9272,
      "nakumpleto": 9273,
      "kasarin": 9274,
      "kasaping": 9275,
      "magas": 9276,
      "maganap": 9277,
      "ana": 9278,
      "anibersaryo": 9279,
      "maabot": 9280,
      "maunlad": 9281,
      "##oper": 9282,
      "##trans": 9283,
      "##ots": 9284,
      "##oton": 9285,
      "kapalaran": 9286,
      "##anggang": 9287,
      "##obs": 9288,
      "nangingibabaw": 9289,
      "makit": 9290,
      "masang": 9291,
      "masus": 9292,
      "prize": 9293,
      "pangkalakalan": 9294,
      "patron": 9295,
      "patimog": 9296,
      "kinar": 9297,
      "palma": 9298,
      "palapag": 9299,
      "##haz": 9300,
      "loz": 9301,
      "napansin": 9302,
      "pinakamaliit": 9303,
      "##estong": 9304,
      "mabil": 9305,
      "kampanyang": 9306,
      "umano": 9307,
      "opera": 9308,
      "##ste": 9309,
      "ens": 9310,
      "magkahiwalay": 9311,
      "##intay": 9312,
      "minarkahan": 9313,
      "pastor": 9314,
      "relasyong": 9315,
      "plaka": 9316,
      "##alayon": 9317,
      "mapanganib": 9318,
      "##alisadong": 9319,
      "174": 9320,
      "109": 9321,
      "french": 9322,
      "monaster": 9323,
      "talata": 9324,
      "nagtagumpay": 9325,
      "##elly": 9326,
      "##ellan": 9327,
      "baril": 9328,
      "##ayaang": 9329,
      "114": 9330,
      "carbon": 9331,
      "134": 9332,
      "heograpiya": 9333,
      "teoretikal": 9334,
      "medalya": 9335,
      "nalalaman": 9336,
      "lith": 9337,
      "langu": 9338,
      "##hanang": 9339,
      "singaw": 9340,
      "pagkakaibang": 9341,
      "buwis": 9342,
      "naghari": 9343,
      "exec": 9344,
      "kalakip": 9345,
      "nakapags": 9346,
      "makabuo": 9347,
      "pangmatag": 9348,
      "france": 9349,
      "##ffer": 9350,
      "1928": 9351,
      "homoseksuwal": 9352,
      "biyolohikal": 9353,
      "prinsipyong": 9354,
      "takt": 9355,
      "design": 9356,
      "superh": 9357,
      "dokumentong": 9358,
      "elektrikal": 9359,
      "##alogo": 9360,
      "bolyum": 9361,
      "book": 9362,
      "nakasentro": 9363,
      "mananalaysay": 9364,
      "common": 9365,
      "lagusan": 9366,
      "idineklara": 9367,
      "christo": 9368,
      "imbest": 9369,
      "##alooban": 9370,
      "kinikilalang": 9371,
      "elementarya": 9372,
      "kaganapang": 9373,
      "problemang": 9374,
      "kasanayang": 9375,
      "##igasig": 9376,
      "tagasuporta": 9377,
      "maituturing": 9378,
      "steve": 9379,
      "operasyong": 9380,
      "augusto": 9381,
      "apple": 9382,
      "##redo": 9383,
      "alinman": 9384,
      "lunas": 9385,
      "paglulunsad": 9386,
      "sede": 9387,
      "soundtrack": 9388,
      "tagapagsalita": 9389,
      "campus": 9390,
      "wiktion": 9391,
      "advent": 9392,
      "cuba": 9393,
      "kabihasnan": 9394,
      "pangungusap": 9395,
      "dalawampu": 9396,
      "sawyer": 9397,
      "plastik": 9398,
      "kapasidad": 9399,
      "junior": 9400,
      "shanghai": 9401,
      "legazpi": 9402,
      "##apektuhan": 9403,
      "arsobispo": 9404,
      "droga": 9405,
[...]
