{
  "version": "1.0",
  "truncation": null,
  "padding": null,
  "added_tokens": [
    {
      "id": 0,
      "content": "[PAD]",
      "single_word": false,
      "lstrip": false,
      "rstrip": false,
      "normalized": false,
      "special": true
    },
    {
      "id": 1,
      "content": "[UNK]",
      "single_word": false,
      "lstrip": false,
      "rstrip": false,
      "normalized": false,
      "special": true
    },
    {
      "id": 2,
      "content": "[CLS]",
      "single_word": false,
      "lstrip": false,
      "rstrip": false,
      "normalized": false,
      "special": true
    },
    {
      "id": 3,
      "content": "[SEP]",
      "single_word": false,
      "lstrip": false,
      "rstrip": false,
      "normalized": false,
      "special": true
    },
    {
      "id": 4,
      "content": "[MASK]",
      "single_word": false,
      "lstrip": false,
      "rstrip": false,
      "normalized": false,
      "special": true
    }
  ],
  "normalizer": {
    "type": "BertNormalizer",
    "clean_text": true,
    "handle_chinese_chars": false,
    "strip_accents": false,
    "lowercase": true
  },
  "pre_tokenizer": {
    "type": "BertPreTokenizer"
  },
  "post_processor": null,
  "decoder": {
    "type": "WordPiece",
    "prefix": "##",
    "cleanup": true
  },
  "model": {
    "type": "WordPiece",
    "unk_token": "[UNK]",
    "continuing_subword_prefix": "##",
    "max_input_chars_per_word": 100,
    "vocab": {
      "[PAD]": 0,
      "[UNK]": 1,
      "[CLS]": 2,
      "[SEP]": 3,
      "[MASK]": 4,
      "!": 5,
      "\"": 6,
      "#": 7,
      "$": 8,
      "%": 9,
      "&": 10,
      "'": 11,
      "(": 12,
      ")": 13,
      "+": 14,
      ",": 15,
      "-": 16,
      ".": 17,
      "/": 18,
      "0": 19,
      "1": 20,
      "2": 21,
      "3": 22,
      "4": 23,
      "5": 24,
      "6": 25,
      "7": 26,
      "8": 27,
      "9": 28,
      ":": 29,
      ";": 30,
      "<": 31,
      "=": 32,
      ">": 33,
      "?": 34,
      "@": 35,
      "[": 36,
      "\\": 37,
      "]": 38,
      "_": 39,
      "`": 40,
      "a": 41,
      "b": 42,
      "c": 43,
      "d": 44,
      "e": 45,
      "f": 46,
      "g": 47,
      "h": 48,
      "i": 49,
      "j": 50,
      "k": 51,
      "l": 52,
      "m": 53,
      "n": 54,
      "o": 55,
      "p": 56,
      "q": 57,
      "r": 58,
      "s": 59,
      "t": 60,
      "u": 61,
      "v": 62,
      "w": 63,
      "x": 64,
      "y": 65,
      "z": 66,
      "|": 67,
      "°": 68,
      "±": 69,
      "×": 70,
      "à": 71,
      "á": 72,
      "â": 73,
      "ã": 74,
      "é": 75,
      "í": 76,
      "ñ": 77,
      "ò": 78,
      "ó": 79,
      "ú": 80,
      "ň": 81,
      "œ": 82,
      "̃": 83,
      "ᵽ": 84,
      "ῆ": 85,
      "‐": 86,
      "–": 87,
      "—": 88,
      "‘": 89,
      "’": 90,
      "‚": 91,
      "“": 92,
      "”": 93,
      "„": 94,
      "…": 95,
      "′": 96,
      "€": 97,
      "₱": 98,
      "😎": 99,
      "##o": 100,
      "##d": 101,
      "##i": 102,
      "##n": 103,
      "##p": 104,
      "##a": 105,
      "##s": 106,
      "##u": 107,
      "##m": 108,
      "##l": 109,
      "##g": 110,
      "##r": 111,
      "##h": 112,
      "##k": 113,
      "##e": 114,
      "##c": 115,
      "##y": 116,
      "##t": 117,
      "##3": 118,
      "##5": 119,
      "##1": 120,
      "##b": 121,
      "##w": 122,
      "##4": 123,
      "##z": 124,
      "##6": 125,
      "##0": 126,
      "##q": 127,
      "##7": 128,
      "##v": 129,
      "##f": 130,
      "##2": 131,
      "##9": 132,
      "##j": 133,
      "##8": 134,
      "##ú": 135,
      "##í": 136,
      "##x": 137,
      "##à": 138,
      "##ñ": 139,
      "##á": 140,
      "##é": 141,
      "##ó": 142,
      "##₱": 143,
      "##€": 144,
      "##œ": 145,
      "##°": 146,
      "##×": 147,
      "##̃": 148,
      "##ň": 149,
      "##ã": 150,
      "##±": 151,
      "##â": 152,
      "##ῆ": 153,
      "##an": 154,
      "##ga": 155,
      "##ang": 156,
      "##ag": 157,
      "##ng": 158,
      "nga": 159,
      "sa": 160,
      "sang": 161,
      "##in": 162,
      "##on": 163,
      "##al": 164,
      "ang": 165,
      "##at": 166,
      "##as": 167,
      "##ar": 168,
      "kag": 169,
      "##ay": 170,
      "mga": 171,
      "ka": 172,
      "##il": 173,
      "na": 174,
      "pag": 175,
      "##ak": 176,
      "##ya": 177,
      "##ul": 178,
      "##it": 179,
      "##ad": 180,
      "##er": 181,
      "##am": 182,
      "##is": 183,
      "gin": 184,
      "##um": 185,
      "##ap": 186,
      "##un": 187,
      "##ab": 188,
      "##ong": 189,
      "in": 190,
      "##ah": 191,
      "##yon": 192,
      "##aw": 193,
      "##en": 194,
      "si": 195,
      "##od": 196,
      "##yo": 197,
      "##os": 198,
      "naga": 199,
      "##or": 200,
      "##ub": 201,
      "##id": 202,
      "##us": 203,
      "##ig": 204,
      "##ik": 205,
      "##es": 206,
      "nag": 207,
      "##im": 208,
      "ni": 209,
      "##ut": 210,
      "##ung": 211,
      "##ala": 212,
      "##ug": 213,
      "##ol": 214,
      "pagp": 215,
      "par": 216,
      "##ib": 217,
      "##la": 218,
      "##to": 219,
      "re": 220,
      "man": 221,
      "##om": 222,
      "##ing": 223,
      "pa": 224,
      "##ip": 225,
      "an": 226,
      "##uh": 227,
      "is": 228,
      "mag": 229,
      "##uk": 230,
      "iya": 231,
      "##mo": 232,
      "##og": 233,
      "mas": 234,
      "##ur": 235,
      "##te": 236,
      "##ud": 237,
      "##ila": 238,
      "##ta": 239,
      "pr": 240,
      "##tr": 241,
      "##di": 242,
      "##and": 243,
      "##anga": 244,
      "para": 245,
      "##ot": 246,
      "ini": 247,
      "ila": 248,
      "wala": 249,
      "sin": 250,
      "##asyon": 251,
      "##ulu": 252,
      "kon": 253,
      "##him": 254,
      "##el": 255,
      "indi": 256,
      "may": 257,
      "isa": 258,
      "ar": 259,
      "mak": 260,
      "##up": 261,
      "##han": 262,
      "sini": 263,
      "##umulu": 264,
      "ma": 265,
      "##pa": 266,
      "##ir": 267,
      "##kon": 268,
      "##ilit": 269,
      "ib": 270,
      "##ok": 271,
      "##le": 272,
      "mar": 273,
      "de": 274,
      "##ado": 275,
      "##tang": 276,
      "pumulu": 277,
      "ag": 278,
      "##lan": 279,
      "niya": 280,
      "##uga": 281,
      "pang": 282,
      "kab": 283,
      "##re": 284,
      "##anan": 285,
      "mal": 286,
      "##usyon": 287,
      "ginp": 288,
      "lang": 289,
      "##mp": 290,
      "##bol": 291,
      "milit": 292,
      "mang": 293,
      "##ob": 294,
      "pam": 295,
      "##agan": 296,
      "##ilip": 297,
      "rebol": 298,
      "militar": 299,
      "##ati": 300,
      "nagap": 301,
      "mat": 302,
      "kat": 303,
      "rebolusyon": 304,
      "pumuluyo": 305,
      "ak": 306,
      "##ayon": 307,
      "pagk": 308,
      "##yong": 309,
      "nak": 310,
      "##alin": 311,
      "##lo": 312,
      "##ita": 313,
      "##uha": 314,
      "at": 315,
      "##ek": 316,
      "##op": 317,
      "ne": 318,
      "##wa": 319,
      "pan": 320,
      "kin": 321,
      "kah": 322,
      "mad": 323,
      "sad": 324,
      "##alis": 325,
      "us": 326,
      "sia": 327,
      "kas": 328,
      "##aryo": 329,
      "bat": 330,
      "bil": 331,
      "kad": 332,
      "20": 333,
      "dut": 334,
      "##iga": 335,
      "##way": 336,
      "sila": 337,
      "bal": 338,
      "ginap": 339,
      "##sa": 340,
      "##amb": 341,
      "arm": 342,
      "##aga": 343,
      "pas": 344,
      "pung": 345,
      "##ent": 346,
      "##tong": 347,
      "tr": 348,
      "##em": 349,
      "##sod": 350,
      "un": 351,
      "##atay": 352,
      "##syon": 353,
      "##ter": 354,
      "##ih": 355,
      "pagt": 356,
      "##do": 357,
      "##ilipin": 358,
      "pungsod": 359,
      "##ma": 360,
      "es": 361,
      "##law": 362,
      "ab": 363,
      "pilipin": 364,
      "kal": 365,
      "ban": 366,
      "##uma": 367,
      "ap": 368,
      "##yan": 369,
      "op": 370,
      "##oy": 371,
      "pad": 372,
      "kay": 373,
      "pagb": 374,
      "or": 375,
      "tu": 376,
      "nat": 377,
      "kap": 378,
      "pagpang": 379,
      "nila": 380,
      "##uman": 381,
      "##ra": 382,
      "##cos": 383,
      "sadtong": 384,
      "neg": 385,
      "bar": 386,
      "masa": 387,
      "ko": 388,
      "##ahan": 389,
      "halin": 390,
      "##uno": 391,
      "map": 392,
      "##idad": 393,
      "pul": 394,
      "sub": 395,
      "##angay": 396,
      "marcos": 397,
      "am": 398,
      "gid": 399,
      "##ina": 400,
      "npa": 401,
      "pags": 402,
      "mangung": 403,
      "amo": 404,
      "##et": 405,
      "mangunguma": 406,
      "part": 407,
      "pal": 408,
      "##ros": 409,
      "iban": 410,
      "##ens": 411,
      "kom": 412,
      "##gan": 413,
      "##ahin": 414,
      "##ed": 415,
      "##amat": 416,
      "##iya": 417,
      "##ic": 418,
      "##uan": 419,
      "##uhi": 420,
      "as": 421,
      "nagp": 422,
      "al": 423,
      "##apat": 424,
      "tanan": 425,
      "##uy": 426,
      "negros": 427,
      "##ista": 428,
      "pagh": 429,
      "pin": 430,
      "imp": 431,
      "##ayan": 432,
      "##ugon": 433,
      "##agi": 434,
      "ako": 435,
      "sul": 436,
      "##ero": 437,
      "bang": 438,
      "##akas": 439,
      "##ulong": 440,
      "tub": 441,
      "##ido": 442,
      "siya": 443,
      "ik": 444,
      "sam": 445,
      "##ana": 446,
      "##away": 447,
      "ad": 448,
      "mab": 449,
      "id": 450,
      "##fp": 451,
      "##bat": 452,
      "mah": 453,
      "barangay": 454,
      "subong": 455,
      "##uns": 456,
      "il": 457,
      "##aan": 458,
      "##iko": 459,
      "##ump": 460,
      "##ort": 461,
      "tuig": 462,
      "agud": 463,
      "##ation": 464,
      "on": 465,
      "##ente": 466,
      "##ubl": 467,
      "nagl": 468,
      "ukon": 469,
      "dapat": 470,
      "##ahon": 471,
      "nap": 472,
      "##aryong": 473,
      "rehim": 474,
      "pw": 475,
      "bh": 476,
      "bhb": 477,
      "##eh": 478,
      "bag": 479,
      "mam": 480,
      "pagpam": 481,
      "dir": 482,
      "maga": 483,
      "##ilya": 484,
      "di": 485,
      "bas": 486,
      "banwa": 487,
      "202": 488,
      "kontr": 489,
      "##iw": 490,
      "partido": 491,
      "##unga": 492,
      "##erte": 493,
      "##ibo": 494,
      "pat": 495,
      "##ern": 496,
      "##alag": 497,
      "##ity": 498,
      "samtang": 499,
      "bul": 500,
      "##kr": 501,
      "est": 502,
      "paghim": 503,
      "##abi": 504,
      "apang": 505,
      "##man": 506,
      "duterte": 507,
      "afp": 508,
      "gint": 509,
      "##uon": 510,
      "##isan": 511,
      "##ismo": 512,
      "pwer": 513,
      "##entr": 514,
      "up": 515,
      "pagl": 516,
      "oper": 517,
      "duha": 518,
      "##arung": 519,
      "demo": 520,
      "##yal": 521,
      "adlaw": 522,
      "##pin": 523,
      "##aku": 524,
      "##ion": 525,
      "##ac": 526,
      "ch": 527,
      "mo": 528,
      "sit": 529,
      "of": 530,
      "paghimakas": 531,
      "sing": 532,
      "organ": 533,
      "##umugon": 534,
      "##tan": 535,
      "nagah": 536,
      "##ima": 537,
      "kr": 538,
      "daw": 539,
      "##apos": 540,
      "mamumugon": 541,
      "##unsar": 542,
      "pilipinas": 543,
      "kam": 544,
      "inter": 545,
      "##00": 546,
      "##una": 547,
      "malap": 548,
      "magp": 549,
      "nagak": 550,
      "dug": 551,
      "##yud": 552,
      "bilang": 553,
      "##yun": 554,
      "##ulag": 555,
      "##ika": 556,
      "gr": 557,
      "rebolusyonaryong": 558,
      "ip": 559,
      "##alan": 560,
      "demokr": 561,
      "##th": 562,
      "br": 563,
      "##angan": 564,
      "##amo": 565,
      "taw": 566,
      "com": 567,
      "##asak": 568,
      "##ayo": 569,
      "##tor": 570,
      "bisan": 571,
      "##mit": 572,
      "##aran": 573,
      "##utan": 574,
      "##anya": 575,
      "ant": 576,
      "##obra": 577,
      "min": 578,
      "diri": 579,
      "##ikt": 580,
      "rehimen": 581,
      "organis": 582,
      "##igad": 583,
      "kump": 584,
      "duta": 585,
      "##bal": 586,
      "##ask": 587,
      "padayon": 588,
      "bahin": 589,
      "##ili": 590,
      "##emb": 591,
      "kinamat": 592,
      "nagt": 593,
      "city": 594,
      "##eho": 595,
      "##ant": 596,
      "ginat": 597,
      "##igan": 598,
      "##iling": 599,
      "##ali": 600,
      "lam": 601,
      "##ubang": 602,
      "##tob": 603,
      "##ahang": 604,
      "pinak": 605,
      "res": 606,
      "pwersa": 607,
      "ano": 608,
      "nagas": 609,
      "##imo": 610,
      "##uod": 611,
      "##ani": 612,
      "pilipino": 613,
      "kinamatarung": 614,
      "##angin": 615,
      "19": 616,
      "##eb": 617,
      "paagi": 618,
      "ger": 619,
      "katap": 620,
      "##ain": 621,
      "##ers": 622,
      "##hi": 623,
      "gins": 624,
      "##atag": 625,
      "##res": 626,
      "bangud": 627,
      "ph": 628,
      "nagk": 629,
      "tubtob": 630,
      "akon": 631,
      "ul": 632,
      "##yalis": 633,
      "##ko": 634,
      "pres": 635,
      "##yemb": 636,
      "##ungod": 637,
      "##iwat": 638,
      "sityo": 639,
      "##und": 640,
      "rebolusyonaryo": 641,
      "pab": 642,
      "##io": 643,
      "pareho": 644,
      "##angaway": 645,
      "##bil": 646,
      "nah": 647,
      "ginh": 648,
      "ginah": 649,
      "##ubo": 650,
      "##adong": 651,
      "##aas": 652,
      "hangaway": 653,
      "batuk": 654,
      "tin": 655,
      "hal": 656,
      "##ling": 657,
      "##est": 658,
      "demokrat": 659,
      "komun": 660,
      "##akig": 661,
      "pila": 662,
      "ter": 663,
      "estado": 664,
      "hil": 665,
      "##ans": 666,
      "nags": 667,
      "##ahanglan": 668,
      "nas": 669,
      "##he": 670,
      "kar": 671,
      "##angab": 672,
      "##ep": 673,
      "nagat": 674,
      "gam": 675,
      "nagal": 676,
      "sal": 677,
      "##alom": 678,
      "pagd": 679,
      "##isyon": 680,
      "##agon": 681,
      "##uw": 682,
      "tit": 683,
      "##atan": 684,
      "ot": 685,
      "balay": 686,
      "##yern": 687,
      "##ba": 688,
      "tunga": 689,
      "##ura": 690,
      "##so": 691,
      "kontra": 692,
      "aga": 693,
      "gina": 694,
      "##ia": 695,
      "##ukod": 696,
      "##eng": 697,
      "atubang": 698,
      "##opa": 699,
      "##non": 700,
      "dis": 701,
      "diin": 702,
      "##alak": 703,
      "tag": 704,
      "##unit": 705,
      "##ada": 706,
      "pamilya": 707,
      "os": 708,
      "##ato": 709,
      "##tat": 710,
      "naton": 711,
      "yunit": 712,
      "##ano": 713,
      "aton": 714,
      "tropa": 715,
      "sup": 716,
      "kahubl": 717,
      "##ensya": 718,
      "##da": 719,
      "matuod": 720,
      "sand": 721,
      "##uton": 722,
      "gind": 723,
      "bilog": 724,
      "operasyon": 725,
      "##angk": 726,
      "##unod": 727,
      "##usto": 728,
      "##ugar": 729,
      "lamang": 730,
      "philip": 731,
      "##ental": 732,
      "##yembre": 733,
      "philippin": 734,
      "##apon": 735,
      "##ungan": 736,
      "##ins": 737,
      "##ambal": 738,
      "kita": 739,
      "daku": 740,
      "imper": 741,
      "kamp": 742,
      "imperyalis": 743,
      "armadong": 744,
      "lugar": 745,
      "##yerno": 746,
      "##nd": 747,
      "naman": 748,
      "##isa": 749,
      "comm": 750,
      "kahublagan": 751,
      "kinahanglan": 752,
      "##wel": 753,
      "##ari": 754,
      "##ibutan": 755,
      "ginb": 756,
      "##uso": 757,
      "nagh": 758,
      "kaaway": 759,
      "kapit": 760,
      "law": 761,
      "##ulod": 762,
      "##ibal": 763,
      "##idente": 764,
      "gani": 765,
      "pagpan": 766,
      "pangk": 767,
      "title": 768,
      "bay": 769,
      "ginak": 770,
      "##awa": 771,
      "bin": 772,
      "gink": 773,
      "##dado": 774,
      "sis": 775,
      "##ikal": 776,
      "gub": 777,
      "kaso": 778,
      "san": 779,
      "##akt": 780,
      "##oc": 781,
      "##ara": 782,
      "##isyo": 783,
      "##ment": 784,
      "##angabuhi": 785,
      "imo": 786,
      "##adl": 787,
      "lap": 788,
      "panahon": 789,
      "im": 790,
      "##dug": 791,
      "nangin": 792,
      "organisasyon": 793,
      "##amp": 794,
      "##alap": 795,
      "ek": 796,
      "kor": 797,
      "bug": 798,
      "nagab": 799,
      "liwat": 800,
      "##ro": 801,
      "en": 802,
      "kuno": 803,
      "##ational": 804,
      "##anay": 805,
      "upod": 806,
      "##alain": 807,
      "mags": 808,
      "pagkat": 809,
      "##lingon": 810,
      "prod": 811,
      "him": 812,
      "##konom": 813,
      "##ugalingon": 814,
      "ekonom": 815,
      "##iktima": 816,
      "kun": 817,
      "the": 818,
      "##ist": 819,
      "bab": 820,
      "el": 821,
      "##abo": 822,
      "##ayag": 823,
      "akt": 824,
      "##hon": 825,
      "##aho": 826,
      "kada": 827,
      "##adto": 828,
      "##ata": 829,
      "plan": 830,
      "tuman": 831,
      "##yag": 832,
      "##gamit": 833,
      "##abil": 834,
      "##gy": 835,
      "lub": 836,
      "nagligad": 837,
      "dugang": 838,
      "##atlo": 839,
      "pumuluyong": 840,
      "ed": 841,
      "hin": 842,
      "ins": 843,
      "##atuman": 844,
      "prog": 845,
      "ilo": 846,
      "##cc": 847,
      "##asan": 848,
      "kaugalingon": 849,
      "tungod": 850,
      "##istang": 851,
      "anak": 852,
      "##askog": 853,
      "##2nd": 854,
      "biktima": 855,
      "ind": 856,
      "##anda": 857,
      "##anon": 858,
      "##himo": 859,
      "##era": 860,
      "sibil": 861,
      "pak": 862,
      "##np": 863,
      "##unt": 864,
      "tig": 865,
      "lab": 866,
      "##erb": 867,
      "produk": 868,
      "pero": 869,
      "sig": 870,
      "bala": 871,
      "pnp": 872,
      "pungsodnon": 873,
      "nagad": 874,
      "pe": 875,
      "inaway": 876,
      "madamo": 877,
      "labi": 878,
      "kahim": 879,
      "gu": 880,
      "##int": 881,
      "##iba": 882,
      "nagapang": 883,
      "ika": 884,
      "sadto": 885,
      "##itika": 886,
      "pah": 887,
      "##ikong": 888,
      "##uyo": 889,
      "base": 890,
      "for": 891,
      "##ilyon": 892,
      "##itan": 893,
      "##igos": 894,
      "siste": 895,
      "aw": 896,
      "pulang": 897,
      "sak": 898,
      "62nd": 899,
      "##end": 900,
      "sulod": 901,
      "china": 902,
      "kumpanya": 903,
      "grup": 904,
      "lin": 905,
      "##port": 906,
      "##alay": 907,
      "kak": 908,
      "lok": 909,
      "##aon": 910,
      "##orma": 911,
      "brgy": 912,
      "000": 913,
      "##ason": 914,
      "##abaho": 915,
      "ay": 916,
      "##umd": 917,
      "huk": 918,
      "pol": 919,
      "##alig": 920,
      "masang": 921,
      "##upod": 922,
      "##awan": 923,
      "kabuhi": 924,
      "##uyag": 925,
      "magh": 926,
      "ara": 927,
      "malapad": 928,
      "##ahum": 929,
      "##ante": 930,
      "##ugay": 931,
      "ele": 932,
      "ilabi": 933,
      "se": 934,
      "##ue": 935,
      "##apas": 936,
      "##ust": 937,
      "kil": 938,
      "##ama": 939,
      "##isyal": 940,
      "##ingk": 941,
      "nab": 942,
      "ginas": 943,
      "##uth": 944,
      "##utang": 945,
      "##abat": 946,
      "##ikuton": 947,
      "##lay": 948,
      "suldado": 949,
      "##lon": 950,
      "##ce": 951,
      "reak": 952,
      "una": 953,
      "kapitalis": 954,
      "tatlo": 955,
      "##ako": 956,
      "##ulang": 957,
      "lain": 958,
      "##entral": 959,
      "sibilyan": 960,
      "lokal": 961,
      "lay": 962,
      "hilikuton": 963,
      "nagd": 964,
      "bur": 965,
      "ta": 966,
      "##ito": 967,
      "ti": 968,
      "pagkatapos": 969,
      "hukb": 970,
      "##tangan": 971,
      "##kw": 972,
      "##atagan": 973,
      "masobra": 974,
      "##gad": 975,
      "grupo": 976,
      "gab": 977,
      "ok": 978,
      "##alum": 979,
      "isla": 980,
      "##esto": 981,
      "##ekto": 982,
      "ginl": 983,
      "##ador": 984,
      "##ambit": 985,
      "komunidad": 986,
      "##aron": 987,
      "bata": 988,
      "dalag": 989,
      "##ite": 990,
      "201": 991,
      "untat": 992,
      "gerilya": 993,
      "##ugot": 994,
      "kus": 995,
      "##ulog": 996,
      "bu": 997,
      "pagpas": 998,
      "kamo": 999,
      "nagb": 1000,
      "pasistang": 1001,
      "magl": 1002,
      "bulan": 1003,
      "teror": 1004,
      "##tar": 1005,
      "kons": 1006,
      "katapo": 1007,
      "pih": 1008,
      "##iv": 1009,
      "jr": 1010,
      "##uhan": 1011,
      "gih": 1012,
      "presyo": 1013,
      "sol": 1014,
      "kaupod": 1015,
      "##esta": 1016,
      "tawhan": 1017,
      "##entro": 1018,
      "progr": 1019,
      "sek": 1020,
      "##ton": 1021,
      "##umand": 1022,
      "lubos": 1023,
      "idalom": 1024,
      "##ult": 1025,
      "##ays": 1026,
      "bayan": 1027,
      "##orm": 1028,
      "prob": 1029,
      "##unan": 1030,
      "##ekt": 1031,
      "##weldo": 1032,
      "nad": 1033,
      "##pan": 1034,
      "mangin": 1035,
      "pihak": 1036,
      "##yang": 1037,
      "ng": 1038,
      "nam": 1039,
      "lib": 1040,
      "##abilin": 1041,
      "national": 1042,
      "magt": 1043,
      "magb": 1044,
      "gubyerno": 1045,
      "pasista": 1046,
      "##alik": 1047,
      "##ake": 1048,
      "pulis": 1049,
      "kris": 1050,
      "tawo": 1051,
      "##omba": 1052,
      "gihapon": 1053,
      "ug": 1054,
      "##awagan": 1055,
      "gamit": 1056,
      "philippines": 1057,
      "co": 1058,
      "##orta": 1059,
      "lawas": 1060,
      "sweldo": 1061,
      "##art": 1062,
      "##ilway": 1063,
      "##ento": 1064,
      "ber": 1065,
      "##otesta": 1066,
      "interes": 1067,
      "##umhan": 1068,
      "##uro": 1069,
      "siling": 1070,
      "##danan": 1071,
      "ah": 1072,
      "lak": 1073,
      "maayo": 1074,
      "yara": 1075,
      "##dan": 1076,
      "nagkalain": 1077,
      "dumulu": 1078,
      "##atu": 1079,
      "eng": 1080,
      "and": 1081,
      "krisis": 1082,
      "occ": 1083,
      "dep": 1084,
      "kahimtangan": 1085,
      "##abe": 1086,
      "demokratiko": 1087,
      "ginab": 1088,
      "des": 1089,
      "##wag": 1090,
      "paga": 1091,
      "##wal": 1092,
      "intern": 1093,
      "##ey": 1094,
      "dumuluong": 1095,
      "##ch": 1096,
      "##iran": 1097,
      "##uli": 1098,
      "gil": 1099,
      "makab": 1100,
      "##angabuhian": 1101,
      "did": 1102,
      "##ula": 1103,
      "kina": 1104,
      "te": 1105,
      "##nagon": 1106,
      "##ulo": 1107,
      "##idental": 1108,
      "##igo": 1109,
      "##war": 1110,
      "residente": 1111,
      "occidental": 1112,
      "sos": 1113,
      "command": 1114,
      "dr": 1115,
      "##ct": 1116,
      "##ihi": 1117,
      "##uwas": 1118,
      "taga": 1119,
      "sug": 1120,
      "##ida": 1121,
      "magk": 1122,
      "makat": 1123,
      "nasambit": 1124,
      "sobra": 1125,
      "armas": 1126,
      "##alam": 1127,
      "ginad": 1128,
      "sabat": 1129,
      "demokratikong": 1130,
      "rehimeng": 1131,
      "didto": 1132,
      "army": 1133,
      "##ensiba": 1134,
      "##imb": 1135,
      "proy": 1136,
      "so": 1137,
      "sistema": 1138,
      "krim": 1139,
      "buk": 1140,
      "##akita": 1141,
      "kusog": 1142,
      "makap": 1143,
      "hun": 1144,
      "##ri": 1145,
      "##adayon": 1146,
      "##kl": 1147,
      "halos": 1148,
      "##ons": 1149,
      "baryo": 1150,
      "gy": 1151,
      "le": 1152,
      "##min": 1153,
      "##aka": 1154,
      "##uson": 1155,
      "mayo": 1156,
      "##syun": 1157,
      "pangp": 1158,
      "kabahin": 1159,
      "atake": 1160,
      "dul": 1161,
      "##eral": 1162,
      "komite": 1163,
      "tawhanon": 1164,
      "armado": 1165,
      "kami": 1166,
      "anay": 1167,
      "lapnagon": 1168,
      "2023": 1169,
      "peop": 1170,
      "lakip": 1171,
      "pap": 1172,
      "##isya": 1173,
      "##ena": 1174,
      "aktib": 1175,
      "##ami": 1176,
      "car": 1177,
      "kol": 1178,
      "##hag": 1179,
      "##hiyon": 1180,
      "gilayon": 1181,
      "fr": 1182,
      "lima": 1183,
      "ong": 1184,
      "napatay": 1185,
      "aresto": 1186,
      "nal": 1187,
      "gahum": 1188,
      "hul": 1189,
      "##aya": 1190,
      "30": 1191,
      "me": 1192,
      "agr": 1193,
      "##yudad": 1194,
      "##yunal": 1195,
      "babay": 1196,
      "##ind": 1197,
      "##awo": 1198,
      "asawa": 1199,
      "panga": 1200,
      "##na": 1201,
      "##ahal": 1202,
      "opensiba": 1203,
      "##ondo": 1204,
      "kundi": 1205,
      "##aagi": 1206,
      "##ugan": 1207,
      "##ial": 1208,
      "##akop": 1209,
      "ina": 1210,
      "##ban": 1211,
      "##asa": 1212,
      "ekonomya": 1213,
      "reaksyun": 1214,
      "gyera": 1215,
      "15": 1216,
      "bagong": 1217,
      "kapitalista": 1218,
      "ngaa": 1219,
      "##akal": 1220,
      "##usan": 1221,
      "##ast": 1222,
      "##andum": 1223,
      "##umb": 1224,
      "marso": 1225,
      "##igal": 1226,
      "##intas": 1227,
      "ginpatay": 1228,
      "##ider": 1229,
      "new": 1230,
      "mataas": 1231,
      "suno": 1232,
      "amon": 1233,
      "del": 1234,
      "##ulos": 1235,
      "10": 1236,
      "porma": 1237,
      "kung": 1238,
      "bilyon": 1239,
      "away": 1240,
      "takt": 1241,
      "pamaagi": 1242,
      "kalibutan": 1243,
      "syudad": 1244,
      "##anag": 1245,
      "##alana": 1246,
      "pagpatay": 1247,
      "iloy": 1248,
      "people": 1249,
      "sahi": 1250,
      "##kwentro": 1251,
      "nd": 1252,
      "abr": 1253,
      "pagbato": 1254,
      "it": 1255,
      "##atian": 1256,
      "eks": 1257,
      "er": 1258,
      "##ikan": 1259,
      "##abot": 1260,
      "##pc": 1261,
      "sem": 1262,
      "##arangan": 1263,
      "trabaho": 1264,
      "leb": 1265,
      "##ine": 1266,
      "##uta": 1267,
      "##bato": 1268,
      "proble": 1269,
      "proyekto": 1270,
      "##din": 1271,
      "plano": 1272,
      "per": 1273,
      "##tub": 1274,
      "madugay": 1275,
      "##ender": 1276,
      "central": 1277,
      "##ie": 1278,
      "pagtuon": 1279,
      "ub": 1280,
      "##gar": 1281,
      "##asig": 1282,
      "##ukan": 1283,
      "mart": 1284,
      "##unggan": 1285,
      "rehiyon": 1286,
      "problema": 1287,
      "sur": 1288,
      "milyon": 1289,
      "##ulitika": 1290,
      "2022": 1291,
      "programa": 1292,
      "##ilo": 1293,
      "##yado": 1294,
      "protesta": 1295,
      "##ilwayan": 1296,
      "engkwentro": 1297,
      "to": 1298,
      "nakap": 1299,
      "kahilwayan": 1300,
      "kong": 1301,
      "ob": 1302,
      "kaumhan": 1303,
      "berdug": 1304,
      "##gas": 1305,
      "rep": 1306,
      "south": 1307,
      "mahimo": 1308,
      "lebel": 1309,
      "la": 1310,
      "lik": 1311,
      "##alang": 1312,
      "##adlok": 1313,
      "##iz": 1314,
      "paghulag": 1315,
      "layi": 1316,
      "paglapas": 1317,
      "##ino": 1318,
      "##aba": 1319,
      "pand": 1320,
      "##orya": 1321,
      "##las": 1322,
      "##alibutan": 1323,
      "##awag": 1324,
      "##ibot": 1325,
      "husto": 1326,
      "##ags": 1327,
      "produksyon": 1328,
      "##ingki": 1329,
      "##zon": 1330,
      "##alagan": 1331,
      "##usa": 1332,
      "padulong": 1333,
      "kampanya": 1334,
      "hambal": 1335,
      "kadalag": 1336,
      "##ungk": 1337,
      "alas": 1338,
      "upisyal": 1339,
      "ulihi": 1340,
      "##ipon": 1341,
      "makita": 1342,
      "##oh": 1343,
      "##pe": 1344,
      "##alup": 1345,
      "dala": 1346,
      "##aton": 1347,
      "##ular": 1348,
      "lider": 1349,
      "pos": 1350,
      "##uslan": 1351,
      "##ustisya": 1352,
      "buh": 1353,
      "##go": 1354,
      "paano": 1355,
      "nakita": 1356,
      "##ibalo": 1357,
      "kadungan": 1358,
      "elek": 1359,
      "hukbong": 1360,
      "##ustr": 1361,
      "##igh": 1362,
      "##ice": 1363,
      "dalan": 1364,
      "##ikang": 1365,
      "madam": 1366,
      "pagtukod": 1367,
      "elc": 1368,
      "##amay": 1369,
      "elcac": 1370,
      "karon": 1371,
      "don": 1372,
      "##4th": 1373,
      "##agwa": 1374,
      "##ngan": 1375,
      "##asar": 1376,
      "kaw": 1377,
      "##isasyon": 1378,
      "12": 1379,
      "##uhay": 1380,
      "##ces": 1381,
      "##ulat": 1382,
      "pagpamigos": 1383,
      "hustisya": 1384,
      "##de": 1385,
      "##per": 1386,
      "pamat": 1387,
      "ut": 1388,
      "reg": 1389,
      "##uya": 1390,
      "##va": 1391,
      "##apan": 1392,
      "isulong": 1393,
      "babaye": 1394,
      "sar": 1395,
      "##alo": 1396,
      "##ilala": 1397,
      "ikaw": 1398,
      "antes": 1399,
      "nagapanguna": 1400,
      "pinakam": 1401,
      "##ont": 1402,
      "matapos": 1403,
      "pondo": 1404,
      "kamot": 1405,
      "##tf": 1406,
      "philippine": 1407,
      "₱1": 1408,
      "ih": 1409,
      "disyembre": 1410,
      "##ubong": 1411,
      "tubig": 1412,
      "ben": 1413,
      "##ihan": 1414,
      "##yat": 1415,
      "pagm": 1416,
      "##abaw": 1417,
      "pagpa": 1418,
      "##ebr": 1419,
      "luyag": 1420,
      "pamatan": 1421,
      "pagkaon": 1422,
      "enero": 1423,
      "terorismo": 1424,
      "tap": 1425,
      "##lar": 1426,
      "##inguha": 1427,
      "hunyo": 1428,
      "##nubo": 1429,
      "##iwan": 1430,
      "##gu": 1431,
      "##tel": 1432,
      "pro": 1433,
      "##insya": 1434,
      "abril": 1435,
      "dem": 1436,
      "##yudal": 1437,
      "imb": 1438,
      "agalon": 1439,
      "kur": 1440,
      "##ipl": 1441,
      "##uhon": 1442,
      "pagpamuno": 1443,
      "guih": 1444,
      "gusto": 1445,
      "ts": 1446,
      "##ber": 1447,
      "maka": 1448,
      "agos": 1449,
      "##mat": 1450,
      "makah": 1451,
      "##oran": 1452,
      "naka": 1453,
      "##emya": 1454,
      "komunista": 1455,
      "sanday": 1456,
      "##awig": 1457,
      "##erbisyo": 1458,
      "pilit": 1459,
      "##angkot": 1460,
      "ntf": 1461,
      "##ulngan": 1462,
      "ginpa": 1463,
      "pagpakig": 1464,
      "##urender": 1465,
      "apat": 1466,
      "imperyalistang": 1467,
      "agosto": 1468,
      "##ulok": 1469,
      "gera": 1470,
      "dayon": 1471,
      "##por": 1472,
      "##gaw": 1473,
      "##yante": 1474,
      "amay": 1475,
      "semana": 1476,
      "pagpanga": 1477,
      "dek": 1478,
      "idalum": 1479,
      "hugot": 1480,
      "inyo": 1481,
      "##agay": 1482,
      "import": 1483,
      "paglunsar": 1484,
      "korap": 1485,
      "ginhimo": 1486,
      "makas": 1487,
      "agod": 1488,
      "batok": 1489,
      "pil": 1490,
      "##ño": 1491,
      "##ilidad": 1492,
      "##uron": 1493,
      "guihulngan": 1494,
      "##aysayan": 1495,
      "krimen": 1496,
      "kan": 1497,
      "##asya": 1498,
      "##yos": 1499,
      "amb": 1500,
      "##balik": 1501,
      "##may": 1502,
      "magd": 1503,
      "tikang": 1504,
      "##ulig": 1505,
      "##tra": 1506,
      "dikt": 1507,
      "ep": 1508,
      "sil": 1509,
      "##ha": 1510,
      "##ibers": 1511,
      "##ambalan": 1512,
      "##asarang": 1513,
      "94th": 1514,
      "gob": 1515,
      "handum": 1516,
      "lalak": 1517,
      "prop": 1518,
      "##orte": 1519,
      "kinahanglanon": 1520,
      "##indog": 1521,
      "nob": 1522,
      "##athag": 1523,
      "ginlunsar": 1524,
      "##iental": 1525,
      "##anawagan": 1526,
      "##ulta": 1527,
      "##utal": 1528,
      "manug": 1529,
      "manila": 1530,
      "mismo": 1531,
      "tab": 1532,
      "masami": 1533,
      "oriental": 1534,
      "pagsulong": 1535,
      "2021": 1536,
      "suporta": 1537,
      "##ataan": 1538,
      "##ayong": 1539,
      "ginaga": 1540,
      "pandemya": 1541,
      "nagapam": 1542,
      "pagka": 1543,
      "pwers": 1544,
      "mind": 1545,
      "kalin": 1546,
      "##ges": 1547,
      "##lain": 1548,
      "##ektibo": 1549,
      "sh": 1550,
      "##inal": 1551,
      "##udlay": 1552,
      "##udl": 1553,
      "katung": 1554,
      "kampo": 1555,
      "utang": 1556,
      "sakop": 1557,
      "sektor": 1558,
      "masunod": 1559,
      "##ubliko": 1560,
      "gamay": 1561,
      "isip": 1562,
      "##tro": 1563,
      "kadre": 1564,
      "anti": 1565,
      "antus": 1566,
      "ca": 1567,
      "da": 1568,
      "kub": 1569,
      "##lat": 1570,
      "##aylo": 1571,
      "##akit": 1572,
      "ektar": 1573,
      "kumand": 1574,
      "natabo": 1575,
      "##eg": 1576,
      "##aligan": 1577,
      "##ultura": 1578,
      "rason": 1579,
      "prins": 1580,
      "katuy": 1581,
      "katungdanan": 1582,
      "ala": 1583,
      "mil": 1584,
      "##asyunal": 1585,
      "##illa": 1586,
      "##udlo": 1587,
      "kabab": 1588,
      "pakadto": 1589,
      "kinaiya": 1590,
      "gobyerno": 1591,
      "katuyuan": 1592,
      "day": 1593,
      "pis": 1594,
      "pebr": 1595,
      "sim": 1596,
      "##utom": 1597,
      "pagpab": 1598,
      "mais": 1599,
      "kabataan": 1600,
      "##alisa": 1601,
      "pebrero": 1602,
      "hatagan": 1603,
      "tal": 1604,
      "##get": 1605,
      "kaang": 1606,
      "##ukr": 1607,
      "agaw": 1608,
      "forces": 1609,
      "kababain": 1610,
      "serbisyo": 1611,
      "##aslaw": 1612,
      "magnubo": 1613,
      "palangabuhian": 1614,
      "##iliusa": 1615,
      "sige": 1616,
      "burukr": 1617,
      "dekada": 1618,
      "prinsip": 1619,
      "bak": 1620,
      "##pon": 1621,
      "manubo": 1622,
      "mata": 1623,
      "polis": 1624,
      "ikasarang": 1625,
      "eleksyon": 1626,
      "con": 1627,
      "##anao": 1628,
      "brutal": 1629,
      "cor": 1630,
      "dako": 1631,
      "tar": 1632,
      "gas": 1633,
      "kaangay": 1634,
      "##himulos": 1635,
      "negos": 1636,
      "##alapad": 1637,
      "ikaayong": 1638,
      "taktikal": 1639,
      "lalaki": 1640,
      "wa": 1641,
      "ya": 1642,
      "##has": 1643,
      "tuyo": 1644,
      "dalagko": 1645,
      "kwar": 1646,
      "pk": 1647,
      "##taas": 1648,
      "iligal": 1649,
      "polisiya": 1650,
      "hay": 1651,
      "kand": 1652,
      "##gal": 1653,
      "##gayon": 1654,
      "##able": 1655,
      "sining": 1656,
      "armed": 1657,
      "amer": 1658,
      "ndfp": 1659,
      "dag": 1660,
      "mon": 1661,
      "##sol": 1662,
      "mario": 1663,
      "kababainhan": 1664,
      "##inalag": 1665,
      "##uba": 1666,
      "pagpatuman": 1667,
      "##agat": 1668,
      "##termin": 1669,
      "bukid": 1670,
      "pek": 1671,
      "ting": 1672,
      "tumand": 1673,
      "##untad": 1674,
      "##uo": 1675,
      "##ardo": 1676,
      "naglab": 1677,
      "198": 1678,
      "mala": 1679,
      "tun": 1680,
      "himuon": 1681,
      "##umdom": 1682,
      "buot": 1683,
      "##nan": 1684,
      "##akat": 1685,
      "determin": 1686,
      "##ilingban": 1687,
      "nagkalainlain": 1688,
      "##tanan": 1689,
      "##aty": 1690,
      "ginpang": 1691,
      "2020": 1692,
      "##alitan": 1693,
      "##aduha": 1694,
      "##ahug": 1695,
      "niño": 1696,
      "##irm": 1697,
      "industr": 1698,
      "basehan": 1699,
      "tumandok": 1700,
      "kabuk": 1701,
      "##atigayon": 1702,
      "kasaysayan": 1703,
      "bangod": 1704,
      "##uyagyag": 1705,
      "peke": 1706,
      "11": 1707,
      "tan": 1708,
      "nagahari": 1709,
      "##ugod": 1710,
      "kabil": 1711,
      "liber": 1712,
      "sep": 1713,
      "tum": 1714,
      "##si": 1715,
      "abi": 1716,
      "##edad": 1717,
      "namon": 1718,
      "##ola": 1719,
      "dalagk": 1720,
      "hulyo": 1721,
      "korapsyon": 1722,
      "kabukiran": 1723,
      "bes": 1724,
      "sum": 1725,
      "##ene": 1726,
      "pagpat": 1727,
      "mabaskog": 1728,
      "##askugon": 1729,
      "pahayag": 1730,
      "ginagamit": 1731,
      "##ci": 1732,
      "kamatu": 1733,
      "commun": 1734,
      "labing": 1735,
      "##mple": 1736,
      "imperyalista": 1737,
      "oktub": 1738,
      "oktubre": 1739,
      "gar": 1740,
      "uga": 1741,
      "##ors": 1742,
      "padre": 1743,
      "##ublag": 1744,
      "ektarya": 1745,
      "bagay": 1746,
      "cp": 1747,
      "##indug": 1748,
      "manggad": 1749,
      "pagpamatay": 1750,
      "pabaskugon": 1751,
      "kamatuoran": 1752,
      "cal": 1753,
      "lor": 1754,
      "##bay": 1755,
      "##init": 1756,
      "pagbag": 1757,
      "hukbo": 1758,
      "14": 1759,
      "lu": 1760,
      "##ahog": 1761,
      "pagpamomba": 1762,
      "pinakad": 1763,
      "ayhan": 1764,
      "gikan": 1765,
      "uma": 1766,
      "##ian": 1767,
      "panay": 1768,
      "##ambong": 1769,
      "malapit": 1770,
      "##indugan": 1771,
      "##wan": 1772,
      "##akan": 1773,
      "magap": 1774,
      "##bilin": 1775,
      "##ormasyon": 1776,
      "pangpulitika": 1777,
      "##ahalon": 1778,
      "japan": 1779,
      "dugo": 1780,
      "madamu": 1781,
      "waay": 1782,
      "put": 1783,
      "##trat": 1784,
      "ginpas": 1785,
      "pamp": 1786,
      "aksyon": 1787,
      "larangan": 1788,
      "##git": 1789,
      "anibers": 1790,
      "abot": 1791,
      "tagsa": 1792,
      "##ela": 1793,
      "##angkon": 1794,
      "##alismo": 1795,
      "bana": 1796,
      "ulo": 1797,
      "##unuan": 1798,
      "##urs": 1799,
      "datu": 1800,
      "nakat": 1801,
      "madasig": 1802,
      "bo": 1803,
      "ii": 1804,
      "##ase": 1805,
      "prub": 1806,
      "anibersaryo": 1807,
      "dam": 1808,
      "ra": 1809,
      "##bar": 1810,
      "##atayon": 1811,
      "ig": 1812,
      "abyan": 1813,
      "nahibal": 1814,
      "sandig": 1815,
      "jo": 1816,
      "ser": 1817,
      "##olon": 1818,
      "pulitika": 1819,
      "ipit": 1820,
      "sandigan": 1821,
      "nobyembre": 1822,
      "kubay": 1823,
      "tay": 1824,
      "##alit": 1825,
      "anyos": 1826,
      "isra": 1827,
      "kahadlok": 1828,
      "amat": 1829,
      "seg": 1830,
      "aktibista": 1831,
      "daan": 1832,
      "ex": 1833,
      "##rd": 1834,
      "##angon": 1835,
      "##uporta": 1836,
      "prubinsya": 1837,
      "israel": 1838,
      "puno": 1839,
      "ulan": 1840,
      "pagkab": 1841,
      "iloilo": 1842,
      "##duta": 1843,
      "mayduta": 1844,
      "kadam": 1845,
      "ginahimo": 1846,
      "pangkalibutan": 1847,
      "##adlong": 1848,
      "ining": 1849,
      "unyon": 1850,
      "esp": 1851,
      "katapu": 1852,
      "##ras": 1853,
      "ngalan": 1854,
      "pagpah": 1855,
      "##ye": 1856,
      "##ugma": 1857,
      "demokrasya": 1858,
      "##undan": 1859,
      "internasyunal": 1860,
      "kongres": 1861,
      "pangkalibutanon": 1862,
      "no": 1863,
      "nang": 1864,
      "sentral": 1865,
      "##yente": 1866,
      "mayor": 1867,
      "burges": 1868,
      "berdugo": 1869,
      "##akaran": 1870,
      "##trabaho": 1871,
      "basi": 1872,
      "reaksyunaryong": 1873,
      "erya": 1874,
      "mindanao": 1875,
      "burukrata": 1876,
      "bad": 1877,
      "pulu": 1878,
      "##cr": 1879,
      "##vid": 1880,
      "pagg": 1881,
      "##isip": 1882,
      "##ugas": 1883,
      "200": 1884,
      "front": 1885,
      "og": 1886,
      "##rador": 1887,
      "##tag": 1888,
      "pagkap": 1889,
      "magas": 1890,
      "pangabuhian": 1891,
      "##bahan": 1892,
      "mao": 1893,
      "ginapas": 1894,
      "produkto": 1895,
      "agrik": 1896,
      "suh": 1897,
      "##qu": 1898,
      "##ate": 1899,
      "##enar": 1900,
      "##uran": 1901,
      "patakaran": 1902,
      "##gamitan": 1903,
      "##ambalanon": 1904,
      "ayud": 1905,
      "lpc": 1906,
      "##st": 1907,
      "##udyante": 1908,
      "##truk": 1909,
      "nakab": 1910,
      "eduk": 1911,
      "16": 1912,
      "num": 1913,
      "ud": 1914,
      "sab": 1915,
      "kagamitan": 1916,
      "##uhaw": 1917,
      "malahalon": 1918,
      "panawagan": 1919,
      "ide": 1920,
      "pkp": 1921,
      "##ago": 1922,
      "25": 1923,
      "pun": 1924,
      "##gi": 1925,
      "##co": 1926,
      "##aring": 1927,
      "ginal": 1928,
      "##anday": 1929,
      "direk": 1930,
      "estudyante": 1931,
      "depart": 1932,
      "martir": 1933,
      "baseng": 1934,
      "atr": 1935,
      "##hay": 1936,
      "##itikal": 1937,
      "kasug": 1938,
      "18": 1939,
      "##yu": 1940,
      "##yet": 1941,
      "insur": 1942,
      "edukasyon": 1943,
      "lum": 1944,
      "prente": 1945,
      "sept": 1946,
      "loc": 1947,
      "pod": 1948,
      "tuga": 1949,
      "##adlaw": 1950,
      "##ose": 1951,
      "batuan": 1952,
      "operation": 1953,
      "ekonomiya": 1954,
      "kawad": 1955,
      "numero": 1956,
      "poder": 1957,
      "can": 1958,
      "##log": 1959,
      "##ca": 1960,
      "pangm": 1961,
      "kabang": 1962,
      "##igayon": 1963,
      "##igasyon": 1964,
      "kamatayon": 1965,
      "17": 1966,
      "patay": 1967,
      "que": 1968,
      "##inar": 1969,
      "esk": 1970,
      "oras": 1971,
      "grabe": 1972,
      "korte": 1973,
      "ayuda": 1974,
      "septyembre": 1975,
      "hublag": 1976,
      "med": 1977,
      "pus": 1978,
      "tatay": 1979,
      "##itabo": 1980,
      "##iksyon": 1981,
      "##utos": 1982,
      "##ugmat": 1983,
      "##ome": 1984,
      "analisa": 1985,
      "##ansya": 1986,
      "simbahan": 1987,
      "##aslawan": 1988,
      "hapon": 1989,
      "##wat": 1990,
      "##ilanon": 1991,
      "naw": 1992,
      "madinalag": 1993,
      "##ement": 1994,
      "pulong": 1995,
      "##asyong": 1996,
      "human": 1997,
      "katapusan": 1998,
      "tigulang": 1999,
      "desisyon": 2000,
      "reaksyunaryo": 2001,
      "13": 2002,
      "sen": 2003,
      "##ulangan": 2004,
      "malip": 2005,
      "pagpanghimulos": 2006,
      "komp": 2007,
      "##agihan": 2008,
      "##pinan": 2009,
      "nagaka": 2010,
      "reporma": 2011,
      "nar": 2012,
      "##land": 2013,
      "##fic": 2014,
      "##alad": 2015,
      "##unon": 2016,
      "uswag": 2017,
      "iduso": 2018,
      "quezon": 2019,
      "gat": 2020,
      "tuk": 2021,
      "##yur": 2022,
      "kaga": 2023,
      "inagihan": 2024,
      "##ibong": 2025,
      "militarisasyon": 2026,
      "nakas": 2027,
      "partik": 2028,
      "ikaduha": 2029,
      "cr": 2030,
      "mod": 2031,
      "##uel": 2032,
      "##isay": 2033,
      "##reto": 2034,
      "##asaka": 2035,
      "##ight": 2036,
      "##udlayan": 2037,
      "##yagan": 2038,
      "##isda": 2039,
      "##oloh": 2040,
      "##ukaw": 2041,
      "baylo": 2042,
      "diktad": 2043,
      "cpp": 2044,
      "##iban": 2045,
      "##upok": 2046,
      "##amaylan": 2047,
      "partikular": 2048,
      "##odo": 2049,
      "mapintas": 2050,
      "himamaylan": 2051,
      "leon": 2052,
      "kongreso": 2053,
      "puluy": 2054,
      "bomba": 2055,
      "dal": 2056,
      "hen": 2057,
      "war": 2058,
      "pagpangh": 2059,
      "salak": 2060,
      "edad": 2061,
      "21": 2062,
      "nan": 2063,
      "ro": 2064,
      "uk": 2065,
      "angkon": 2066,
      "##igya": 2067,
      "##ibang": 2068,
      "makig": 2069,
      "kahalitan": 2070,
      "kasubong": 2071,
      "paghiliusa": 2072,
      "target": 2073,
      "beses": 2074,
      "nort": 2075,
      "₱2": 2076,
      "rekl": 2077,
      "ginpal": 2078,
      "tingog": 2079,
      "ato": 2080,
      "gali": 2081,
      "##bon": 2082,
      "##wit": 2083,
      "##inan": 2084,
      "##ahayag": 2085,
      "##ibid": 2086,
      "laye": 2087,
      "covid": 2088,
      "prinsipyo": 2089,
      "##trateh": 2090,
      "department": 2091,
      "juan": 2092,
      "##ital": 2093,
      "##uto": 2094,
      "palest": 2095,
      "##umdum": 2096,
      "reaksyon": 2097,
      "utod": 2098,
      "badyet": 2099,
      "26": 2100,
      "du": 2101,
      "dili": 2102,
      "##hing": 2103,
      "##imuslan": 2104,
      "##utigan": 2105,
      "ginpab": 2106,
      "nakal": 2107,
      "kulang": 2108,
      "pito": 2109,
      "##awhan": 2110,
      "##ungko": 2111,
      "linibo": 2112,
      "kumander": 2113,
      "sunod": 2114,
      "##ec": 2115,
      "##tit": 2116,
      "##za": 2117,
      "##ukot": 2118,
      "##oper": 2119,
      "kasyud": 2120,
      "pagpangl": 2121,
      "pataas": 2122,
      "ahensya": 2123,
      "norte": 2124,
      "pakig": 2125,
      "##san": 2126,
      "##tik": 2127,
      "##tok": 2128,
      "indibid": 2129,
      "kasyudaran": 2130,
      "luwas": 2131,
      "ump": 2132,
      "##uoy": 2133,
      "##bit": 2134,
      "##eso": 2135,
      "prib": 2136,
      "kabutigan": 2137,
      "trans": 2138,
      "force": 2139,
      "eskwel": 2140,
      "00": 2141,
      "mahin": 2142,
      "##ign": 2143,
      "##imp": 2144,
      "##ipisyo": 2145,
      "pamangkot": 2146,
      "estrateh": 2147,
      "party": 2148,
      "sugod": 2149,
      "dalagku": 2150,
      "##olohiya": 2151,
      "bunga": 2152,
      "nanay": 2153,
      "##vel": 2154,
      "nahan": 2155,
      "##aha": 2156,
      "##ork": 2157,
      "##ikano": 2158,
      "nagapabilin": 2159,
      "mapang": 2160,
      "pabor": 2161,
      "aktibo": 2162,
      "##umduman": 2163,
      "##ive": 2164,
      "segur": 2165,
      "diktadur": 2166,
      "eskwelahan": 2167,
      "##los": 2168,
      "paggamit": 2169,
      "report": 2170,
      "##upad": 2171,
      "maathag": 2172,
      "malala": 2173,
      "##unting": 2174,
      "amerikano": 2175,
      "##mong": 2176,
      "sap": 2177,
      "kahoy": 2178,
      "##resulta": 2179,
      "plant": 2180,
      "north": 2181,
      "50": 2182,
      "himo": 2183,
      "pirm": 2184,
      "##mento": 2185,
      "##oso": 2186,
      "##ible": 2187,
      "##ipay": 2188,
      "##ural": 2189,
      "pasismo": 2190,
      "maglunsar": 2191,
      "col": 2192,
      "hum": 2193,
      "ir": 2194,
      "mer": 2195,
      "##abu": 2196,
      "rey": 2197,
      "##ede": 2198,
      "nagaharing": 2199,
      "##alapit": 2200,
      "##peto": 2201,
      "bac": 2202,
      "##iso": 2203,
      "##enda": 2204,
      "##oro": 2205,
      "##iro": 2206,
      "international": 2207,
      "qu": 2208,
      "rj": 2209,
      "##her": 2210,
      "##inga": 2211,
      "##ober": 2212,
      "##eklar": 2213,
      "##alista": 2214,
      "unit": 2215,
      "pinaka": 2216,
      "tao": 2217,
      "##agsik": 2218,
      "insurh": 2219,
      "rjpc": 2220,
      "##eklarar": 2221,
      "butang": 2222,
      "pati": 2223,
      "uyat": 2224,
      "vic": 2225,
      "##sada": 2226,
      "##yedad": 2227,
      "##awi": 2228,
      "##igay": 2229,
      "program": 2230,
      "atras": 2231,
      "nanday": 2232,
      "##ev": 2233,
      "nagm": 2234,
      "##olib": 2235,
      "##olet": 2236,
      "neolib": 2237,
      "balik": 2238,
      "imbest": 2239,
      "buhi": 2240,
      "##ez": 2241,
      "##itor": 2242,
      "##lac": 2243,
      "makal": 2244,
      "military": 2245,
      "terorista": 2246,
      "aktibidad": 2247,
      "##atyagon": 2248,
      "##ursig": 2249,
      "agrikultura": 2250,
      "bugas": 2251,
      "ga": 2252,
      "##anyang": 2253,
      "nabat": 2254,
      "##ess": 2255,
      "paghatag": 2256,
      "##anaog": 2257,
      "mabuhay": 2258,
      "##yembro": 2259,
      "kabangdanan": 2260,
      "pataason": 2261,
      "but": 2262,
      "dy": 2263,
      "hambalanon": 2264,
      "##ly": 2265,
      "##ikanan": 2266,
      "soldado": 2267,
      "kriminal": 2268,
      "pangapinan": 2269,
      "pet": 2270,
      "##wn": 2271,
      "##tern": 2272,
      "palap": 2273,
      "malaparan": 2274,
      "ginsug": 2275,
      "elemento": 2276,
      "region": 2277,
      "bis": 2278,
      "kund": 2279,
      "men": 2280,
      "pigos": 2281,
      "sg": 2282,
      "##ard": 2283,
      "##ayaw": 2284,
      "kaakig": 2285,
      "##ill": 2286,
      "##ises": 2287,
      "##atic": 2288,
      "balatyagon": 2289,
      "sultan": 2290,
      "presidente": 2291,
      "burgesya": 2292,
      "22": 2293,
      "tyo": 2294,
      "##der": 2295,
      "##wasyon": 2296,
      "##one": 2297,
      "red": 2298,
      "##alisk": 2299,
      "papel": 2300,
      "benep": 2301,
      "kabilugan": 2302,
      "salakyan": 2303,
      "ale": 2304,
      "##aras": 2305,
      "magbato": 2306,
      "ginpam": 2307,
      "##igayun": 2308,
      "##uyang": 2309,
      "baba": 2310,
      "sosyal": 2311,
      "ba": 2312,
      "todo": 2313,
      "##lit": 2314,
      "##taw": 2315,
      "kaay": 2316,
      "##ortyur": 2317,
      "kontrad": 2318,
      "dughan": 2319,
      "##torya": 2320,
      "organisa": 2321,
      "police": 2322,
      "desper": 2323,
      "likod": 2324,
      "kwarta": 2325,
      "dom": 2326,
      "ginikanan": 2327,
      "##ando": 2328,
      "palibot": 2329,
      "##balhas": 2330,
      "imol": 2331,
      "anakbalhas": 2332,
      "kalinong": 2333,
      "alagad": 2334,
      "ha": 2335,
      "len": 2336,
      "pers": 2337,
      "##don": 2338,
      "##agyan": 2339,
      "##iss": 2340,
      "##ahi": 2341,
      "marx": 2342,
      "asia": 2343,
      "##unsay": 2344,
      "##arian": 2345,
      "indibidwal": 2346,
      "neoliberal": 2347,
      "panan": 2348,
      "##9th": 2349,
      "##agunting": 2350,
      "##atubang": 2351,
      "##ulan": 2352,
      "##hanas": 2353,
      "def": 2354,
      "##antus": 2355,
      "kolektibo": 2356,
      "cas": 2357,
      "dok": 2358,
      "dali": 2359,
      "val": 2360,
      "##ka": 2361,
      "##akam": 2362,
      "manging": 2363,
      "nagapan": 2364,
      "pwede": 2365,
      "patag": 2366,
      "presensya": 2367,
      "##alupang": 2368,
      "gen": 2369,
      "##angpan": 2370,
      "##ulot": 2371,
      "kontrol": 2372,
      "salagunting": 2373,
      "pagmina": 2374,
      "direkta": 2375,
      "kontradiksyon": 2376,
      "cam": 2377,
      "cap": 2378,
      "go": 2379,
      "lo": 2380,
      "##tura": 2381,
      "pagtrabaho": 2382,
      "##yaw": 2383,
      "##idalom": 2384,
      "##ugal": 2385,
      "##reh": 2386,
      "ginapab": 2387,
      "2024": 2388,
      "##alakay": 2389,
      "kilala": 2390,
      "pwersang": 2391,
      "dagat": 2392,
      "tiran": 2393,
      "##aham": 2394,
      "pagpamat": 2395,
      "ginapa": 2396,
      "##amatud": 2397,
      "berdugong": 2398,
      "pirme": 2399,
      "24": 2400,
      "din": 2401,
      "yo": 2402,
      "##ve": 2403,
      "##uswag": 2404,
      "mand": 2405,
      "kahuy": 2406,
      "gamiton": 2407,
      "##cs": 2408,
      "gingamit": 2409,
      "##abig": 2410,
      "##ingan": 2411,
      "masak": 2412,
      "umpisa": 2413,
      "insurhensya": 2414,
      "kaayuhan": 2415,
      "mangingisda": 2416,
      "100": 2417,
      "huo": 2418,
      "ros": 2419,
      "##mang": 2420,
      "prolet": 2421,
      "##alisasyon": 2422,
      "opisyal": 2423,
      "mapa": 2424,
      "sitwasyon": 2425,
      "gabri": 2426,
      "29": 2427,
      "be": 2428,
      "cons": 2429,
      "lunsay": 2430,
      "##muyo": 2431,
      "##rika": 2432,
      "##kreto": 2433,
      "##ayp": 2434,
      "##umod": 2435,
      "intel": 2436,
      "##awat": 2437,
      "pros": 2438,
      "dira": 2439,
      "hinali": 2440,
      "##erbi": 2441,
      "##aligya": 2442,
      "sugilanon": 2443,
      "makatarung": 2444,
      "##ulon": 2445,
      "##usw": 2446,
      "##ibabaw": 2447,
      "rek": 2448,
      "sina": 2449,
      "minilyon": 2450,
      "197": 2451,
      "##resibo": 2452,
      "pabrika": 2453,
      "##awigon": 2454,
      "caf": 2455,
      "##titusyon": 2456,
      "gutom": 2457,
      "##tay": 2458,
      "sala": 2459,
      "##ensa": 2460,
      "##ubon": 2461,
      "democr": 2462,
      "199": 2463,
      "linya": 2464,
      "tiil": 2465,
      "magluwas": 2466,
      "negosyo": 2467,
      "communist": 2468,
      "cafgu": 2469,
      "dan": 2470,
      "jose": 2471,
      "##alb": 2472,
      "##idyo": 2473,
      "nagresulta": 2474,
      "##uhum": 2475,
      "##tek": 2476,
      "agi": 2477,
      "##ret": 2478,
      "pasilidad": 2479,
      "suba": 2480,
      "mabug": 2481,
      "imperyalismong": 2482,
      "determinasyon": 2483,
      "23": 2484,
      "myembro": 2485,
      "nay": 2486,
      "rod": 2487,
      "sy": 2488,
      "##gwa": 2489,
      "##ry": 2490,
      "##inyo": 2491,
      "##inahanglan": 2492,
      "##ayber": 2493,
      "##igugma": 2494,
      "pari": 2495,
      "istr": 2496,
      "isabe": 2497,
      "##ukas": 2498,
      "halintang": 2499,
      "bangk": 2500,
      "bulig": 2501,
      "moises": 2502,
      "##tani": 2503,
      "naham": 2504,
      "nagaluntad": 2505,
      "##aktura": 2506,
      "dulot": 2507,
      "sarang": 2508,
      "isabela": 2509,
      "tul": 2510,
      "##akup": 2511,
      "##isina": 2512,
      "naglunsar": 2513,
      "gintukod": 2514,
      "##asaker": 2515,
      "nagalala": 2516,
      "##alayas": 2517,
      "drayber": 2518,
      "##imbawa": 2519,
      "gasto": 2520,
      "##mi": 2521,
      "##ran": 2522,
      "##3rd": 2523,
      "##ogan": 2524,
      "pangh": 2525,
      "temp": 2526,
      "##olonyal": 2527,
      "em": 2528,
      "juli": 2529,
      "od": 2530,
      "##wasak": 2531,
      "##alud": 2532,
      "##imu": 2533,
      "impormasyon": 2534,
      "nabatian": 2535,
      "suhol": 2536,
      "dol": 2537,
      "lit": 2538,
      "##tal": 2539,
      "##ting": 2540,
      "##agum": 2541,
      "sahing": 2542,
      "##ulasyon": 2543,
      "nagpa": 2544,
      "##trol": 2545,
      "kumprador": 2546,
      "nawong": 2547,
      "democratic": 2548,
      "fer": 2549,
      "##uig": 2550,
      "##rotesta": 2551,
      "##ines": 2552,
      "nabilin": 2553,
      "##amon": 2554,
      "##unahon": 2555,
      "makit": 2556,
      "nakah": 2557,
      "impras": 2558,
      "napil": 2559,
      "magal": 2560,
      "ginatos": 2561,
      "siguro": 2562,
      "leonardo": 2563,
      "person": 2564,
      "cel": 2565,
      "ligal": 2566,
      "zena": 2567,
      "##sya": 2568,
      "##gay": 2569,
      "pagtaas": 2570,
      "##ensyon": 2571,
      "agre": 2572,
      "singgit": 2573,
      "halimbawa": 2574,
      "kuntani": 2575,
      "sigur": 2576,
      "sea": 2577,
      "demanda": 2578,
      "epekto": 2579,
      "kandid": 2580,
      "zenaida": 2581,
      "act": 2582,
      "walo": 2583,
      "##pons": 2584,
      "##utay": 2585,
      "langis": 2586,
      "panaligan": 2587,
      "ginapam": 2588,
      "paghari": 2589,
      "malapyudal": 2590,
      "ulumhan": 2591,
      "ginahimuslan": 2592,
      "tinawo": 2593,
      "##alangga": 2594,
      "industriya": 2595,
      "lola": 2596,
      "pala": 2597,
      "tion": 2598,
      "##pir": 2599,
      "##uok": 2600,
      "##uway": 2601,
      "##ge": 2602,
      "##atilingban": 2603,
      "##ungog": 2604,
      "makad": 2605,
      "nagapadayon": 2606,
      "samar": 2607,
      "pangkatilingban": 2608,
      "##erbe": 2609,
      "##imbang": 2610,
      "28": 2611,
      "kant": 2612,
      "pyudal": 2613,
      "magpa": 2614,
      "##aganihan": 2615,
      "paslaw": 2616,
      "kalam": 2617,
      "padilla": 2618,
      "ass": 2619,
      "sec": 2620,
      "##vao": 2621,
      "davao": 2622,
      "ceb": 2623,
      "hangin": 2624,
      "mina": 2625,
      "##lik": 2626,
      "##wang": 2627,
      "##wer": 2628,
      "##aganda": 2629,
      "sip": 2630,
      "##upog": 2631,
      "kabal": 2632,
      "##ense": 2633,
      "patar": 2634,
      "ginatawag": 2635,
      "tagip": 2636,
      "buhis": 2637,
      "malain": 2638,
      "##pital": 2639,
      "##ua": 2640,
      "##lag": 2641,
      "##ond": 2642,
      "pagpalapad": 2643,
      "##andam": 2644,
      "##lano": 2645,
      "malak": 2646,
      "##agahon": 2647,
      "tinaga": 2648,
      "tapuson": 2649,
      "kasugtanan": 2650,
      "lenin": 2651,
      "ferdin": 2652,
      "hulag": 2653,
      "lag": 2654,
      "olan": 2655,
      "sentro": 2656,
      "tani": 2657,
      "##cy": 2658,
      "##ti": 2659,
      "##ugutan": 2660,
      "##opol": 2661,
      "nagakah": 2662,
      "kilo": 2663,
      "sosyedad": 2664,
      "ideolohiya": 2665,
      "ferdinand": 2666,
      "klas": 2667,
      "pangabuhi": 2668,
      "sr": 2669,
      "##son": 2670,
      "##yot": 2671,
      "rel": 2672,
      "##angayo": 2673,
      "india": 2674,
      "pangunahon": 2675,
      "##uhaan": 2676,
      "ginhatag": 2677,
      "gindakop": 2678,
      "maghulag": 2679,
      "##ektado": 2680,
      "pampulitika": 2681,
      "tukuron": 2682,
      "##rehens": 2683,
      "kahuyangan": 2684,
      "agreement": 2685,
      "27": 2686,
      "lar": 2687,
      "ninyo": 2688,
      "##ilabot": 2689,
      "##ahm": 2690,
      "##ulup": 2691,
      "dekl": 2692,
      "ginpagwa": 2693,
      "mahal": 2694,
      "sistemang": 2695,
      "ndf": 2696,
      "plantasyon": 2697,
      "ding": 2698,
      "ham": 2699,
      "hanay": 2700,
      "sag": 2701,
      "sun": 2702,
      "##ayaan": 2703,
      "##apad": 2704,
      "##abon": 2705,
      "##abton": 2706,
      "ginapang": 2707,
      "pagtan": 2708,
      "##down": 2709,
      "abd": 2710,
      "abuso": 2711,
      "##akasan": 2712,
      "##antya": 2713,
      "sant": 2714,
      "##bo": 2715,
      "##ver": 2716,
      "sanglit": 2717,
      "##ungon": 2718,
      "##elle": 2719,
      "tubtub": 2720,
      "##ilian": 2721,
      "imperyalismo": 2722,
      "southern": 2723,
      "tabon": 2724,
      "pinakadaku": 2725,
      "cebu": 2726,
      "deklar": 2727,
      "bus": 2728,
      "nalista": 2729,
      "sakr": 2730,
      "##ilot": 2731,
      "##yop": 2732,
      "reb": 2733,
      "istorya": 2734,
      "kabudlayan": 2735,
      "kapintas": 2736,
      "dios": 2737,
      "nagalab": 2738,
      "##ampang": 2739,
      "tigp": 2740,
      "taiwan": 2741,
      "##ivers": 2742,
      "taktika": 2743,
      "defense": 2744,
      "napilasan": 2745,
      "handa": 2746,
      "mig": 2747,
      "talam": 2748,
      "₱3": 2749,
      "##ee": 2750,
      "##yar": 2751,
      "##abawan": 2752,
      "##idasyon": 2753,
      "##olbar": 2754,
      "masarangan": 2755,
      "##eksyon": 2756,
      "impl": 2757,
      "nagtuga": 2758,
      "karl": 2759,
      "gindala": 2760,
      "toto": 2761,
      "tunay": 2762,
      "dum": 2763,
      "huna": 2764,
      "ipa": 2765,
      "st": 2766,
      "##arm": 2767,
      "##isog": 2768,
      "##ahe": 2769,
      "##ugong": 2770,
      "##uklat": 2771,
      "##upa": 2772,
      "##hanay": 2773,
      "panim": 2774,
      "pagtinguha": 2775,
      "##ica": 2776,
      "nagahatag": 2777,
      "suplay": 2778,
      "ubos": 2779,
      "ambus": 2780,
      "500": 2781,
      "ido": 2782,
      "tak": 2783,
      "##pi": 2784,
      "##ubig": 2785,
      "##utaan": 2786,
      "##himakas": 2787,
      "maria": 2788,
      "balor": 2789,
      "nadula": 2790,
      "##igayunan": 2791,
      "yadto": 2792,
      "##nag": 2793,
      "##gr": 2794,
      "##ging": 2795,
      "say": 2796,
      "##oni": 2797,
      "##aliwan": 2798,
      "##asura": 2799,
      "##akod": 2800,
      "##ulit": 2801,
      "##itiko": 2802,
      "nagapa": 2803,
      "##oma": 2804,
      "anum": 2805,
      "kahigayunan": 2806,
      "alyan": 2807,
      "kapitalismo": 2808,
      "2019": 2809,
      "##csp": 2810,
      "masaker": 2811,
      "79th": 2812,
      "bung": 2813,
      "bol": 2814,
      "bib": 2815,
      "rcsp": 2816,
      "uy": 2817,
      "wel": 2818,
      "##ds": 2819,
      "##kdown": 2820,
      "##inong": 2821,
      "##alaw": 2822,
      "kaagahon": 2823,
      "paghanas": 2824,
      "##ukon": 2825,
      "sitio": 2826,
      "binalb": 2827,
      "fran": 2828,
      "##alupok": 2829,
      "epektibo": 2830,
      "benepisyo": 2831,
      "malakolonyal": 2832,
      "sakripisyo": 2833,
      "binalbagan": 2834,
      "hag": 2835,
      "libo": 2836,
      "##bahin": 2837,
      "angot": 2838,
      "##angas": 2839,
      "##elo": 2840,
      "##ilitar": 2841,
      "balak": 2842,
      "banas": 2843,
      "apektado": 2844,
      "barko": 2845,
      "pinakamat": 2846,
      "ululup": 2847,
      "##alaka": 2848,
      "permi": 2849,
      "kaangot": 2850,
      "nabatyagan": 2851,
      "ululupod": 2852,
      "gan": 2853,
      "luha": 2854,
      "##lor": 2855,
      "ginre": 2856,
      "##apo": 2857,
      "##ence": 2858,
      "punggan": 2859,
      "nagprotesta": 2860,
      "##ace": 2861,
      "labaw": 2862,
      "ahente": 2863,
      "metro": 2864,
      "##agsak": 2865,
      "monopol": 2866,
      "bom": 2867,
      "sanga": 2868,
      "##les": 2869,
      "##anta": 2870,
      "angut": 2871,
      "##akwit": 2872,
      "##uligay": 2873,
      "##iguson": 2874,
      "kalamay": 2875,
      "kalakasan": 2876,
      "tuo": 2877,
      "kapaslawan": 2878,
      "distr": 2879,
      "corpor": 2880,
      "lockdown": 2881,
      "patarasak": 2882,
      "dat": 2883,
      "he": 2884,
      "haw": 2885,
      "nahimo": 2886,
      "inc": 2887,
      "inf": 2888,
      "anuman": 2889,
      "maghimo": 2890,
      "##ira": 2891,
      "##ilitan": 2892,
      "agum": 2893,
      "katilingban": 2894,
      "katawhan": 2895,
      "pagkad": 2896,
      "gintalana": 2897,
      "hilway": 2898,
      "kakugmat": 2899,
      "konsol": 2900,
      "##ungganon": 2901,
      "posible": 2902,
      "lorna": 2903,
      "##truktura": 2904,
      "proseso": 2905,
      "panimalay": 2906,
      "40": 2907,
      "##olod": 2908,
      "##ukid": 2909,
      "malab": 2910,
      "malig": 2911,
      "malawig": 2912,
      "pamunuan": 2913,
      "sulit": 2914,
      "##ulagon": 2915,
      "##uthang": 2916,
      "medi": 2917,
      "kandidato": 2918,
      "cat": 2919,
      "hand": 2920,
      "po": 2921,
      "pl": 2922,
      "rus": 2923,
      "task": 2924,
      "##po": 2925,
      "##fa": 2926,
      "manang": 2927,
      "nagapad": 2928,
      "trin": 2929,
      "aspeto": 2930,
      "naghalin": 2931,
      "pahulagon": 2932,
      "papet": 2933,
      "##iplang": 2934,
      "##isayas": 2935,
      "rodr": 2936,
      "kalamidad": 2937,
      "talak": 2938,
      "##que": 2939,
      "##oner": 2940,
      "##ary": 2941,
      "##idor": 2942,
      "##ugid": 2943,
      "devel": 2944,
      "malayo": 2945,
      "unod": 2946,
      "kalsada": 2947,
      "respons": 2948,
      "naghatag": 2949,
      "pangkalin": 2950,
      "propaganda": 2951,
      "corporation": 2952,
      "dungganon": 2953,
      "##umento": 2954,
      "sir": 2955,
      "##ukpan": 2956,
      "kaban": 2957,
      "##loy": 2958,
      "negrosanon": 2959,
      "mabuhi": 2960,
      "inspir": 2961,
      "pusil": 2962,
      "dyip": 2963,
      "trinidad": 2964,
      "mid": 2965,
      "stat": 2966,
      "##alyon": 2967,
      "##ayad": 2968,
      "nabal": 2969,
      "##idungog": 2970,
      "ibuyagyag": 2971,
      "awto": 2972,
      "silot": 2973,
      "ugat": 2974,
      "puti": 2975,
      "paggin": 2976,
      "united": 2977,
      "develop": 2978,
      "60": 2979,
      "mr": 2980,
      "pangab": 2981,
      "visayas": 2982,
      "##nie": 2983,
      "##sia": 2984,
      "##abuton": 2985,
      "nagbalik": 2986,
      "pagpad": 2987,
      "ginpat": 2988,
      "nagapamuno": 2989,
      "nagakaigo": 2990,
      "inspirasyon": 2991,
      "bi": 2992,
      "gul": 2993,
      "li": 2994,
      "mcc": 2995,
      "set": 2996,
      "##ner": 2997,
      "##50": 2998,
      "ginbal": 2999,
      "##ubog": 3000,
      "##laon": 3001,
      "panadlong": 3002,
      "kadutaan": 3003,
      "##agatan": 3004,
      "mapiguson": 3005,
      "pagsul": 3006,
      "banggi": 3007,
      "sekret": 3008,
      "makabayan": 3009,
      "regular": 3010,
      "sapat": 3011,
      "##ission": 3012,
      "##akamala": 3013,
      "gabriel": 3014,
      "kabalayan": 3015,
      "development": 3016,
      "sekretaryo": 3017,
      "boy": 3018,
      "ho": 3019,
      "##ding": 3020,
      "##uc": 3021,
      "##ea": 3022,
      "sayop": 3023,
      "##alala": 3024,
      "pagla": 3025,
      "##apak": 3026,
      "##yor": 3027,
      "##uhunan": 3028,
      "mac": 3029,
      "ener": 3030,
      "ihatag": 3031,
      "bacolod": 3032,
      "kundisyon": 3033,
      "pinakamataas": 3034,
      "russia": 3035,
      "sentr": 3036,
      "tip": 3037,
      "##lok": 3038,
      "##yas": 3039,
      "##angil": 3040,
      "##apanaog": 3041,
      "##usuon": 3042,
      "##esa": 3043,
      "##imit": 3044,
      "##ibad": 3045,
      "##ibilidad": 3046,
      "##ure": 3047,
      "maki": 3048,
      "kadagatan": 3049,
      "pagsulod": 3050,
      "##ortahan": 3051,
      "pangpubliko": 3052,
      "palestino": 3053,
      "bangkay": 3054,
      "abdak": 3055,
      "balaklon": 3056,
      "mel": 3057,
      "ubal": 3058,
      "##mon": 3059,
      "##hod": 3060,
      "##ade": 3061,
      "isyu": 3062,
      "##ope": 3063,
      "magad": 3064,
      "insidente": 3065,
      "dalaga": 3066,
      "dagway": 3067,
      "##ights": 3068,
      "desperado": 3069,
      "palaabuton": 3070,
      "baganihan": 3071,
      "cent": 3072,
      "emple": 3073,
      "land": 3074,
      "soc": 3075,
      "##kado": 3076,
      "##tad": 3077,
      "kaim": 3078,
      "##ibi": 3079,
      "iyahan": 3080,
      "##angapin": 3081,
      "ginapanag": 3082,
      "pagpanguna": 3083,
      "siyam": 3084,
      "##iktik": 3085,
      "teritor": 3086,
      "nagsulod": 3087,
      "##angkat": 3088,
      "pangkabil": 3089,
      "santo": 3090,
      "silingon": 3091,
      "sosyalis": 3092,
      "##lastar": 3093,
      "protek": 3094,
      "maisog": 3095,
      "determinado": 3096,
      "transport": 3097,
      "seguridad": 3098,
      "northern": 3099,
      "kul": 3100,
      "pu": 3101,
      "##ono": 3102,
      "##ulaan": 3103,
      "##unahan": 3104,
      "##ugp": 3105,
      "pagkam": 3106,
      "batalyon": 3107,
      "##lawas": 3108,
      "operey": 3109,
      "ginkuha": 3110,
      "##abatyag": 3111,
      "importante": 3112,
      "hayagan": 3113,
      "imbestigasyon": 3114,
      "eb": 3115,
      "publiko": 3116,
      "plat": 3117,
      "##alawigon": 3118,
      "##arar": 3119,
      "##aryado": 3120,
      "manun": 3121,
      "##anansya": 3122,
      "balita": 3123,
      "##agayan": 3124,
      "pagpangd": 3125,
      "kombat": 3126,
      "comp": 3127,
      "maghatag": 3128,
      "tawhanong": 3129,
      "obra": 3130,
      "list": 3131,
      "pes": 3132,
      "##uyon": 3133,
      "##yenda": 3134,
      "##abwag": 3135,
      "##igko": 3136,
      "##util": 3137,
      "##olo": 3138,
      "##ipos": 3139,
      "masbat": 3140,
      "##andan": 3141,
      "pagbakal": 3142,
      "mapatay": 3143,
      "diutay": 3144,
      "progresibo": 3145,
      "##ormal": 3146,
      "pangmalawigon": 3147,
      "modern": 3148,
      "reklamo": 3149,
      "duog": 3150,
      "valle": 3151,
      "str": 3152,
      "work": 3153,
      "##sment": 3154,
      "##eta": 3155,
      "##yahe": 3156,
      "##itimo": 3157,
      "##umahan": 3158,
      "##unog": 3159,
      "##andig": 3160,
      "makak": 3161,
      "kaluoy": 3162,
      "palang": 3163,
      "##baton": 3164,
      "combat": 3165,
      "2018": 3166,
      "pagpasilabot": 3167,
      "ubay": 3168,
      "prenteng": 3169,
      "merkado": 3170,
      "talamnan": 3171,
      "gwa": 3172,
      "kuha": 3173,
      "tam": 3174,
      "##iyo": 3175,
      "##uot": 3176,
      "##hiya": 3177,
      "##yn": 3178,
      "##gat": 3179,
      "kaumahan": 3180,
      "##ulsol": 3181,
      "pagsaway": 3182,
      "mabudlay": 3183,
      "nagtaliwan": 3184,
      "##akigbato": 3185,
      "awan": 3186,
      "marxismo": 3187,
      "paslawon": 3188,
      "tagipusuon": 3189,
      "rodrigo": 3190,
      "cagayan": 3191,
      "ec": 3192,
      "je": 3193,
      "mers": 3194,
      "sel": 3195,
      "##uwa": 3196,
      "##calan": 3197,
      "##aso": 3198,
      "anom": 3199,
      "island": 3200,
      "##uks": 3201,
      "arth": 3202,
      "malinong": 3203,
      "rebolus": 3204,
      "nagapanawagan": 3205,
      "matag": 3206,
      "baligya": 3207,
      "kapalibutan": 3208,
      "mapat": 3209,
      "komers": 3210,
      "pablo": 3211,
      "ginhatagan": 3212,
      "kampanyang": 3213,
      "##ampad": 3214,
      "pagpasurender": 3215,
      "diktador": 3216,
      "##ibangdan": 3217,
      "vicente": 3218,
      "deklarasyon": 3219,
      "air": 3220,
      "band": 3221,
      "gal": 3222,
      "hungod": 3223,
      "mt": 3224,
      "test": 3225,
      "##ket": 3226,
      "##ange": 3227,
      "ginm": 3228,
      "##enta": 3229,
      "nagabal": 3230,
      "##ord": 3231,
      "##imum": 3232,
      "##ugos": 3233,
      "##uguon": 3234,
      "militante": 3235,
      "nakuha": 3236,
      "ordin": 3237,
      "palay": 3238,
      "estorya": 3239,
      "nagakad": 3240,
      "resulta": 3241,
      "##undenar": 3242,
      "korpor": 3243,
      "himata": 3244,
      "inday": 3245,
      "buena": 3246,
      "kolon": 3247,
      "pagmasaker": 3248,
      "mahinay": 3249,
      "palaparon": 3250,
      "mersen": 3251,
      "bud": 3252,
      "bulong": 3253,
      "pop": 3254,
      "tur": 3255,
      "##dag": 3256,
      "##pak": 3257,
      "##lig": 3258,
      "ginala": 3259,
      "##ikasyon": 3260,
      "makuha": 3261,
      "panindugan": 3262,
      "bato": 3263,
      "pagbalik": 3264,
      "pagpamahug": 3265,
      "magah": 3266,
      "magat": 3267,
      "##antay": 3268,
      "ginaduso": 3269,
      "kongkreto": 3270,
      "ram": 3271,
      "##sag": 3272,
      "##anyon": 3273,
      "##agway": 3274,
      "pagpangabuhi": 3275,
      "##ukl": 3276,
      "pagkal": 3277,
      "kasayp": 3278,
      "pula": 3279,
      "nagakab": 3280,
      "minyong": 3281,
      "##iliug": 3282,
      "pamatukan": 3283,
      "alec": 3284,
      "kantidad": 3285,
      "kasaypanan": 3286,
      "cl": 3287,
      "fre": 3288,
      "west": 3289,
      "##yuhum": 3290,
      "##apit": 3291,
      "##abok": 3292,
      "##ubha": 3293,
      "##estor": 3294,
      "##angawa": 3295,
      "ginpatuman": 3296,
      "uno": 3297,
      "kalayo": 3298,
      "alyado": 3299,
      "##umpo": 3300,
      "paghimo": 3301,
      "operasyong": 3302,
      "ipatuman": 3303,
      "termin": 3304,
      "ginakabig": 3305,
      "2016": 3306,
      "##ungka": 3307,
      "ginalunsar": 3308,
      "has": 3309,
      "hitabo": 3310,
      "₱4": 3311,
      "##dp": 3312,
      "##ser": 3313,
      "##iner": 3314,
      "##ulom": 3315,
      "##apa": 3316,
      "##abaskog": 3317,
      "manok": 3318,
      "manggar": 3319,
      "kapigad": 3320,
      "mahibal": 3321,
      "ilunsar": 3322,
      "upisina": 3323,
      "nagasingki": 3324,
      "ginakond": 3325,
      "##cho": 3326,
      "kinaiyahan": 3327,
      "piso": 3328,
      "bukidnon": 3329,
      "lumad": 3330,
      "setyembre": 3331,
      "masbate": 3332,
      "arthur": 3333,
      "fir": 3334,
      "stok": 3335,
      "wak": 3336,
      "##sang": 3337,
      "##rans": 3338,
      "##cial": 3339,
      "angel": 3340,
      "pagre": 3341,
      "paci": 3342,
      "##try": 3343,
      "balatian": 3344,
      "##agamo": 3345,
      "natural": 3346,
      "paghigugma": 3347,
      "kontrata": 3348,
      "##alagman": 3349,
      "tinuig": 3350,
      "tiyo": 3351,
      "kuryente": 3352,
      "pilason": 3353,
      "serye": 3354,
      "estratehikong": 3355,
      "pagpamatuk": 3356,
      "kapigaduhon": 3357,
      "pacific": 3358,
      "nestor": 3359,
      "sus": 3360,
      "##haw": 3361,
      "##vista": 3362,
      "##ulugan": 3363,
      "int": 3364,
      "##oris": 3365,
      "##ibabawan": 3366,
      "maangkon": 3367,
      "##irit": 3368,
      "mahangpan": 3369,
      "ilinit": 3370,
      "magab": 3371,
      "peace": 3372,
      "##ayao": 3373,
      "pagpabaskog": 3374,
      "leninismo": 3375,
      "teritoryo": 3376,
      "korporasyon": 3377,
      "dun": 3378,
      "rights": 3379,
      "##mar": 3380,
      "##lum": 3381,
      "##indi": 3382,
      "kaisog": 3383,
      "##ilin": 3384,
      "##isk": 3385,
      "ginar": 3386,
      "##ide": 3387,
      "ani": 3388,
      "ibpa": 3389,
      "katul": 3390,
      "akus": 3391,
      "order": 3392,
      "napamatud": 3393,
      "basta": 3394,
      "196": 3395,
      "halit": 3396,
      "atubangon": 3397,
      "sakup": 3398,
      "##eyds": 3399,
      "industri": 3400,
      "klase": 3401,
      "spe": 3402,
      "tim": 3403,
      "##no": 3404,
      "##ect": 3405,
      "kagaw": 3406,
      "##apoy": 3407,
      "inos": 3408,
      "##ahaw": 3409,
      "##osasyon": 3410,
      "##igana": 3411,
      "masupog": 3412,
      "##angat": 3413,
      "detat": 3414,
      "katunga": 3415,
      "univers": 3416,
      "alsa": 3417,
      "napulo": 3418,
      "ginatantya": 3419,
      "pagdum": 3420,
      "super": 3421,
      "kapitan": 3422,
      "drone": 3423,
      "dulunan": 3424,
      "nalab": 3425,
      "303rd": 3426,
      "imbes": 3427,
      "pagpataas": 3428,
      "##ingala": 3429,
      "hit": 3430,
      "km": 3431,
      "ped": 3432,
      "sp": 3433,
      "##iy": 3434,
      "##ual": 3435,
      "##uct": 3436,
      "init": 3437,
      "inte": 3438,
      "##utaw": 3439,
      "nagapakig": 3440,
      "katalagman": 3441,
      "ginapatuman": 3442,
      "kalab": 3443,
      "oplan": 3444,
      "natalana": 3445,
      "##raine": 3446,
      "asud": 3447,
      "##uyatan": 3448,
      "disipl": 3449,
      "gindeklarar": 3450,
      "##dugang": 3451,
      "##ampo": 3452,
      "pagpasulong": 3453,
      "hulot": 3454,
      "kurso": 3455,
      "pwersahan": 3456,
      "kwarto": 3457,
      "maoismo": 3458,
      "babae": 3459,
      "pangabudlay": 3460,
      "buenavista": 3461,
      "##ransak": 3462,
      "70": 3463,
      "austr": 3464,
      "ganansya": 3465,
      "igo": 3466,
      "las": 3467,
      "rad": 3468,
      "swan": 3469,
      "sober": 3470,
      "yabi": 3471,
      "##se": 3472,
      "##wala": 3473,
      "##ona": 3474,
      "##iter": 3475,
      "##abunan": 3476,
      "##ahuway": 3477,
      "##iguro": 3478,
      "ari": 3479,
      "mater": 3480,
      "nakak": 3481,
      "nakig": 3482,
      "panulok": 3483,
      "##ambi": 3484,
      "subs": 3485,
      "asin": 3486,
      "bangko": 3487,
      "nagakat": 3488,
      "nagkadto": 3489,
      "kilid": 3490,
      "solusyon": 3491,
      "libre": 3492,
      "kolum": 3493,
      "##astigo": 3494,
      "ugaling": 3495,
      "senado": 3496,
      "ginpalukpan": 3497,
      "alyansa": 3498,
      "welga": 3499,
      "social": 3500,
      "kaimulon": 3501,
      "platun": 3502,
      "detatsment": 3503,
      "swannie": 3504,
      "jac": 3505,
      "kut": 3506,
      "ton": 3507,
      "tumulu": 3508,
      "##amasyon": 3509,
      "##ubas": 3510,
      "anon": 3511,
      "pamahog": 3512,
      "escalan": 3513,
      "nagpad": 3514,
      "tubi": 3515,
      "terr": 3516,
      "ospital": 3517,
      "kapital": 3518,
      "pagpanag": 3519,
      "2017": 3520,
      "##umbas": 3521,
      "pagpahulag": 3522,
      "kagab": 3523,
      "gaza": 3524,
      "proletaryado": 3525,
      "ginakondenar": 3526,
      "escalante": 3527,
      "dar": 3528,
      "dalagan": 3529,
      "eur": 3530,
      "fa": 3531,
      "higayon": 3532,
      "##tuan": 3533,
      "napa": 3534,
      "##akot": 3535,
      "##olb": 3536,
      "mayorya": 3537,
      "##upaktura": 3538,
      "ibabaw": 3539,
      "malaba": 3540,
      "kinagamo": 3541,
      "madalom": 3542,
      "kaswal": 3543,
      "##tant": 3544,
      "##tante": 3545,
      "nagsugod": 3546,
      "tagap": 3547,
      "madamuan": 3548,
      "pagpangawat": 3549,
      "bakuna": 3550,
      "lorena": 3551,
      "canlaon": 3552,
      "ukraine": 3553,
      "bibig": 3554,
      "inosente": 3555,
      "31": 3556,
      "gang": 3557,
      "har": 3558,
      "plac": 3559,
      "sm": 3560,
      "##mak": 3561,
      "##was": 3562,
      "sangk": 3563,
      "##ayang": 3564,
      "pagkon": 3565,
      "##usong": 3566,
      "isda": 3567,
      "makinar": 3568,
      "langit": 3569,
      "batangas": 3570,
      "ginapat": 3571,
      "kalipay": 3572,
      "nagpas": 3573,
      "mahatagan": 3574,
      "minimum": 3575,
      "##resent": 3576,
      "probinsya": 3577,
      "##ward": 3578,
      "community": 3579,
      "##isipan": 3580,
      "reaksyonaryo": 3581,
      "diktadurya": 3582,
      "##even": 3583,
      "transportasyon": 3584,
      "disiplina": 3585,
      "bit": 3586,
      "limit": 3587,
      "pur": 3588,
      "##tahan": 3589,
      "##bong": 3590,
      "##vis": 3591,
      "##ogo": 3592,
      "makahal": 3593,
      "ginpah": 3594,
      "##igar": 3595,
      "balas": 3596,
      "patri": 3597,
      "##asakaan": 3598,
      "##alia": 3599,
      "agraryo": 3600,
      "tiraniko": 3601,
      "center": 3602,
      "opereytor": 3603,
      "55": 3604,
      "hel": 3605,
      "jun": 3606,
      "joner": 3607,
      "leh": 3608,
      "tupad": 3609,
      "wasak": 3610,
      "##gen": 3611,
      "##ilag": 3612,
      "##akos": 3613,
      "inutil": 3614,
      "##ubos": 3615,
      "##utong": 3616,
      "##tog": 3617,
      "manga": 3618,
      "##lana": 3619,
      "madali": 3620,
      "pulitikal": 3621,
      "paghang": 3622,
      "ilabe": 3623,
      "organo": 3624,
      "kamukl": 3625,
      "lamp": 3626,
      "nagatindog": 3627,
      "nahanungod": 3628,
      "pagsulundan": 3629,
      "jonerol": 3630,
      "kamuklatan": 3631,
      "af": 3632,
      "kum": 3633,
      "leksyon": 3634,
      "th": 3635,
      "##halit": 3636,
      "##ks": 3637,
      "##yut": 3638,
      "##arter": 3639,
      "##ilyo": 3640,
      "##apta": 3641,
      "##eny": 3642,
      "##andaan": 3643,
      "kabaylo": 3644,
      "##oble": 3645,
      "##ilipon": 3646,
      "trib": 3647,
      "trilyon": 3648,
      "pagpangs": 3649,
      "##ical": 3650,
      "nagahiliug": 3651,
      "mining": 3652,
      "nagatuga": 3653,
      "##yernong": 3654,
      "##ueva": 3655,
      "##artsa": 3656,
      "depensa": 3657,
      "irigasyon": 3658,
      "imprastruktura": 3659,
      "uyatan": 3660,
      "listahan": 3661,
      "university": 3662,
      "fo": 3663,
      "hors": 3664,
      "kumb": 3665,
      "pel": 3666,
      "rog": 3667,
      "##anggo": 3668,
      "##aro": 3669,
      "nauna": 3670,
      "##amaba": 3671,
      "##ordin": 3672,
      "##idunggan": 3673,
      "##uka": 3674,
      "prakt": 3675,
      "##okus": 3676,
      "malaw": 3677,
      "katimbang": 3678,
      "katumbas": 3679,
      "athag": 3680,
      "aswang": 3681,
      "bastante": 3682,
      "##yudalismo": 3683,
      "brigad": 3684,
      "##asakup": 3685,
      "##imbuok": 3686,
      "proyek": 3687,
      "dayun": 3688,
      "makatarunganon": 3689,
      "##aludo": 3690,
      "asset": 3691,
      "datos": 3692,
      "pangkalinungan": 3693,
      "gulpi": 3694,
      "3rd": 3695,
      "lng": 3696,
      "payag": 3697,
      "vil": 3698,
      "₱5": 3699,
      "##nip": 3700,
      "##yus": 3701,
      "kaina": 3702,
      "##ilaw": 3703,
      "##aping": 3704,
      "##esyon": 3705,
      "marg": 3706,
      "pangs": 3707,
      "ginpad": 3708,
      "ginapigos": 3709,
      "natabu": 3710,
      "kapal": 3711,
      "##amatuod": 3712,
      "##ict": 3713,
      "alang": 3714,
      "##unsyo": 3715,
      "gintawag": 3716,
      "minorya": 3717,
      "##anse": 3718,
      "##uwang": 3719,
      "teorya": 3720,
      "##ungkag": 3721,
      "luc": 3722,
      "reklamasyon": 3723,
      "##aliskad": 3724,
      "##uswagon": 3725,
      "tempor": 3726,
      "media": 3727,
      "kagawad": 3728,
      "proyektong": 3729,
      "coc": 3730,
      "lir": 3731,
      "pyudalismo": 3732,
      "suk": 3733,
      "um": 3734,
      "##abtan": 3735,
      "##ahen": 3736,
      "nagag": 3737,
      "##esyal": 3738,
      "##uhin": 3739,
      "isk": 3740,
      "magulang": 3741,
      "art": 3742,
      "##hanan": 3743,
      "battal": 3744,
      "pasulit": 3745,
      "abaga": 3746,
      "pagbin": 3747,
      "##igante": 3748,
      "salabton": 3749,
      "baybay": 3750,
      "lapsag": 3751,
      "imahen": 3752,
      "ekonomiko": 3753,
      "tiyan": 3754,
      "nadumduman": 3755,
      "eksp": 3756,
      "##ization": 3757,
      "liberalisasyon": 3758,
      "boto": 3759,
      "joeven": 3760,
      "doming": 3761,
      "doktor": 3762,
      "secur": 3763,
      "manunudlo": 3764,
      "kuhaon": 3765,
      "battalion": 3766,
      "45": 3767,
      "dungan": 3768,
      "emp": 3769,
      "kang": 3770,
      "olay": 3771,
      "##sing": 3772,
      "##cis": 3773,
      "##ced": 3774,
      "##antry": 3775,
      "kaisipan": 3776,
      "##amilitar": 3777,
      "##istan": 3778,
      "##ahuna": 3779,
      "sib": 3780,
      "simple": 3781,
      "##yoso": 3782,
      "##igon": 3783,
      "pangulo": 3784,
      "nagapakita": 3785,
      "dutang": 3786,
      "nagpam": 3787,
      "napilitan": 3788,
      "ipabilin": 3789,
      "ipakigbato": 3790,
      "aktwal": 3791,
      "guwa": 3792,
      "sakit": 3793,
      "kakapoy": 3794,
      "kinaandan": 3795,
      "tagalog": 3796,
      "pagpauswag": 3797,
      "demol": 3798,
      "kaangtanan": 3799,
      "kabilogan": 3800,
      "nakabase": 3801,
      "diktaduryang": 3802,
      "personal": 3803,
      "sigurado": 3804,
      "##uksok": 3805,
      "kolonyal": 3806,
      "olayra": 3807,
      "bel": 3808,
      "hubon": 3809,
      "higante": 3810,
      "##ron": 3811,
      "kagulangan": 3812,
      "##akpan": 3813,
      "##adya": 3814,
      "##untat": 3815,
      "##awon": 3816,
      "paramilitar": 3817,
      "##uhod": 3818,
      "##upong": 3819,
      "mainit": 3820,
      "##legal": 3821,
      "##ugata": 3822,
      "kabug": 3823,
      "nakibot": 3824,
      "nagpang": 3825,
      "alagyan": 3826,
      "organisasyong": 3827,
      "nagtindog": 3828,
      "katapuan": 3829,
      "ginahambal": 3830,
      "tind": 3831,
      "pagduso": 3832,
      "tagging": 3833,
      "kakulangan": 3834,
      "tagas": 3835,
      "##izal": 3836,
      "ambot": 3837,
      "gary": 3838,
      "reaksyonaryong": 3839,
      "##inganiban": 3840,
      "istraping": 3841,
      "infantry": 3842,
      "rebolusyong": 3843,
      "baligyaanay": 3844,
      "europe": 3845,
      "placida": 3846,
      "security": 3847,
      "asod": 3848,
      "cab": 3849,
      "hinganiban": 3850,
      "pip": 3851,
      "##ior": 3852,
      "##hin": 3853,
      "##ck": 3854,
      "##alon": 3855,
      "##itibo": 3856,
      "##usob": 3857,
      "##igot": 3858,
      "##ikway": 3859,
      "##iman": 3860,
      "##utig": 3861,
      "##ugyan": 3862,
      "pagpadayon": 3863,
      "##ibur": 3864,
      "pagkas": 3865,
      "nakad": 3866,
      "atub": 3867,
      "kadlum": 3868,
      "asosasyon": 3869,
      "mabatian": 3870,
      "nagabaskog": 3871,
      "##abaton": 3872,
      "##iver": 3873,
      "sosyo": 3874,
      "martial": 3875,
      "##gasto": 3876,
      "buhok": 3877,
      "##laro": 3878,
      "heneral": 3879,
      "reyd": 3880,
      "regional": 3881,
      "dugay": 3882,
      "ing": 3883,
      "lant": 3884,
      "mult": 3885,
      "nya": 3886,
      "pist": 3887,
      "##tas": 3888,
      "##agmay": 3889,
      "kaisa": 3890,
      "##ilign": 3891,
      "##istr": 3892,
      "##isyat": 3893,
      "ginbilin": 3894,
      "##use": 3895,
      "##igting": 3896,
      "##ungdan": 3897,
      "ist": 3898,
      "##iron": 3899,
      "ginpasakaan": 3900,
      "pamins": 3901,
      "ginapanawagan": 3902,
      "ginapangayo": 3903,
      "##ihon": 3904,
      "pagbal": 3905,
      "##ahanon": 3906,
      "##inao": 3907,
      "pinas": 3908,
      "mahigko": 3909,
      "nagasuporta": 3910,
      "ginhambal": 3911,
      "titser": 3912,
      "kahimbon": 3913,
      "##siang": 3914,
      "luzon": 3915,
      "##truksyon": 3916,
      "medikal": 3917,
      "##umdumon": 3918,
      "pagginahum": 3919,
      "##akamalaut": 3920,
      "katulad": 3921,
      "patriyot": 3922,
      "lehitimo": 3923,
      "wasakon": 3924,
      "300": 3925,
      "bum": 3926,
      "gip": 3927,
      "hur": 3928,
      "kiko": 3929,
      "muklat": 3930,
      "pursig": 3931,
      "sund": 3932,
      "ysiang": 3933,
      "##ld": 3934,
      "##hol": 3935,
      "##7th": 3936,
      "##arong": 3937,
      "##areho": 3938,
      "sik": 3939,
      "pautang": 3940,
      "anunsyo": 3941,
      "masingki": 3942,
      "##tem": 3943,
      "nagapati": 3944,
      "madalum": 3945,
      "kasal": 3946,
      "kasakit": 3947,
      "##ema": 3948,
      "pagsabat": 3949,
      "##apatan": 3950,
      "bilangg": 3951,
      "nagasalig": 3952,
      "konstitusyon": 3953,
      "abraham": 3954,
      "eksport": 3955,
      "pagpangapin": 3956,
      "libertad": 3957,
      "petibur": 3958,
      "monopolyo": 3959,
      "##fael": 3960,
      "midya": 3961,
      "enerhiya": 3962,
      "ginalauman": 3963,
      "wakil": 3964,
      "fahm": 3965,
      "lut": 3966,
      "non": 3967,
      "##lad": 3968,
      "##westo": 3969,
      "##vin": 3970,
      "##ject": 3971,
      "##alah": 3972,
      "nav": 3973,
      "ginam": 3974,
      "inisyat": 3975,
      "##ahas": 3976,
      "##ese": 3977,
      "##uhoy": 3978,
      "nagapat": 3979,
      "pagkuha": 3980,
      "pagtasa": 3981,
      "tuod": 3982,
      "pulos": 3983,
      "magag": 3984,
      "minahan": 3985,
      "##uwensya": 3986,
      "lubi": 3987,
      "milyong": 3988,
      "rafael": 3989,
      "local": 3990,
      "komprador": 3991,
      "empleyado": 3992,
      "ebid": 3993,
      "mersenaryo": 3994,
      "materyal": 3995,
      "demolisyon": 3996,
      "52": 3997,
      "dahon": 3998,
      "nation": 3999,
      "rali": 4000,
      "rene": 4001,
      "tya": 4002,
      "wat": 4003,
      "##ne": 4004,
      "##ho": 4005,
      "##aguba": 4006,
      "##alamat": 4007,
      "##atiba": 4008,
      "##ayas": 4009,
      "##abato": 4010,
      "##usog": 4011,
      "parte": 4012,
      "rec": 4013,
      "mando": 4014,
      "paantus": 4015,
      "maabot": 4016,
      "ginpili": 4017,
      "matin": 4018,
      "trop": 4019,
      "pagtib": 4020,
      "kapin": 4021,
      "##unoan": 4022,
      "asta": 4023,
      "pagpamahog": 4024,
      "patyon": 4025,
      "##krut": 4026,
      "pabay": 4027,
      "support": 4028,
      "santa": 4029,
      "##alapnag": 4030,
      "produktong": 4031,
      "guya": 4032,
      "##kwela": 4033,
      "##ultural": 4034,
      "##artir": 4035,
      "##amian": 4036,
      "likom": 4037,
      "kanyon": 4038,
      "conf": 4039,
      "##ugpong": 4040,
      "manggaranon": 4041,
      "pursigido": 4042,
      "fahmida": 4043,
      "den": 4044,
      "farm": 4045,
      "pum": 4046,
      "##uyan": 4047,
      "##lob": 4048,
      "##rop": 4049,
      "##ham": 4050,
      "##tana": 4051,
      "##ated": 4052,
      "##atibo": 4053,
      "##ile": 4054,
      "##akay": 4055,
      "##igro": 4056,
      "ref": 4057,
      "##inggit": 4058,
      "##ogon": 4059,
      "nagapuyo": 4060,
      "oris": 4061,
      "bagyo": 4062,
      "##resyon": 4063,
      "##eploy": 4064,
      "imbol": 4065,
      "solo": 4066,
      "mindoro": 4067,
      "operations": 4068,
      "rox": 4069,
      "balikatan": 4070,
      "ordinaryo": 4071,
      "populasyon": 4072,
      "paminsaron": 4073,
      "inisyatiba": 4074,
      "tropang": 4075,
      "foc": 4076,
      "los": 4077,
      "rizal": 4078,
      "tortyur": 4079,
      "was": 4080,
      "walay": 4081,
      "##haan": 4082,
      "##kalan": 4083,
      "##wisyo": 4084,
      "sako": 4085,
      "##inasyon": 4086,
      "##alth": 4087,
      "inadlaw": 4088,
      "##awasak": 4089,
      "##old": 4090,
      "##ipunan": 4091,
      "masakit": 4092,
      "kasingk": 4093,
      "##saulog": 4094,
      "##ambo": 4095,
      "union": 4096,
      "##tero": 4097,
      "padih": 4098,
      "kapas": 4099,
      "nagpat": 4100,
      "ipakita": 4101,
      "antip": 4102,
      "gubyernong": 4103,
      "lapit": 4104,
      "kusina": 4105,
      "ugs": 4106,
      "kinaalam": 4107,
      "##tellana": 4108,
      "##berto": 4109,
      "espesyal": 4110,
      "##omeo": 4111,
      "castellana": 4112,
      "konsolidasyon": 4113,
      "kabankalan": 4114,
      "kalabanan": 4115,
      "malawigan": 4116,
      "ebidensya": 4117,
      "focus": 4118,
      "boh": 4119,
      "fac": 4120,
      "kud": 4121,
      "lun": 4122,
      "mor": 4123,
      "puro": 4124,
      "##aa": 4125,
      "##az": 4126,
      "##ff": 4127,
      "##alya": 4128,
      "##ulub": 4129,
      "##aboy": 4130,
      "##osisyon": 4131,
      "##omiter": 4132,
      "pauswagon": 4133,
      "magbalik": 4134,
      "ginpakita": 4135,
      "pagkah": 4136,
      "kasanag": 4137,
      "ginapah": 4138,
      "tra": 4139,
      "idu": 4140,
      "##aant": 4141,
      "gintuga": 4142,
      "##asakop": 4143,
      "pagdumdom": 4144,
      "bayaran": 4145,
      "##alapta": 4146,
      "nagabag": 4147,
      "ideya": 4148,
      "##operasyon": 4149,
      "makatarungan": 4150,
      "impluwensya": 4151,
      "pangkabilugan": 4152,
      "special": 4153,
      "brigade": 4154,
      "bohol": 4155,
      "high": 4156,
      "luyo": 4157,
      "romeo": 4158,
      "tel": 4159,
      "##bang": 4160,
      "##bayon": 4161,
      "##akdag": 4162,
      "##ultant": 4163,
      "##isita": 4164,
      "##unyag": 4165,
      "##ugtan": 4166,
      "pagpal": 4167,
      "##ibaka": 4168,
      "aks": 4169,
      "kadaku": 4170,
      "ginapad": 4171,
      "aber": 4172,
      "nagpak": 4173,
      "##acha": 4174,
      "chacha": 4175,
      "gro": 4176,
      "grp": 4177,
      "anting": 4178,
      "okup": 4179,
      "nadulaan": 4180,
      "proper": 4181,
      "nahanunga": 4182,
      "mandu": 4183,
      "##rehensibo": 4184,
      "termino": 4185,
      "##resentar": 4186,
      "domingo": 4187,
      "kapasidad": 4188,
      "32": 4189,
      "bl": 4190,
      "mot": 4191,
      "oil": 4192,
      "vi": 4193,
      "wes": 4194,
      "##ny": 4195,
      "##saw": 4196,
      "##1st": 4197,
      "##aggwa": 4198,
      "##atas": 4199,
      "##ulihi": 4200,
      "nagam": 4201,
      "pray": 4202,
      "##andu": 4203,
      "aran": 4204,
      "makibaka": 4205,
      "##irma": 4206,
      "##kons": 4207,
      "kabalisk": 4208,
      "##atihan": 4209,
      "nagapas": 4210,
      "##ekl": 4211,
      "paniktik": 4212,
      "madumduman": 4213,
      "kalap": 4214,
      "paltik": 4215,
      "##arungan": 4216,
      "##ach": 4217,
      "kumpanyang": 4218,
      "commission": 4219,
      "ginbutang": 4220,
      "bintana": 4221,
      "baboy": 4222,
      "buang": 4223,
      "pagpasidungog": 4224,
      "##pany": 4225,
      "libro": 4226,
      "ihibalo": 4227,
      "project": 4228,
      "##eguro": 4229,
      "ganhaan": 4230,
      "pipila": 4231,
      "kabaliskaran": 4232,
      "dro": 4233,
      "lt": 4234,
      "mis": 4235,
      "mus": 4236,
      "nene": 4237,
      "rol": 4238,
      "ric": 4239,
      "tat": 4240,
      "tek": 4241,
      "tant": 4242,
      "₱7": 4243,
      "##lak": 4244,
      "##wayon": 4245,
      "##along": 4246,
      "nagahimo": 4247,
      "##oridad": 4248,
      "masanag": 4249,
      "##tron": 4250,
      "manghod": 4251,
      "##obre": 4252,
      "nagapanga": 4253,
      "matabo": 4254,
      "##opter": 4255,
      "trad": 4256,
      "absol": 4257,
      "bank": 4258,
      "amu": 4259,
      "pagsalig": 4260,
      "amot": 4261,
      "napat": 4262,
      "company": 4263,
      "kapitalistang": 4264,
      "bert": 4265,
      "importasyon": 4266,
      "kalinungan": 4267,
      "milisya": 4268,
      "pinakadako": 4269,
      "makadali": 4270,
      "bomb": 4271,
      "temporaryo": 4272,
      "lirio": 4273,
      "abereyds": 4274,
      "fund": 4275,
      "jor": 4276,
      "jed": 4277,
      "lana": 4278,
      "lupok": 4279,
      "mi": 4280,
      "pund": 4281,
      "pukaw": 4282,
      "uhon": 4283,
      "wor": 4284,
      "zeny": 4285,
      "##cia": 4286,
      "##yer": 4287,
      "##west": 4288,
      "##ña": 4289,
      "##aguwa": 4290,
      "##alas": 4291,
      "##alab": 4292,
      "##ulb": 4293,
      "##abalan": 4294,
      "##ahud": 4295,
      "##awaan": 4296,
      "##idalum": 4297,
      "manip": 4298,
      "##ipan": 4299,
      "##uhat": 4300,
      "##uhom": 4301,
      "##uko": 4302,
      "##dihon": 4303,
      "##elio": 4304,
      "agusan": 4305,
      "madula": 4306,
      "##agaw": 4307,
      "abaw": 4308,
      "abono": 4309,
      "koordin": 4310,
      "pulitiko": 4311,
      "importe": 4312,
      "gintan": 4313,
      "change": 4314,
      "nagahulat": 4315,
      "kritikal": 4316,
      "hall": 4317,
      "##epensa": 4318,
      "coun": 4319,
      "makabulig": 4320,
      "magkadto": 4321,
      "carabalan": 4322,
      "15th": 4323,
      "##solida": 4324,
      "capiz": 4325,
      "you": 4326,
      "laguna": 4327,
      "saging": 4328,
      "petiburges": 4329,
      "magagmay": 4330,
      "imported": 4331,
      "75": 4332,
      "bic": 4333,
      "dardo": 4334,
      "han": 4335,
      "##oga": 4336,
      "pagwasak": 4337,
      "##apna": 4338,
      "##ime": 4339,
      "maghimakas": 4340,
      "prom": 4341,
      "ars": 4342,
      "##lant": 4343,
      "matahum": 4344,
      "pagpangita": 4345,
      "asyenda": 4346,
      "sulat": 4347,
      "bulak": 4348,
      "magpabilin": 4349,
      "ginahatag": 4350,
      "guban": 4351,
      "himu": 4352,
      "ilocos": 4353,
      "##uyop": 4354,
      "konsentr": 4355,
      "pagat": 4356,
      "bukas": 4357,
      "##garan": 4358,
      "##matiko": 4359,
      "hayop": 4360,
      "##ursiger": 4361,
      "miguel": 4362,
      "pagkadula": 4363,
      "first": 4364,
      "cot": 4365,
      "dim": 4366,
      "kultura": 4367,
      "pay": 4368,
      "scho": 4369,
      "tupong": 4370,
      "zion": 4371,
      "##my": 4372,
      "##hawa": 4373,
      "##bey": 4374,
      "##alogo": 4375,
      "##asing": 4376,
      "kaway": 4377,
      "##undo": 4378,
      "##ident": 4379,
      "##ugat": 4380,
      "maluwas": 4381,
      "panap": 4382,
      "##ihag": 4383,
      "natapos": 4384,
      "barato": 4385,
      "pagsaludo": 4386,
      "paghanda": 4387,
      "pining": 4388,
      "magak": 4389,
      "##manupaktura": 4390,
      "chines": 4391,
      "organisahon": 4392,
      "kumparar": 4393,
      "ulipon": 4394,
      "nagsurender": 4395,
      "ginaatubang": 4396,
      "ginkundenar": 4397,
      "sison": 4398,
      "kilome": 4399,
      "ginapabugal": 4400,
      "##inahanglanon": 4401,
      "celia": 4402,
      "banggianay": 4403,
      "sukton": 4404,
      "pukawon": 4405,
      "school": 4406,
      "chinese": 4407,
      "gra": 4408,
      "haras": 4409,
      "iga": 4410,
      "klaro": 4411,
      "pit": 4412,
      "ple": 4413,
      "uton": 4414,
      "##nt": 4415,
      "##uang": 4416,
      "##agang": 4417,
      "##agmak": 4418,
      "##ayunon": 4419,
      "##ild": 4420,
      "##usang": 4421,
      "nagyuhum": 4422,
      "##ugo": 4423,
      "matarung": 4424,
      "pagkilala": 4425,
      "##alinan": 4426,
      "unon": 4427,
      "unibers": 4428,
      "pagtam": 4429,
      "pagtapos": 4430,
      "pagpanganyon": 4431,
      "alip": 4432,
      "kontrakt": 4433,
      "magpas": 4434,
      "baybayon": 4435,
      "korea": 4436,
      "instr": 4437,
      "institusyon": 4438,
      "konstruksyon": 4439,
      "perman": 4440,
      "pinakamad": 4441,
      "pilas": 4442,
      "negosyante": 4443,
      "humanit": 4444,
      "nars": 4445,
      "pribado": 4446,
      "menor": 4447,
      "relasyon": 4448,
      "francis": 4449,
      "integr": 4450,
      "##olbe": 4451,
      "##iligni": 4452,
      "western": 4453,
      "80": 4454,
      "bungk": 4455,
      "flor": 4456,
      "gi": 4457,
      "gawi": 4458,
      "hac": 4459,
      "lig": 4460,
      "pi": 4461,
      "rom": 4462,
      "sya": 4463,
      "₱6": 4464,
      "##naon": 4465,
      "##sik": 4466,
      "##mukon": 4467,
      "##emple": 4468,
      "##ator": 4469,
      "##atuhay": 4470,
      "##akud": 4471,
      "##amad": 4472,
      "##amulag": 4473,
      "##amnan": 4474,
      "##isy": 4475,
      "##orsa": 4476,
      "##iping": 4477,
      "anan": 4478,
      "##urt": 4479,
      "main": 4480,
      "det": 4481,
      "kababa": 4482,
      "panch": 4483,
      "madre": 4484,
      "ginapagwa": 4485,
      "trak": 4486,
      "abante": 4487,
      "nato": 4488,
      "kapul": 4489,
      "kapagsik": 4490,
      "pagpangk": 4491,
      "mapas": 4492,
      "palad": 4493,
      "offic": 4494,
      "kroni": 4495,
      "magpam": 4496,
      "supor": 4497,
      "suportahan": 4498,
      "planta": 4499,
      "kakulang": 4500,
      "##amaayo": 4501,
      "##aysay": 4502,
      "magtukod": 4503,
      "erop": 4504,
      "##ief": 4505,
      "kaangut": 4506,
      "prinsipal": 4507,
      "##galitan": 4508,
      "##irmahan": 4509,
      "malipayon": 4510,
      "henos": 4511,
      "pagpanglapas": 4512,
      "##uswagan": 4513,
      "##ilotan": 4514,
      "tipo": 4515,
      "jacolbe": 4516,
      "iskema": 4517,
      "##aantus": 4518,
      "##empleyo": 4519,
      "panchay": 4520,
      "35": 4521,
      "dand": 4522,
      "giya": 4523,
      "kuw": 4524,
      "##lang": 4525,
      "##ky": 4526,
      "##fo": 4527,
      "##anali": 4528,
      "sangsa": 4529,
      "##onom": 4530,
      "##astern": 4531,
      "##akus": 4532,
      "##adtong": 4533,
      "##unal": 4534,
      "##awhay": 4535,
      "##iden": 4536,
      "##usga": 4537,
      "mani": 4538,
      "kond": 4539,
      "katarungan": 4540,
      "kahawaan": 4541,
      "balayon": 4542,
      "pagbaha": 4543,
      "pulo": 4544,
      "pagsilot": 4545,
      "##roseso": 4546,
      "alberto": 4547,
      "napaslawan": 4548,
      "pato": 4549,
      "bulsa": 4550,
      "nahadlok": 4551,
      "guba": 4552,
      "saka": 4553,
      "nagdaku": 4554,
      "##ulogan": 4555,
      "soledad": 4556,
      "pagap": 4557,
      "ginpangunahan": 4558,
      "migr": 4559,
      "##ligence": 4560,
      "hasta": 4561,
      "radyo": 4562,
      "fausto": 4563,
      "atubangan": 4564,
      "droga": 4565,
      "world": 4566,
      "bicol": 4567,
      "kilometro": 4568,
      "humanitarian": 4569,
      "henosidyo": 4570,
      "aahm": 4571,
      "gagmay": 4572,
      "hab": 4573,
      "hug": 4574,
      "liwan": 4575,
      "mom": 4576,
      "##dy": 4577,
      "##moso": 4578,
      "##li": 4579,
      "##kom": 4580,
      "samp": 4581,
      "##arget": 4582,
      "kaing": 4583,
      "##akuon": 4584,
      "ginhim": 4585,
      "##ora": 4586,
      "##ubad": 4587,
      "##ikit": 4588,
      "##ikaw": 4589,
      "pagpak": 4590,
      "##ibusyon": 4591,
      "magm": 4592,
      "ark": 4593,
      "arbit": 4594,
      "maukod": 4595,
      "pangd": 4596,
      "ginpak": 4597,
      "kalas": 4598,
      "apr": 4599,
      "pagpangb": 4600,
      "mapan": 4601,
      "##ublic": 4602,
      "buligan": 4603,
      "dugmukon": 4604,
      "##balay": 4605,
      "ginsulod": 4606,
      "nahangpan": 4607,
      "gamhanan": 4608,
      "naghalad": 4609,
      "nagadako": 4610,
      "grupong": 4611,
      "ginpasingki": 4612,
      "tayuyon": 4613,
      "gatos": 4614,
      "humay": 4615,
      "reyes": 4616,
      "pananom": 4617,
      "tiraniya": 4618,
      "##rehensive": 4619,
      "santol": 4620,
      "ginreport": 4621,
      "responsable": 4622,
      "comprehensive": 4623,
      "pedro": 4624,
      "soberanya": 4625,
      "##ayasat": 4626,
      "kasingkasing": 4627,
      "focused": 4628,
      "tekn": 4629,
      "cotabato": 4630,
      "haci": 4631,
      "eroplano": 4632,
      "aahmir": 4633,
      "arbitr": 4634,
      "biden": 4635,
      "higad": 4636,
      "jer": 4637,
      "layo": 4638,
      "my": 4639,
      "tac": 4640,
      "ur": 4641,
      "uhaw": 4642,
      "##naw": 4643,
      "##pet": 4644,
      "##sura": 4645,
      "##lam": 4646,
      "##rol": 4647,
      "##bado": 4648,
      "##baron": 4649,
      "##age": 4650,
      "##ayaran": 4651,
      "##ililipon": 4652,
      "pagpukaw": 4653,
      "maes": 4654,
      "##lantaw": 4655,
      "malik": 4656,
      "ginpan": 4657,
      "katipunan": 4658,
      "ginapakita": 4659,
      "komit": 4660,
      "nagpabilin": 4661,
      "nagaserbi": 4662,
      "ginbun": 4663,
      "pagpaniro": 4664,
      "hinanali": 4665,
      "##usten": 4666,
      "ginasiling": 4667,
      "internal": 4668,
      "pamatyag": 4669,
      "cord": 4670,
      "sabton": 4671,
      "segurado": 4672,
      "dinast": 4673,
      "intelligence": 4674,
      "imprastr": 4675,
      "econom": 4676,
      "industriyalis": 4677,
      "kaswalti": 4678,
      "imbolbado": 4679,
      "unibersidad": 4680,
      "buy": 4681,
      "bubon": 4682,
      "bdp": 4683,
      "dak": 4684,
      "kn": 4685,
      "lgu": 4686,
      "tre": 4687,
      "tampad": 4688,
      "tuhoy": 4689,
      "yang": 4690,
      "##uz": 4691,
      "##ger": 4692,
      "##kan": 4693,
      "##yento": 4694,
      "##9ib": 4695,
      "##ones": 4696,
      "##atubig": 4697,
      "##ulba": 4698,
      "##adinalag": 4699,
      "##umpa": 4700,
      "##abang": 4701,
      "##abuhi": 4702,
      "##awas": 4703,
      "nia": 4704,
      "remo": 4705,
      "masaligan": 4706,
      "##udo": 4707,
      "##hana": 4708,
      "##red": 4709,
      "pamunoan": 4710,
      "akig": 4711,
      "##lawig": 4712,
      "oposisyon": 4713,
      "kapilya": 4714,
      "pagsolbar": 4715,
      "palm": 4716,
      "paghin": 4717,
      "tubo": 4718,
      "mabin": 4719,
      "bulawan": 4720,
      "bulner": 4721,
      "gintulok": 4722,
      "magpad": 4723,
      "##ansagan": 4724,
      "ginkilala": 4725,
      "magsulod": 4726,
      "nagadaku": 4727,
      "kahimuan": 4728,
      "court": 4729,
      "ginadum": 4730,
      "##klamo": 4731,
      "suriga": 4732,
      "hambalon": 4733,
      "makasiligni": 4734,
      "espirit": 4735,
      "paggwa": 4736,
      "punto": 4737,
      "juanito": 4738,
      "palestine": 4739,
      "pribat": 4740,
      "atrasado": 4741,
      "nagmartsa": 4742,
      "gov": 4743,
      "nahamtang": 4744,
      "nakahibalo": 4745,
      "sipalay": 4746,
      "health": 4747,
      "nagakadapat": 4748,
      "peligro": 4749,
      "padihot": 4750,
      "permanente": 4751,
      "migrante": 4752,
      "cans": 4753,
      "damian": 4754,
      "hap": 4755,
      "mun": 4756,
      "pormal": 4757,
      "tir": 4758,
      "##ren": 4759,
      "##gamay": 4760,
      "##atra": 4761,
      "##atiko": 4762,
      "##akh": 4763,
      "##yad": 4764,
      "##erasyon": 4765,
      "##isito": 4766,
      "##ahom": 4767,
      "##ores": 4768,
      "##iket": 4769,
      "##imtan": 4770,
      "##ibag": 4771,
      "##lagas": 4772,
      "##tool": 4773,
      "##urog": 4774,
      "areg": 4775,
      "artik": 4776,
      "ibang": 4777,
      "agresyon": 4778,
      "pangibabawan": 4779,
      "ginpasaka": 4780,
      "ginpirmahan": 4781,
      "##obr": 4782,
      "katuwang": 4783,
      "pasado": 4784,
      "tray": 4785,
      "kalaw": 4786,
      "##ahanugutan": 4787,
      "mapah": 4788,
      "##unson": 4789,
      "pagpamintas": 4790,
      "organization": 4791,
      "nagalapad": 4792,
      "ginduso": 4793,
      "pagpanumpo": 4794,
      "nagabug": 4795,
      "magsurender": 4796,
      "nagadamo": 4797,
      "nagdalagan": 4798,
      "untaton": 4799,
      "nalip": 4800,
      "makahibalo": 4801,
      "garuk": 4802,
      "calatra": 4803,
      "butkon": 4804,
      "distrito": 4805,
      "budak": 4806,
      "praktika": 4807,
      "prayoridad": 4808,
      "hacienda": 4809,
      "imprastraktura": 4810,
      "espiritu": 4811,
      "calatrava": 4812,
      "dumdumon": 4813,
      "eastern": 4814,
      "not": 4815,
      "tinao": 4816,
      "utan": 4817,
      "##onya": 4818,
      "##all": 4819,
      "##alibad": 4820,
      "naagum": 4821,
      "##akon": 4822,
      "##uligan": 4823,
      "##iska": 4824,
      "##eno": 4825,
      "##ikopter": 4826,
      "##ibre": 4827,
      "retool": 4828,
      "ibde": 4829,
      "agc": 4830,
      "katambi": 4831,
      "bantay": 4832,
      "pagsuporta": 4833,
      "palig": 4834,
      "##umpong": 4835,
      "##ubli": 4836,
      "chr": 4837,
      "nagahil": 4838,
      "##asakit": 4839,
      "anton": 4840,
      "resorsa": 4841,
      "teray": 4842,
      "ginauyatan": 4843,
      "##angkad": 4844,
      "kilusang": 4845,
      "makabuhi": 4846,
      "tapnaon": 4847,
      "tsina": 4848,
      "quint": 4849,
      "##alupangod": 4850,
      "danoy": 4851,
      "##andaman": 4852,
      "implasyon": 4853,
      "state": 4854,
      "helikopter": 4855,
      "kawayan": 4856,
      "panapton": 4857,
      "surigao": 4858,
      "artikulo": 4859,
      "retooled": 4860,
      "aqu": 4861,
      "duso": 4862,
      "end": 4863,
      "gre": 4864,
      "rand": 4865,
      "sors": 4866,
      "tor": 4867,
      "##yd": 4868,
      "##ven": 4869,
      "##amin": 4870,
      "##apol": 4871,
      "##osatubig": 4872,
      "nagtaas": 4873,
      "pagpati": 4874,
      "##uraw": 4875,
      "##ures": 4876,
      "##andambong": 4877,
      "##lans": 4878,
      "nagapab": 4879,
      "usisa": 4880,
      "ginapan": 4881,
      "ilig": 4882,
      "##alagyo": 4883,
      "gintortyur": 4884,
      "nagakap": 4885,
      "ginahatagan": 4886,
      "nagalunsar": 4887,
      "salamat": 4888,
      "kampus": 4889,
      "awon": 4890,
      "makapa": 4891,
      "eksper": 4892,
      "obid": 4893,
      "##impyo": 4894,
      "paglaum": 4895,
      "makinarya": 4896,
      "limitado": 4897,
      "margosatubig": 4898,
      "##alahig": 4899,
      "absoluto": 4900,
      "##beylans": 4901,
      "sorsogon": 4902,
      "baw": 4903,
      "bihag": 4904,
      "dos": 4905,
      "huya": 4906,
      "lamb": 4907,
      "lisa": 4908,
      "mong": 4909,
      "natigayon": 4910,
      "zone": 4911,
      "##pos": 4912,
      "##pakan": 4913,
      "##uad": 4914,
      "##cil": 4915,
      "##are": 4916,
      "kagar": 4917,
      "##iti": 4918,
      "##ispo": 4919,
      "##uboy": 4920,
      "##igi": 4921,
      "##esisyon": 4922,
      "##uti": 4923,
      "##ugh": 4924,
      "##dion": 4925,
      "maid": 4926,
      "##rehiyon": 4927,
      "pamens": 4928,
      "kahapon": 4929,
      "mapunggan": 4930,
      "nagpab": 4931,
      "nagpalapit": 4932,
      "all": 4933,
      "pagluntad": 4934,
      "magpadayon": 4935,
      "ipanawagan": 4936,
      "nagtuhaw": 4937,
      "lamesa": 4938,
      "194": 4939,
      "german": 4940,
      "ginsilotan": 4941,
      "##iwatan": 4942,
      "##undar": 4943,
      "karibal": 4944,
      "pagpanubo": 4945,
      "enhan": 4946,
      "labor": 4947,
      "magban": 4948,
      "tapaz": 4949,
      "importansya": 4950,
      "makasahi": 4951,
      "negosasyon": 4952,
      "igt": 4953,
      "joint": 4954,
      "medyo": 4955,
      "estratehiya": 4956,
      "rosel": 4957,
      "rebel": 4958,
      "##alawsaw": 4959,
      "sibuy": 4960,
      "patriyotiko": 4961,
      "roxas": 4962,
      "instrumento": 4963,
      "mommy": 4964,
      "govern": 4965,
      "bon": 4966,
      "doble": 4967,
      "hayag": 4968,
      "lat": 4969,
      "sud": 4970,
      "tob": 4971,
      "##lis": 4972,
      "##rih": 4973,
      "##hum": 4974,
      "##tion": 4975,
      "##jc": 4976,
      "##ald": 4977,
      "##alat": 4978,
      "kaiping": 4979,
      "##erbat": 4980,
      "##isyunal": 4981,
      "##umo": 4982,
      "##awanon": 4983,
      "##yog": 4984,
      "nagataas": 4985,
      "##usot": 4986,
      "##ikta": 4987,
      "##utok": 4988,
      "manong": 4989,
      "manuel": 4990,
      "##ingot": 4991,
      "kadamo": 4992,
      "pasyente": 4993,
      "pagbaligya": 4994,
      "kape": 4995,
      "kapid": 4996,
      "pagpanguma": 4997,
      "pagsuma": 4998,
      "asjc": 4999,
      "nagpadayon": 5000,
      "mahimu": 5001,
      "subongman": 5002,
      "##ehiyo": 5003,
      "bulag": 5004,
      "magpak": 5005,
      "ginsiling": 5006,
      "php": 5007,
      "ulit": 5008,
      "kahublagang": 5009,
      "ginakilala": 5010,
      "ginakuhaan": 5011,
      "entra": 5012,
      "magsulong": 5013,
      "tiglawas": 5014,
      "sistematiko": 5015,
      "konserbat": 5016,
      "cooper": 5017,
      "depensiba": 5018,
      "pagas": 5019,
      "metr": 5020,
      "kanday": 5021,
      "1980": 5022,
      "sablag": 5023,
      "pusisyon": 5024,
      "cruz": 5025,
      "ginsuguran": 5026,
      "general": 5027,
      "julius": 5028,
      "action": 5029,
      "ginapamunuan": 5030,
      "sunud": 5031,
      "intim": 5032,
      "inosenteng": 5033,
      "rogelio": 5034,
      "cocoy": 5035,
      "pinasahi": 5036,
      "pribatisasyon": 5037,
      "pamensaron": 5038,
      "54": 5039,
      "dip": 5040,
      "hubog": 5041,
      "jet": 5042,
      "joh": 5043,
      "kw": 5044,
      "ron": 5045,
      "tamb": 5046,
      "tapos": 5047,
      "tante": 5048,
      "##dor": 5049,
      "##dom": 5050,
      "##ps": 5051,
      "##rab": 5052,
      "##rano": 5053,
      "##ega": 5054,
      "##ty": 5055,
      "##inag": 5056,
      "naangkon": 5057,
      "##aks": 5058,
      "inang": 5059,
      "inom": 5060,
      "##awad": 5061,
      "##yora": 5062,
      "nagahimakas": 5063,
      "##idel": 5064,
      "##iglawas": 5065,
      "##ugang": 5066,
      "##ugilanon": 5067,
      "ans": 5068,
      "##elada": 5069,
      "dela": 5070,
      "kahon": 5071,
      "kahangawa": 5072,
      "kapareho": 5073,
      "pagsaka": 5074,
      "mabaty": 5075,
      "##umpiska": 5076,
      "diwa": 5077,
      "bulawanon": 5078,
      "ginting": 5079,
      "paglakat": 5080,
      "##anginwala": 5081,
      "##uwasan": 5082,
      "teroristang": 5083,
      "magkuha": 5084,
      "shuboy": 5085,
      "1986": 5086,
      "ginpasibangdan": 5087,
      "##hermoso": 5088,
      "victor": 5089,
      "petisyon": 5090,
      "bise": 5091,
      "ginpamunuan": 5092,
      "dokumento": 5093,
      "siguruhon": 5094,
      "proteksyon": 5095,
      "vallehermoso": 5096,
      "tonelada": 5097,
      "purok": 5098,
      "nagahiliugyon": 5099,
      "magbanua": 5100,
      "ulitawo": 5101,
      "john": 5102,
      "36": 5103,
      "39": 5104,
      "aur": 5105,
      "damo": 5106,
      "idion": 5107,
      "misay": 5108,
      "rap": 5109,
      "utok": 5110,
      "##daan": 5111,
      "##pis": 5112,
      "##gitan": 5113,
      "##rod": 5114,
      "##yent": 5115,
      "##bayan": 5116,
      "##angh": 5117,
      "##asaligan": 5118,
      "##arat": 5119,
      "##ayran": 5120,
      "kauswagan": 5121,
      "##iligad": 5122,
      "##umba": 5123,
      "##abelle": 5124,
      "##utik": 5125,
      "pagpalangga": 5126,
      "pagpandambong": 5127,
      "##udahan": 5128,
      "##ilaab": 5129,
      "##anduraw": 5130,
      "##uportahan": 5131,
      "pangin": 5132,
      "nakilala": 5133,
      "kahil": 5134,
      "pasalig": 5135,
      "##emor": 5136,
      "unahan": 5137,
      "pagtimbuok": 5138,
      "kalag": 5139,
      "padayunon": 5140,
      "pinansya": 5141,
      "ikat": 5142,
      "chief": 5143,
      "nagasulong": 5144,
      "##resibong": 5145,
      "nahitabo": 5146,
      "##ansoy": 5147,
      "salog": 5148,
      "disempleyo": 5149,
      "supre": 5150,
      "gindumdom": 5151,
      "binhi": 5152,
      "signip": 5153,
      "ginasulong": 5154,
      "okasyon": 5155,
      "buas": 5156,
      "##ondohan": 5157,
      "awayan": 5158,
      "posibilidad": 5159,
      "##telya": 5160,
      "liberalismo": 5161,
      "nahibaluan": 5162,
      "seryoso": 5163,
      "pagpanghalit": 5164,
      "nakalunsar": 5165,
      "##awhanon": 5166,
      "paborable": 5167,
      "kunden": 5168,
      "camar": 5169,
      "1972": 5170,
      "laragway": 5171,
      "sosyalistang": 5172,
      "palangga": 5173,
      "superyor": 5174,
      "australia": 5175,
      "paghangup": 5176,
      "kapalpakan": 5177,
      "traidor": 5178,
      "group": 5179,
      "tantos": 5180,
      "tradisyunal": 5181,
      "dandansoy": 5182,
      "kuwar": 5183,
      "aquino": 5184,
      "misayl": 5185,
      "2nd": 5186,
      "3id": 5187,
      "cle": 5188,
      "dil": 5189,
      "dad": 5190,
      "hak": 5191,
      "joma": 5192,
      "out": 5193,
      "pina": 5194,
      "sta": 5195,
      "##if": 5196,
      "##lima": 5197,
      "sari": 5198,
      "##inado": 5199,
      "##inasyunal": 5200,
      "##alahan": 5201,
      "##ating": 5202,
      "##ateral": 5203,
      "kaup": 5204,
      "##yaga": 5205,
      "##ads": 5206,
      "##ermon": 5207,
      "##aman": 5208,
      "##isi": 5209,
      "##isyun": 5210,
      "##unot": 5211,
      "sikreto": 5212,
      "##ubay": 5213,
      "##usok": 5214,
      "##ike": 5215,
      "pagpasaka": 5216,
      "##omen": 5217,
      "##iporm": 5218,
      "##elas": 5219,
      "ibalik": 5220,
      "deta": 5221,
      "malutos": 5222,
      "##mpo": 5223,
      "##bolusyon": 5224,
      "pagkaguba": 5225,
      "kasubo": 5226,
      "balhas": 5227,
      "pasabton": 5228,
      "abanse": 5229,
      "pagbukas": 5230,
      "palpak": 5231,
      "nagpungko": 5232,
      "##uyod": 5233,
      "mabakod": 5234,
      "ilang": 5235,
      "patubig": 5236,
      "##baligya": 5237,
      "halambalanon": 5238,
      "##eport": 5239,
      "bayu": 5240,
      "binilyon": 5241,
      "carh": 5242,
      "babaylan": 5243,
      "kawsa": 5244,
      "pinakamalapad": 5245,
      "manugp": 5246,
      "tabunan": 5247,
      "conc": 5248,
      "dalagkuan": 5249,
      "kasugpon": 5250,
      "##adlawan": 5251,
      "duag": 5252,
      "ginpabaskog": 5253,
      "sentralismo": 5254,
      "komersyal": 5255,
      "##orism": 5256,
      "multinasyunal": 5257,
      "##ulbaan": 5258,
      "council": 5259,
      "##rihl": 5260,
      "signipik": 5261,
      "camarines": 5262,
      "ayo": 5263,
      "east": 5264,
      "ja": 5265,
      "just": 5266,
      "lolo": 5267,
      "nueva": 5268,
      "river": 5269,
      "sw": 5270,
      "##iang": 5271,
      "##uayan": 5272,
      "##gin": 5273,
      "##hang": 5274,
      "##yum": 5275,
      "##alos": 5276,
      "##alasa": 5277,
      "##arga": 5278,
      "##ayop": 5279,
      "pagmanupaktura": 5280,
      "##adtuan": 5281,
      "nagagamit": 5282,
      "nagahana": 5283,
      "##idlaw": 5284,
      "##imaan": 5285,
      "##utod": 5286,
      "pagpalig": 5287,
      "manog": 5288,
      "##uripon": 5289,
      "##trahud": 5290,
      "kondi": 5291,
      "##oke": 5292,
      "mary": 5293,
      "##ugakom": 5294,
      "maluya": 5295,
      "pamuhunan": 5296,
      "nakit": 5297,
      "kahiwatan": 5298,
      "##ambog": 5299,
      "pasap": 5300,
      "bantog": 5301,
      "pagbaskog": 5302,
      "pagpangibabaw": 5303,
      "pagsin": 5304,
      "##etibo": 5305,
      "nagliligad": 5306,
      "organisador": 5307,
      "kinamatarong": 5308,
      "ginhawa": 5309,
      "pagdaku": 5310,
      "pangkultura": 5311,
      "petrol": 5312,
      "namartir": 5313,
      "##chment": 5314,
      "hunahuna": 5315,
      "150": 5316,
      "##porter": 5317,
      "pkm": 5318,
      "tanom": 5319,
      "pagkapatay": 5320,
      "agrikultural": 5321,
      "mapanghalit": 5322,
      "makitawhanon": 5323,
      "saywar": 5324,
      "talakayan": 5325,
      "angelica": 5326,
      "tumuluon": 5327,
      "terrorism": 5328,
      "alipures": 5329,
      "kapulisan": 5330,
      "komiteng": 5331,
      "enhanced": 5332,
      "intimidasyon": 5333,
      "mabatyagan": 5334,
      "carhrihl": 5335,
      "signipikante": 5336,
      "##trahudisyal": 5337,
      "38": 5338,
      "bok": 5339,
      "budl": 5340,
      "baliskad": 5341,
      "chan": 5342,
      "calin": 5343,
      "duk": 5344,
      "gon": 5345,
      "hangkat": 5346,
      "justo": 5347,
      "kem": 5348,
      "mont": 5349,
      "pon": 5350,
      "tadl": 5351,
      "tama": 5352,
      "##pot": 5353,
      "##gon": 5354,
      "##kot": 5355,
      "##ja": 5356,
      "##ñang": 5357,
      "##anto": 5358,
      "##alip": 5359,
      "##ulungan": 5360,
      "##adas": 5361,
      "##isado": 5362,
      "nagaantus": 5363,
      "##usisa": 5364,
      "##uting": 5365,
      "pagpap": 5366,
      "pagpalayas": 5367,
      "mans": 5368,
      "##ipuson": 5369,
      "##uksan": 5370,
      "agresibo": 5371,
      "##obispo": 5372,
      "##ative": 5373,
      "nagapamat": 5374,
      "matawhay": 5375,
      "bili": 5376,
      "kalidad": 5377,
      "apol": 5378,
      "opisina": 5379,
      "mapag": 5380,
      "##ensar": 5381,
      "paghilway": 5382,
      "illegal": 5383,
      "buli": 5384,
      "nagserbe": 5385,
      "games": 5386,
      "disimp": 5387,
      "pagpanayasat": 5388,
      "guer": 5389,
      "kakinahanglanon": 5390,
      "##ingkad": 5391,
      "ginabug": 5392,
      "##ction": 5393,
      "ekstrahudisyal": 5394,
      "elektron": 5395,
      "donabelle": 5396,
      "ginpaidalom": 5397,
      "pagpangamuyo": 5398,
      "propes": 5399,
      "malaca": 5400,
      "pampubliko": 5401,
      "##illera": 5402,
      "rekord": 5403,
      "paglagas": 5404,
      "sentrong": 5405,
      "testing": 5406,
      "sangkap": 5407,
      "water": 5408,
      "kalapasan": 5409,
      "arsobispo": 5410,
      "detensyon": 5411,
      "malikawan": 5412,
      "cordillera": 5413,
      "bulnerable": 5414,
      "germany": 5415,
      "sibuyas": 5416,
      "suprema": 5417,
      "pasaporte": 5418,
      "tadlungon": 5419,
      "malacañang": 5420,
      "cand": 5421,
      "filipin": 5422,
      "gap": 5423,
      "kop": 5424,
      "nanga": 5425,
      "pelle": 5426,
      "su": 5427,
      "susten": 5428,
      "talap": 5429,
      "##dam": 5430,
      "##mas": 5431,
      "##ls": 5432,
      "##ear": 5433,
      "##cel": 5434,
      "##jo": 5435,
      "##angot": 5436,
      "##agod": 5437,
      "saf": 5438,
      "##alangay": 5439,
      "##ark": 5440,
      "kainit": 5441,
      "##ilang": 5442,
      "##akr": 5443,
      "##ahero": 5444,
      "##osyo": 5445,
      "nagaoperasyon": 5446,
      "nagdugang": 5447,
      "##toy": 5448,
      "##iple": 5449,
      "##uhol": 5450,
      "arev": 5451,
      "mait": 5452,
      "katre": 5453,
      "katawo": 5454,
      "madulom": 5455,
      "usa": 5456,
      "kasapatan": 5457,
      "abaka": 5458,
      "pagbayad": 5459,
      "natukod": 5460,
      "pwesto": 5461,
      "paglab": 5462,
      "off": 5463,
      "nagahulag": 5464,
      "krist": 5465,
      "magpat": 5466,
      "nagtukod": 5467,
      "nagtambong": 5468,
      "##ress": 5469,
      "##ansang": 5470,
      "osm": 5471,
      "pagpaninguha": 5472,
      "pagpanulsol": 5473,
      "magsunod": 5474,
      "hinabunan": 5475,
      "linyang": 5476,
      "maghambal": 5477,
      "##alikdan": 5478,
      "makatawo": 5479,
      "obr": 5480,
      "positibo": 5481,
      "alagaran": 5482,
      "gasol": 5483,
      "kadamuon": 5484,
      "nakaligad": 5485,
      "ginpamatay": 5486,
      "dolyar": 5487,
      "konsolid": 5488,
      "pagdumili": 5489,
      "pagpanagtag": 5490,
      "##vision": 5491,
      "okupasyon": 5492,
      "officer": 5493,
      "economic": 5494,
      "government": 5495,
      "kaupdanan": 5496,
      "budlasan": 5497,
      "calinog": 5498,
      "disimpormasyon": 5499,
      "arevalo": 5500,
      "33": 5501,
      "alaw": 5502,
      "bde": 5503,
      "do": 5504,
      "dya": 5505,
      "ku": 5506,
      "tinguha": 5507,
      "will": 5508,
      "##pers": 5509,
      "##stem": 5510,
      "##uio": 5511,
      "##long": 5512,
      "##ral": 5513,
      "##rus": 5514,
      "##kong": 5515,
      "##gam": 5516,
      "sapa": 5517,
      "sagay": 5518,
      "##alipay": 5519,
      "##arry": 5520,
      "##ulay": 5521,
      "##ulanan": 5522,
      "##unay": 5523,
      "##idn": 5524,
      "##ungo": 5525,
      "manindugan": 5526,
      "magre": 5527,
      "##mok": 5528,
      "prangk": 5529,
      "proc": 5530,
      "maab": 5531,
      "##led": 5532,
      "maduguon": 5533,
      "##ambok": 5534,
      "trump": 5535,
      "pagtalana": 5536,
      "mapagsik": 5537,
      "##ensahan": 5538,
      "##iyahan": 5539,
      "##ick": 5540,
      "naglakat": 5541,
      "paglala": 5542,
      "##acio": 5543,
      "cha": 5544,
      "magpang": 5545,
      "minor": 5546,
      "ginatan": 5547,
      "##bilanggo": 5548,
      "##angabay": 5549,
      "ginbasura": 5550,
      "pagpaniplang": 5551,
      "bayad": 5552,
      "bugtong": 5553,
      "pagkatawo": 5554,
      "##istina": 5555,
      "paka": 5556,
      "kakulba": 5557,
      "nagdako": 5558,
      "makabig": 5559,
      "carp": 5560,
      "babayi": 5561,
      "pangamuyo": 5562,
      "posadas": 5563,
      "cauayan": 5564,
      "1987": 5565,
      "botelya": 5566,
      "damgo": 5567,
      "maoist": 5568,
      "quarry": 5569,
      "nagakahulugan": 5570,
      "ginapangita": 5571,
      "pagtanom": 5572,
      "santos": 5573,
      "tigpangapin": 5574,
      "bungol": 5575,
      "responsibilidad": 5576,
      "workers": 5577,
      "jean": 5578,
      "dunang": 5579,
      "tagasuporta": 5580,
      "pabayaron": 5581,
      "kaingod": 5582,
      "kalasangan": 5583,
      "ikatatlo": 5584,
      "detachment": 5585,
      "fmo": 5586,
      "king": 5587,
      "mic": 5588,
      "pormasyon": 5589,
      "ray": 5590,
      "taas": 5591,
      "##our": 5592,
      "##ganan": 5593,
      "##ris": 5594,
      "##tut": 5595,
      "##bot": 5596,
      "##79ib": 5597,
      "##ague": 5598,
      "##alsik": 5599,
      "kagutom": 5600,
      "##ulsa": 5601,
      "##erba": 5602,
      "##isahan": 5603,
      "ginransak": 5604,
      "##apter": 5605,
      "inv": 5606,
      "##igda": 5607,
      "##ikto": 5608,
      "##ikada": 5609,
      "naghimo": 5610,
      "##ungtong": 5611,
      "##alauma": 5612,
      "masin": 5613,
      "makakita": 5614,
      "ginpamat": 5615,
      "mangita": 5616,
      "pamugon": 5617,
      "pamalay": 5618,
      "militarista": 5619,
      "panit": 5620,
      "panibag": 5621,
      "kasan": 5622,
      "##igado": 5623,
      "##amba": 5624,
      "kalan": 5625,
      "kalay": 5626,
      "kooper": 5627,
      "palas": 5628,
      "nagpakita": 5629,
      "altar": 5630,
      "adb": 5631,
      "admin": 5632,
      "baguio": 5633,
      "basa": 5634,
      "gintudlo": 5635,
      "interb": 5636,
      "##toridad": 5637,
      "##askug": 5638,
      "nagtulod": 5639,
      "pabalik": 5640,
      "ginhal": 5641,
      "ginhalinan": 5642,
      "tinion": 5643,
      "lapas": 5644,
      "nagabusong": 5645,
      "edsa": 5646,
      "hinay": 5647,
      "pakam": 5648,
      "politika": 5649,
      "element": 5650,
      "pagak": 5651,
      "agric": 5652,
      "pamatuod": 5653,
      "##guwa": 5654,
      "tsip": 5655,
      "tsup": 5656,
      "milag": 5657,
      "maisip": 5658,
      "##imuslanon": 5659,
      "beato": 5660,
      "system": 5661,
      "power": 5662,
      "meling": 5663,
      "free": 5664,
      "aksyong": 5665,
      "dimasaligan": 5666,
      "##isyaryo": 5667,
      "maniobra": 5668,
      "arbitraryo": 5669,
      "cansermon": 5670,
      "mongtut": 5671,
      "igtalupangod": 5672,
      "roselyn": 5673,
      "daddy": 5674,
      "gonz": 5675,
      "kemikal": 5676,
      "prangkisa": 5677,
      "dimasaligan79ib": 5678,
      "bun": 5679,
      "bos": 5680,
      "bati": 5681,
      "doc": 5682,
      "ging": 5683,
      "hita": 5684,
      "lip": 5685,
      "rub": 5686,
      "tang": 5687,
      "##ook": 5688,
      "##uib": 5689,
      "##kal": 5690,
      "##arya": 5691,
      "##ilyang": 5692,
      "naigo": 5693,
      "##erensya": 5694,
      "##amangkot": 5695,
      "##umala": 5696,
      "##abog": 5697,
      "nagabato": 5698,
      "##estr": 5699,
      "nagtang": 5700,
      "##ugs": 5701,
      "rehi": 5702,
      "paathag": 5703,
      "##urso": 5704,
      "##okan": 5705,
      "##lement": 5706,
      "nagapah": 5707,
      "kahibalo": 5708,
      "##ambak": 5709,
      "armando": 5710,
      "##agar": 5711,
      "pagtin": 5712,
      "pagtul": 5713,
      "##maitan": 5714,
      "##yano": 5715,
      "pagbagsak": 5716,
      "pagpangutang": 5717,
      "##ross": 5718,
      "nagpan": 5719,
      "pinuno": 5720,
      "gintigayon": 5721,
      "kamut": 5722,
      "kumprehensibo": 5723,
      "nagatulod": 5724,
      "tagp": 5725,
      "naghambal": 5726,
      "##alapitan": 5727,
      "magsalig": 5728,
      "edca": 5729,
      "hinimo": 5730,
      "progresibong": 5731,
      "magbub": 5732,
      "desays": 5733,
      "##anagtag": 5734,
      "nakapokus": 5735,
      "likawan": 5736,
      "pagpauli": 5737,
      "tsek": 5738,
      "pispis": 5739,
      "seguro": 5740,
      "##inario": 5741,
      "senador": 5742,
      "gatmaitan": 5743,
      "##alupangdan": 5744,
      "magalab": 5745,
      "tigpamaba": 5746,
      "bolunt": 5747,
      "liog": 5748,
      "tumuluo": 5749,
      "terror": 5750,
      "tribunal": 5751,
      "pagbinuligay": 5752,
      "bilanggong": 5753,
      "reform": 5754,
      "jorge": 5755,
      "apolinario": 5756,
      "tsuper": 5757,
      "90": 5758,
      "ac": 5759,
      "bayo": 5760,
      "her": 5761,
      "ihon": 5762,
      "mob": 5763,
      "puya": 5764,
      "sona": 5765,
      "vir": 5766,
      "##oto": 5767,
      "##nam": 5768,
      "##poy": 5769,
      "##salon": 5770,
      "##uay": 5771,
      "##uanan": 5772,
      "##lus": 5773,
      "##hig": 5774,
      "##ingaw": 5775,
      "##asi": 5776,
      "pagres": 5777,
      "##erland": 5778,
      "ginasak": 5779,
      "ginabatyag": 5780,
      "##apay": 5781,
      "##apekt": 5782,
      "##unong": 5783,
      "##ikado": 5784,
      "##imate": 5785,
      "pagpabilin": 5786,
      "##uhaduha": 5787,
      "isn": 5788,
      "iskw": 5789,
      "##tain": 5790,
      "makina": 5791,
      "maalam": 5792,
      "##let": 5793,
      "##ugahon": 5794,
      "pamangk": 5795,
      "aklan": 5796,
      "pagkamatuod": 5797,
      "bilyong": 5798,
      "pasidungog": 5799,
      "unang": 5800,
      "uniporm": 5801,
      "abra": 5802,
      "bant": 5803,
      "banog": 5804,
      "paliwat": 5805,
      "##ensiya": 5806,
      "asemb": 5807,
      "maham": 5808,
      "mahilway": 5809,
      "ilim": 5810,
      "napan": 5811,
      "patrol": 5812,
      "nagahin": 5813,
      "magpan": 5814,
      "mineral": 5815,
      "##antala": 5816,
      "nagasunod": 5817,
      "ginhin": 5818,
      "salsalon": 5819,
      "sanang": 5820,
      "tiglik": 5821,
      "dalagita": 5822,
      "seksyon": 5823,
      "makabalik": 5824,
      "commander": 5825,
      "peoples": 5826,
      "agraryong": 5827,
      "obh": 5828,
      "silay": 5829,
      "##umdoman": 5830,
      "magapadayon": 5831,
      "##cao": 5832,
      "narek": 5833,
      "henerasyon": 5834,
      "pribadong": 5835,
      "benepisyaryo": 5836,
      "##alupangdon": 5837,
      "magpauli": 5838,
      "##wersa": 5839,
      "relihi": 5840,
      "valley": 5841,
      "antipyudal": 5842,
      "##akhak": 5843,
      "antonio": 5844,
      "kagarukan": 5845,
      "ansestr": 5846,
      "duktor": 5847,
      "talapuanan": 5848,
      "kooperatiba": 5849,
      "administr": 5850,
      "magbubukid": 5851,
      "iskwad": 5852,
      "tiglikom": 5853,
      "ansestral": 5854,
      "47th": 5855,
      "civ": 5856,
      "fern": 5857,
      "ge": 5858,
      "gum": 5859,
      "hang": 5860,
      "kg": 5861,
      "kis": 5862,
      "mens": 5863,
      "pla": 5864,
      "yadtong": 5865,
      "##danay": 5866,
      "##sud": 5867,
      "##wapo": 5868,
      "##aragway": 5869,
      "##iting": 5870,
      "##itatibo": 5871,
      "##abd": 5872,
      "##aban": 5873,
      "##ahay": 5874,
      "##ency": 5875,
      "nagauy": 5876,
      "##utikan": 5877,
      "##olar": 5878,
      "park": 5879,
      "##uhos": 5880,
      "##ukat": 5881,
      "masolbar": 5882,
      "##andog": 5883,
      "##elec": 5884,
      "##ugayan": 5885,
      "kabata": 5886,
      "ginpilit": 5887,
      "ginpapanaog": 5888,
      "nagapak": 5889,
      "nagapungko": 5890,
      "katig": 5891,
      "atensyon": 5892,
      "pant": 5893,
      "pagbasura": 5894,
      "natingala": 5895,
      "amn": 5896,
      "pagsunod": 5897,
      "##etnam": 5898,
      "paghambal": 5899,
      "mahimuslanon": 5900,
      "ilusyon": 5901,
      "kontrolon": 5902,
      "malapnagon": 5903,
      "nagakadto": 5904,
      "karun": 5905,
      "pagda": 5906,
      "pagdukot": 5907,
      "pagpanalakay": 5908,
      "ginkastigo": 5909,
      "maghalin": 5910,
      "##ustuhan": 5911,
      "solar": 5912,
      "lakat": 5913,
      "kinaad": 5914,
      "buksan": 5915,
      "itib": 5916,
      "obl": 5917,
      "tumuron": 5918,
      "board": 5919,
      "ginapasibangdan": 5920,
      "₱20": 5921,
      "pagpamatok": 5922,
      "ginapaabot": 5923,
      "temprano": 5924,
      "##loke": 5925,
      "puv": 5926,
      "lasang": 5927,
      "nagpadulong": 5928,
      "lampas": 5929,
      "nations": 5930,
      "vietnam": 5931,
      "bungkagon": 5932,
      "kondisyon": 5933,
      "ponso": 5934,
      "invest": 5935,
      "desaysibo": 5936,
      "##apektuhan": 5937,
      "mensahe": 5938,
      "400": 5939,
      "85": 5940,
      "amp": 5941,
      "bod": 5942,
      "blo": 5943,
      "camp": 5944,
      "dila": 5945,
      "eh": 5946,
      "fat": 5947,
      "flo": 5948,
      "fidel": 5949,
      "glob": 5950,
      "jos": 5951,
      "mut": 5952,
      "nasak": 5953,
      "pili": 5954,
      "tung": 5955,
      "wuting": 5956,
      "##nal": 5957,
      "##nila": 5958,
      "##nel": 5959,
      "##sar": 5960,
      "##ralin": 5961,
      "##riso": 5962,
      "##hel": 5963,
      "##yod": 5964,
      "##tur": 5965,
      "sara": 5966,
      "kama": 5967,
      "##ulagan": 5968,
      "##erdi": 5969,
      "##amit": 5970,
      "##istro": 5971,
      "ginag": 5972,
      "##umbalik": 5973,
      "##usta": 5974,
      "##ution": 5975,
      "##ugtaw": 5976,
      "##iber": 5977,
      "##tot": 5978,
      "pauli": 5979,
      "##uhinan": 5980,
      "##uki": 5981,
      "masabat": 5982,
      "market": 5983,
      "pangita": 5984,
      "##retar": 5985,
      "matam": 5986,
      "akun": 5987,
      "panag": 5988,
      "usoy": 5989,
      "balo": 5990,
      "pagtungod": 5991,
      "pagtililipon": 5992,
      "eskwela": 5993,
      "kaluwasan": 5994,
      "app": 5995,
      "pagbuhin": 5996,
      "barr": 5997,
      "nagpahayag": 5998,
      "impay": 5999,
      "implement": 6000,
      "suluguon": 6001,
      "iko": 6002,
      "##umpok": 6003,
      "##ublasan": 6004,
      "##tanom": 6005,
      "ipah": 6006,
      "nagtipon": 6007,
      "##alian": 6008,
      "lamh": 6009,
      "restr": 6010,
      "resour": 6011,
      "##ebook": 6012,
      "ginsaway": 6013,
      "ginsundan": 6014,
      "president": 6015,
      "ginhiwat": 6016,
      "tinuga": 6017,
      "komunikasyon": 6018,
      "hilamon": 6019,
      "salap": 6020,
      "supporter": 6021,
      "nagabulig": 6022,
      "magsabat": 6023,
      "edralin": 6024,
      "nagapangita": 6025,
      "pahay": 6026,
      "pahipuson": 6027,
      "##uyog": 6028,
      "##alaybay": 6029,
      "ginluthang": 6030,
      "build": 6031,
      "##aysik": 6032,
      "magbulig": 6033,
      "##alikod": 6034,
      "druga": 6035,
      "ginadudahan": 6036,
      "##alupad": 6037,
      "monte": 6038,
      "punta": 6039,
      "##losibo": 6040,
      "pinakaulihi": 6041,
      "love": 6042,
      "rosa": 6043,
      "gabriela": 6044,
      "1990": 6045,
      "julie": 6046,
      "handom": 6047,
      "plga": 6048,
      "melba": 6049,
      "ginmasaker": 6050,
      "magahatag": 6051,
      "subsidyo": 6052,
      "##wardya": 6053,
      "eksplosibo": 6054,
      "ugsaran": 6055,
      "facebook": 6056,
      "pagtamod": 6057,
      "kababaihan": 6058,
      "suportang": 6059,
      "industriyalisasyon": 6060,
      "munisip": 6061,
      "kalawasan": 6062,
      "toboso": 6063,
      "osmundo": 6064,
      "kalayuon": 6065,
      "kabataang": 6066,
      "kinaadman": 6067,
      "37": 6068,
      "53": 6069,
      "dikta": 6070,
      "lan": 6071,
      "mental": 6072,
      "nol": 6073,
      "##phon": 6074,
      "##hot": 6075,
      "##ete": 6076,
      "##col": 6077,
      "##yuhom": 6078,
      "##tol": 6079,
      "##work": 6080,
      "##20": 6081,
      "kaayo": 6082,
      "pagsaulog": 6083,
      "##abtanan": 6084,
      "nagaatubang": 6085,
      "##ikbit": 6086,
      "##ungsod": 6087,
      "##tom": 6088,
      "##ipiko": 6089,
      "anu": 6090,
      "##ukay": 6091,
      "masyado": 6092,
      "##diola": 6093,
      "##konsolida": 6094,
      "pangl": 6095,
      "##obo": 6096,
      "pamahug": 6097,
      "nagapanag": 6098,
      "matutom": 6099,
      "katampad": 6100,
      "negat": 6101,
      "panugod": 6102,
      "panugyan": 6103,
      "madata": 6104,
      "pasahero": 6105,
      "##ention": 6106,
      "##emanda": 6107,
      "unong": 6108,
      "kalang": 6109,
      "kalibre": 6110,
      "pagbulig": 6111,
      "##etso": 6112,
      "palawan": 6113,
      "nagpiket": 6114,
      "alalangay": 6115,
      "mahadlok": 6116,
      "tuigan": 6117,
      "kontribusyon": 6118,
      "##pinansya": 6119,
      "##acan": 6120,
      "chain": 6121,
      "kritiko": 6122,
      "magpah": 6123,
      "nagakinahanglan": 6124,
      "ginsabat": 6125,
      "tagu": 6126,
      "##insar": 6127,
      "pagpanalawsaw": 6128,
      "ginakangil": 6129,
      "binulan": 6130,
      "indones": 6131,
      "paksyon": 6132,
      "sakay": 6133,
      "##aligban": 6134,
      "kalinga": 6135,
      "pagpatalang": 6136,
      "magapabilin": 6137,
      "razon": 6138,
      "pangmilitar": 6139,
      "cristina": 6140,
      "nagmadinalag": 6141,
      "nabaton": 6142,
      "##essie": 6143,
      "mendiola": 6144,
      "##igayunon": 6145,
      "nahamtangan": 6146,
      "sipil": 6147,
      "hagdan": 6148,
      "##indihan": 6149,
      "##angatubang": 6150,
      "hitsura": 6151,
      "nagakatulog": 6152,
      "hardin": 6153,
      "pangulohan": 6154,
      "##ulubanta": 6155,
      "graci": 6156,
      "arkila": 6157,
      "teknolohiya": 6158,
      "dinastiya": 6159,
      "knight": 6160,
      "kahilabtanan": 6161,
      "pinaagi": 6162,
      "petrolyo": 6163,
      "pakamala": 6164,
      "salapid": 6165,
      "48": 6166,
      "600": 6167,
      "bir": 6168,
      "blac": 6169,
      "byahe": 6170,
      "bloke": 6171,
      "fi": 6172,
      "hos": 6173,
      "ley": 6174,
      "mission": 6175,
      "puw": 6176,
      "son": 6177,
      "sukot": 6178,
      "tamp": 6179,
      "tigayunon": 6180,
      "yuhum": 6181,
      "##out": 6182,
      "##saka": 6183,
      "##uyong": 6184,
      "##lim": 6185,
      "##rna": 6186,
      "##edi": 6187,
      "##cip": 6188,
      "##cio": 6189,
      "##wak": 6190,
      "##walisasyon": 6191,
      "##angulo": 6192,
      "angk": 6193,
      "kaal": 6194,
      "pagr": 6195,
      "pagwa": 6196,
      "##ulum": 6197,
      "##amis": 6198,
      "ginbaton": 6199,
      "##apu": 6200,
      "##enep": 6201,
      "nagatrabaho": 6202,
      "##ubid": 6203,
      "nagbato": 6204,
      "pagpalupok": 6205,
      "manl": 6206,
      "manag": 6207,
      "##omb": 6208,
      "pagad": 6209,
      "paandam": 6210,
      "istruktura": 6211,
      "isganan": 6212,
      "makadto": 6213,
      "##uplay": 6214,
      "maar": 6215,
      "##lanueva": 6216,
      "ginpap": 6217,
      "ginpatigayon": 6218,
      "militansya": 6219,
      "pamb": 6220,
      "matig": 6221,
      "panal": 6222,
      "kahangin": 6223,
      "ginapilit": 6224,
      "ginapatay": 6225,
      "pungsud": 6226,
      "traysik": 6227,
      "pagbaylo": 6228,
      "mapin": 6229,
      "##inaiyahan": 6230,
      "albay": 6231,
      "mabal": 6232,
      "mahim": 6233,
      "mahapos": 6234,
      "mahatag": 6235,
      "##ortun": 6236,
      "gintumod": 6237,
      "gintamnan": 6238,
      "paglupok": 6239,
      "kamal": 6240,
      "ginatudlo": 6241,
      "pinakab": 6242,
      "gerry": 6243,
      "haligi": 6244,
      "nagatiner": 6245,
      "nagalakat": 6246,
      "tago": 6247,
      "##untay": 6248,
      "oktob": 6249,
      "##ulture": 6250,
      "magbakal": 6251,
      "dululungan": 6252,
      "carlos": 6253,
      "perwisyo": 6254,
      "##ighter": 6255,
      "magdugay": 6256,
      "handumanan": 6257,
      "agawon": 6258,
      "sumahon": 6259,
      "nakatapos": 6260,
      "pagpahalin": 6261,
      "ginapasidunggan": 6262,
      "pagpanglugos": 6263,
      "julian": 6264,
      "nagpauli": 6265,
      "cell": 6266,
      "busay": 6267,
      "france": 6268,
      "handur": 6269,
      "##iyog": 6270,
      "palayason": 6271,
      "akusasyon": 6272,
      "makahalalit": 6273,
      "villanueva": 6274,
      "lucas": 6275,
      "tindahan": 6276,
      "lutuson": 6277,
      "pundasyon": 6278,
      "konsentrasyon": 6279,
      "kontraktwalisasyon": 6280,
      "aprub": 6281,
      "myrna": 6282,
      "treaty": 6283,
      "tirano": 6284,
      "areglo": 6285,
      "cooperation": 6286,
      "propesyunal": 6287,
      "graciana": 6288,
      "kahanginan": 6289,
      "67": 6290,
      "ling": 6291,
      "laga": 6292,
      "moro": 6293,
      "nalak": 6294,
      "nyora": 6295,
      "ping": 6296,
      "pors": 6297,
      "ruta": 6298,
      "tib": 6299,
      "tulo": 6300,
      "yap": 6301,
      "##sihan": 6302,
      "##uaw": 6303,
      "##uob": 6304,
      "##rom": 6305,
      "##win": 6306,
      "##fe": 6307,
      "##into": 6308,
      "##atras": 6309,
      "##asang": 6310,
      "##ilig": 6311,
      "##erde": 6312,
      "ginakas": 6313,
      "ginbat": 6314,
      "##apnag": 6315,
      "inug": 6316,
      "##osa": 6317,
      "##ubr": 6318,
      "##utangan": 6319,
      "pagpugong": 6320,
      "rekrut": 6321,
      "mass": 6322,
      "maynila": 6323,
      "arro": 6324,
      "##upot": 6325,
      "ibagsak": 6326,
      "##lek": 6327,
      "pangb": 6328,
      "kabalo": 6329,
      "malay": 6330,
      "nagapatuman": 6331,
      "panub": 6332,
      "kini": 6333,
      "kinatuhay": 6334,
      "kasikbit": 6335,
      "pagtapna": 6336,
      "estr": 6337,
      "abus": 6338,
      "natipon": 6339,
      "mapatuman": 6340,
      "partisan": 6341,
      "palayo": 6342,
      "nagpah": 6343,
      "pinalangga": 6344,
      "ikog": 6345,
      "mabaton": 6346,
      "magamit": 6347,
      "patimaan": 6348,
      "##yunaryo": 6349,
      "comelec": 6350,
      "ginatun": 6351,
      "resol": 6352,
      "nagasin": 6353,
      "##ersh": 6354,
      "phil": 6355,
      "##undon": 6356,
      "pabug": 6357,
      "nagsabat": 6358,
      "##epend": 6359,
      "pagdakop": 6360,
      "magserbi": 6361,
      "nagapangl": 6362,
      "linaw": 6363,
      "2015": 6364,
      "2014": 6365,
      "magtuon": 6366,
      "makapila": 6367,
      "##riel": 6368,
      "pangpang": 6369,
      "##ibaloan": 6370,
      "##iplatan": 6371,
      "tsapter": 6372,
      "ginpaandaman": 6373,
      "silak": 6374,
      "silutan": 6375,
      "magasin": 6376,
      "canada": 6377,
      "makigbahin": 6378,
      "desperasyon": 6379,
      "##ahamtang": 6380,
      "consultant": 6381,
      "1970": 6382,
      "emb": 6383,
      "alyansang": 6384,
      "datus": 6385,
      "mrs": 6386,
      "house": 6387,
      "pangkabilogan": 6388,
      "sosyalismo": 6389,
      "puer": 6390,
      "modernisasyon": 6391,
      "nagabalor": 6392,
      "estoryahanay": 6393,
      "food": 6394,
      "kumbento": 6395,
      "nagaguba": 6396,
      "lantawon": 6397,
      "sundon": 6398,
      "muslim": 6399,
      "petiburgesya": 6400,
      "promisa": 6401,
      "montilla": 6402,
      "agriculture": 6403,
      "boluntaryo": 6404,
      "##poynt": 6405,
      "isnayp": 6406,
      "obhetibo": 6407,
      "amnest": 6408,
      "pakamalauton": 6409,
      "pungsudnon": 6410,
      "oktobre": 6411,
      "bah": 6412,
      "bimb": 6413,
      "baha": 6414,
      "finan": 6415,
      "gib": 6416,
      "gugma": 6417,
      "gwardya": 6418,
      "hari": 6419,
      "misyon": 6420,
      "normal": 6421,
      "roc": 6422,
      "ramon": 6423,
      "renta": 6424,
      "suga": 6425,
      "tend": 6426,
      "tulog": 6427,
      "tuhay": 6428,
      "tudlo": 6429,
      "vis": 6430,
      "##duha": 6431,
      "##ias": 6432,
      "##iot": 6433,
      "##iyano": 6434,
      "##silyo": 6435,
      "##lid": 6436,
      "##cre": 6437,
      "##aning": 6438,
      "##agugma": 6439,
      "##inay": 6440,
      "##alahon": 6441,
      "##atura": 6442,
      "##atnan": 6443,
      "##asiya": 6444,
      "##ares": 6445,
      "##arado": 6446,
      "##ayl": 6447,
      "##ilis": 6448,
      "nahim": 6449,
      "##erwisyo": 6450,
      "##idali": 6451,
      "##ikad": 6452,
      "##ikap": 6453,
      "##ungol": 6454,
      "pareh": 6455,
      "##omp": 6456,
      "mask": 6457,
      "masaku": 6458,
      "##uda": 6459,
      "maan": 6460,
      "##ire": 6461,
      "marc": 6462,
      "ginpanga": 6463,
      "ginpakamalaut": 6464,
      "katub": 6465,
      "pagkawasak": 6466,
      "nakabatyag": 6467,
      "batan": 6468,
      "kadasig": 6469,
      "##agahay": 6470,
      "pasulod": 6471,
      "aplik": 6472,
      "oportun": 6473,
      "mapam": 6474,
      "amuntay": 6475,
      "partisip": 6476,
      "palan": 6477,
      "palaligban": 6478,
      "##ics": 6479,
      "##ican": 6480,
      "alibang": 6481,
      "##ublika": 6482,
      "mama": 6483,
      "charter": 6484,
      "interoga": 6485,
      "gran": 6486,
      "ipas": 6487,
      "kumpara": 6488,
      "##ember": 6489,
      "nagaserbe": 6490,
      "##heast": 6491,
      "karo": 6492,
      "ginaagyan": 6493,
      "pagpanilag": 6494,
      "binukid": 6495,
      "ginkas": 6496,
      "sister": 6497,
      "##adluk": 6498,
      "product": 6499,
      "nagadala": 6500,
      "saksi": 6501,
      "nagbakwit": 6502,
      "katapoan": 6503,
      "##pansyon": 6504,
      "team": 6505,
      "commanding": 6506,
      "hunta": 6507,
      "pangako": 6508,
      "##astos": 6509,
      "ekspansyon": 6510,
      "posisyon": 6511,
      "buhaton": 6512,
      "₱10": 6513,
      "##inguhaan": 6514,
      "propyedad": 6515,
      "##egur": 6516,
      "talalupangdon": 6517,
      "brutalidad": 6518,
      "kandila": 6519,
      "japanese": 6520,
      "igs": 6521,
      "pagpahayag": 6522,
      "suhet": 6523,
      "punong": 6524,
      "dalayon": 6525,
      "road": 6526,
      "ukay": 6527,
      "colle": 6528,
      "##essing": 6529,
      "bisita": 6530,
      "capital": 6531,
      "rekurso": 6532,
      "dole": 6533,
      "talaksan": 6534,
      "states": 6535,
      "silotan": 6536,
      "macagahay": 6537,
      "energy": 6538,
      "tipunon": 6539,
      "empleyo": 6540,
      "clip": 6541,
      "climate": 6542,
      "nagakatabo": 6543,
      "##gency": 6544,
      "tribu": 6545,
      "##arote": 6546,
      "tindog": 6547,
      "piston": 6548,
      "traydor": 6549,
      "kristiyano": 6550,
      "pakaisa": 6551,
      "tsekpoynt": 6552,
      "restriksyon": 6553,
      "pahayagan": 6554,
      "##phone": 6555,
      "indonesia": 6556,
      "alibangbang": 6557,
      "aer": 6558,
      "aven": 6559,
      "ci": 6560,
      "hep": 6561,
      "huw": 6562,
      "husga": 6563,
      "mur": 6564,
      "memor": 6565,
      "public": 6566,
      "riple": 6567,
      "stor": 6568,
      "sobr": 6569,
      "top": 6570,
      "tana": 6571,
      "uriel": 6572,
      "zambo": 6573,
      "##day": 6574,
      "##iam": 6575,
      "##say": 6576,
      "##mm": 6577,
      "##lict": 6578,
      "##ghan": 6579,
      "##rit": 6580,
      "##rato": 6581,
      "##kat": 6582,
      "##inyon": 6583,
      "##ales": 6584,
      "##aland": 6585,
      "##atibong": 6586,
      "##asog": 6587,
      "##arl": 6588,
      "##ayolar": 6589,
      "##umalang": 6590,
      "nagare": 6591,
      "##ore": 6592,
      "##ikula": 6593,
      "##esita": 6594,
      "naggwa": 6595,
      "##ungd": 6596,
      "##alaon": 6597,
      "pagpungko": 6598,
      "##ibog": 6599,
      "manan": 6600,
      "isp": 6601,
      "masunson": 6602,
      "priso": 6603,
      "##uluya": 6604,
      "##ell": 6605,
      "mayang": 6606,
      "ibutang": 6607,
      "ibaligya": 6608,
      "panglant": 6609,
      "kabudlay": 6610,
      "ginpaggwa": 6611,
      "pamatian": 6612,
      "pamahaw": 6613,
      "matadlong": 6614,
      "kataas": 6615,
      "pagkak": 6616,
      "##itaan": 6617,
      "pana": 6618,
      "panel": 6619,
      "kasosyo": 6620,
      "unhan": 6621,
      "pagbasa": 6622,
      "kapab": 6623,
      "##ensyal": 6624,
      "impos": 6625,
      "adela": 6626,
      "ilong": 6627,
      "one": 6628,
      "naglala": 6629,
      "napas": 6630,
      "##ehang": 6631,
      "##ehon": 6632,
      "division": 6633,
      "basehang": 6634,
      "bulacan": 6635,
      "gintiro": 6636,
      "site": 6637,
      "nagahandum": 6638,
      "grab": 6639,
      "ipab": 6640,
      "ginatib": 6641,
      "##aliz": 6642,
      "pinakat": 6643,
      "tinang": 6644,
      "hilaw": 6645,
      "nagsaka": 6646,
      "ginbansagan": 6647,
      "ginakah": 6648,
      "##adlukan": 6649,
      "##gamiton": 6650,
      "nagaduso": 6651,
      "guard": 6652,
      "##uyok": 6653,
      "maghiliusa": 6654,
      "nabuyagyag": 6655,
      "ginasunod": 6656,
      "konsultant": 6657,
      "namat": 6658,
      "engine": 6659,
      "depensahan": 6660,
      "pagah": 6661,
      "pagagamiton": 6662,
      "sugo": 6663,
      "makapam": 6664,
      "kolehiyo": 6665,
      "##umbinar": 6666,
      "nakapa": 6667,
      "makahas": 6668,
      "ginpaulanan": 6669,
      "makasaysayan": 6670,
      "##traidor": 6671,
      "pagpabaya": 6672,
      "udto": 6673,
      "direksyon": 6674,
      "nakasandig": 6675,
      "crim": 6676,
      "juaning": 6677,
      "##igno": 6678,
      "imbestigar": 6679,
      "ginsugdan": 6680,
      "tulisan": 6681,
      "rebisyun": 6682,
      "monopolyong": 6683,
      "talakayon": 6684,
      "pangkalinong": 6685,
      "pesase": 6686,
      "makakuha": 6687,
      "1969": 6688,
      "hitabu": 6689,
      "afghan": 6690,
      "nagahiliugyong": 6691,
      "conflict": 6692,
      "kudarat": 6693,
      "##eklamo": 6694,
      "##eklara": 6695,
      "pagpangbomba": 6696,
      "migranteng": 6697,
      "utanon": 6698,
      "metriko": 6699,
      "aurora": 6700,
      "batiis": 6701,
      "rehiyunal": 6702,
      "lamharon": 6703,
      "kalangitan": 6704,
      "##enepisyo": 6705,
      "arroyo": 6706,
      "panglantawan": 6707,
      "engineer": 6708,
      "8th": 6709,
      "bern": 6710,
      "gol": 6711,
      "gwapo": 6712,
      "ilegal": 6713,
      "lup": 6714,
      "laan": 6715,
      "luthang": 6716,
      "misa": 6717,
      "nubo": 6718,
      "ncr": 6719,
      "pokus": 6720,
      "tv": 6721,
      "we": 6722,
      "women": 6723,
      "##str": 6724,
      "##liya": 6725,
      "##gid": 6726,
      "##tim": 6727,
      "##10": 6728,
      "##baryo": 6729,
      "##ath": 6730,
      "##ilateral": 6731,
      "##ulunod": 6732,
      "##ise": 6733,
      "##isidyo": 6734,
      "##unahuna": 6735,
      "##awahon": 6736,
      "siyent": 6737,
      "nagang": 6738,
      "naggamit": 6739,
      "##imba": 6740,
      "nian": 6741,
      "##ute": 6742,
      "##ugda": 6743,
      "##ugmok": 6744,
      "##ibion": 6745,
      "manoy": 6746,
      "##urismo": 6747,
      "##anduan": 6748,
      "##uluoy": 6749,
      "makaga": 6750,
      "mari": 6751,
      "pangan": 6752,
      "malubha": 6753,
      "nakabaton": 6754,
      "nakomiter": 6755,
      "net": 6756,
      "kahina": 6757,
      "kahagugma": 6758,
      "kasab": 6759,
      "pask": 6760,
      "pagtipon": 6761,
      "pagbungkag": 6762,
      "pagpangt": 6763,
      "##ahanugot": 6764,
      "##etisyon": 6765,
      "palat": 6766,
      "palibutan": 6767,
      "asinan": 6768,
      "nagpatay": 6769,
      "alf": 6770,
      "paghalad": 6771,
      "pinili": 6772,
      "ikatlo": 6773,
      "pagpamati": 6774,
      "##tansya": 6775,
      "magpati": 6776,
      "tawag": 6777,
      "resesyon": 6778,
      "tino": 6779,
      "hilwayon": 6780,
      "nagsiling": 6781,
      "karsada": 6782,
      "pagdin": 6783,
      "pangkom": 6784,
      "bugtot": 6785,
      "pagkatukod": 6786,
      "##untod": 6787,
      "laban": 6788,
      "labot": 6789,
      "tiago": 6790,
      "okan": 6791,
      "ginabulubanta": 6792,
      "tex": 6793,
      "surender": 6794,
      "republika": 6795,
      "pwersahon": 6796,
      "short": 6797,
      "cav": 6798,
      "baklan": 6799,
      "baklon": 6800,
      "sumugod": 6801,
      "sumayang": 6802,
      "serv": 6803,
      "exp": 6804,
      "export": 6805,
      "exec": 6806,
      "pagkabalaka": 6807,
      "mayoriya": 6808,
      "maoista": 6809,
      "sabado": 6810,
      "imbestiga": 6811,
      "makalab": 6812,
      "petsa": 6813,
      "goons": 6814,
      "mabugnaw": 6815,
      "panghuna": 6816,
      "panghitabo": 6817,
      "dingding": 6818,
      "takna": 6819,
      "pagkamatay": 6820,
      "bandera": 6821,
      "nagakabuhi": 6822,
      "makinaryas": 6823,
      "bitbit": 6824,
      "junior": 6825,
      "bilangguan": 6826,
      "waskon": 6827,
      "##rodyus": 6828,
      "justice": 6829,
      "guerilla": 6830,
      "gasolina": 6831,
      "konsolidahon": 6832,
      "ginpamatukan": 6833,
      "plaza": 6834,
      "bimbim": 6835,
      "avenue": 6836,
      "cielo": 6837,
      "zamboanga": 6838,
      "execut": 6839,
      "34": 6840,
      "62": 6841,
      "eci": 6842,
      "fel": 6843,
      "fighter": 6844,
      "gain": 6845,
      "hibal": 6846,
      "itom": 6847,
      "jud": 6848,
      "myan": 6849,
      "pc": 6850,
      "pen": 6851,
      "rit": 6852,
      "ty": 6853,
      "van": 6854,
      "##dle": 6855,
      "##ij": 6856,
      "##pad": 6857,
      "##sh": 6858,
      "##mer": 6859,
      "##ler": 6860,
      "##ewala": 6861,
      "##vol": 6862,
      "##ft": 6863,
      "##angop": 6864,
      "##inhan": 6865,
      "##inelas": 6866,
      "##alhas": 6867,
      "##ally": 6868,
      "##aralisa": 6869,
      "kapa": 6870,
      "##amot": 6871,
      "##ison": 6872,
      "ginahin": 6873,
      "##abuan": 6874,
      "indo": 6875,
      "sikw": 6876,
      "nagabaton": 6877,
      "##ubu": 6878,
      "##ubun": 6879,
      "##uho": 6880,
      "##uhanay": 6881,
      "magu": 6882,
      "##ted": 6883,
      "##udlan": 6884,
      "##oturismo": 6885,
      "##elda": 6886,
      "maagum": 6887,
      "maikit": 6888,
      "ibasura": 6889,
      "kabub": 6890,
      "ginpadayon": 6891,
      "ginpahug": 6892,
      "nagapal": 6893,
      "nagapalala": 6894,
      "kasadya": 6895,
      "kasumpong": 6896,
      "kadakuon": 6897,
      "balkon": 6898,
      "trade": 6899,
      "esensya": 6900,
      "kalalak": 6901,
      "apo": 6902,
      "opinyon": 6903,
      "##edya": 6904,
      "##ico": 6905,
      "nagpagwa": 6906,
      "##uylog": 6907,
      "pinya": 6908,
      "banglid": 6909,
      "adv": 6910,
      "mabalik": 6911,
      "ilog": 6912,
      "##ations": 6913,
      "dire": 6914,
      "buluth": 6915,
      "estilo": 6916,
      "operatiba": 6917,
      "ipadayon": 6918,
      "organisado": 6919,
      "nagtul": 6920,
      "##ahangop": 6921,
      "ginsugata": 6922,
      "phase": 6923,
      "pabak": 6924,
      "nagserbi": 6925,
      "karabaw": 6926,
      "nagatib": 6927,
      "dislok": 6928,
      "suport": 6929,
      "##daug": 6930,
      "ginbakal": 6931,
      "##usoon": 6932,
      "##ampig": 6933,
      "ekoturismo": 6934,
      "independ": 6935,
      "labina": 6936,
      "nagadalagan": 6937,
      "##aligo": 6938,
      "##ival": 6939,
      "solbaron": 6940,
      "sekund": 6941,
      "sekreto": 6942,
      "nadakop": 6943,
      "##alamatay": 6944,
      "dulunggan": 6945,
      "##indangan": 6946,
      "##iderar": 6947,
      "martsa": 6948,
      "reporm": 6949,
      "southwest": 6950,
      "##dez": 6951,
      "sarbeylans": 6952,
      "pinakamalala": 6953,
      "demon": 6954,
      "nobyo": 6955,
      "sho": 6956,
      "pisi": 6957,
      "pisikal": 6958,
      "conv": 6959,
      "dagmay": 6960,
      "taytay": 6961,
      "nov": 6962,
      "##isipar": 6963,
      "nanindugan": 6964,
      "estratehiko": 6965,
      "camindangan": 6966,
      "proletaryo": 6967,
      "istrikto": 6968,
      "nahamulag": 6969,
      "taksi": 6970,
      "district": 6971,
      "hawak": 6972,
      "middle": 6973,
      "jeep": 6974,
      "ramos": 6975,
      "nagakabalaka": 6976,
      "ginareklamo": 6977,
      "pagdumala": 6978,
      "smart": 6979,
      "nonoy": 6980,
      "zionista": 6981,
      "ligwa": 6982,
      "dakpon": 6983,
      "##adsad": 6984,
      "##akripisyo": 6985,
      "milagro": 6986,
      "nagauyat": 6987,
      "resources": 6988,
      "negatibo": 6989,
      "leyte": 6990,
      "embah": 6991,
      "igsuon": 6992,
      "hepe": 6993,
      "sobrang": 6994,
      "##ungdanon": 6995,
      "kahinaan": 6996,
      "cavite": 6997,
      "ecija": 6998,
      "myanmar": 6999,
      "61st": 7000,
      "72": 7001,
      "99": 7002,
      "bong": 7003,
      "cla": 7004,
      "das": 7005,
      "dib": 7006,
      "dima": 7007,
      "hu": 7008,
      "iwag": 7009,
      "jim": 7010,
      "liw": 7011,
      "ml": 7012,
      "om": 7013,
      "tandu": 7014,
      "waning": 7015,
      "₱8": 7016,
      "##ogar": 7017,
      "##ii": 7018,
      "##nga": 7019,
      "##sto": 7020,
      "##lap": 7021,
      "##rant": 7022,
      "##render": 7023,
      "##kil": 7024,
      "##kig": 7025,
      "##tungan": 7026,
      "##anubo": 7027,
      "##agsa": 7028,
      "##ini": 7029,
      "##atapan": 7030,
      "##asol": 7031,
      "##arahan": 7032,
      "##ayup": 7033,
      "##ayunan": 7034,
      "kaugot": 7035,
      "kaalam": 7036,
      "naabtan": 7037,
      "##yawan": 7038,
      "##ulugon": 7039,
      "##ulatan": 7040,
      "##adem": 7041,
      "##amtangan": 7042,
      "##amgo": 7043,
      "##apul": 7044,
      "##uni": 7045,
      "##enyo": 7046,
      "##usisyon": 7047,
      "##igeno": 7048,
      "##ikot": 7049,
      "##eskwela": 7050,
      "naguba": 7051,
      "##utyag": 7052,
      "##ibon": 7053,
      "##ibod": 7054,
      "##ibut": 7055,
      "##ibubun": 7056,
      "rem": 7057,
      "reh": 7058,
      "paul": 7059,
      "##ipag": 7060,
      "##ipit": 7061,
      "anda": 7062,
      "##ukad": 7063,
      "pre": 7064,
      "##angaw": 7065,
      "arn": 7066,
      "marag": 7067,
      "kabalaka": 7068,
      "malisyo": 7069,
      "katuyo": 7070,
      "katama": 7071,
      "kadal": 7072,
      "balikan": 7073,
      "ginapatihan": 7074,
      "##ambot": 7075,
      "##ambungan": 7076,
      "##emonya": 7077,
      "##tera": 7078,
      "aboga": 7079,
      "open": 7080,
      "oro": 7081,
      "mapuslan": 7082,
      "palawigon": 7083,
      "pinsar": 7084,
      "patas": 7085,
      "paghimulos": 7086,
      "##tanay": 7087,
      "nagahiliusa": 7088,
      "interogar": 7089,
      "grad": 7090,
      "minutos": 7091,
      "##ilio": 7092,
      "nagtulok": 7093,
      "ulubr": 7094,
      "nagatalana": 7095,
      "pagdepensa": 7096,
      "ginbayaan": 7097,
      "naghulag": 7098,
      "binalaybay": 7099,
      "ginkulong": 7100,
      "imelda": 7101,
      "baby": 7102,
      "indigeno": 7103,
      "##ustin": 7104,
      "nabudlayan": 7105,
      "burg": 7106,
      "##alumon": 7107,
      "2012": 7108,
      "nagbunga": 7109,
      "maglakat": 7110,
      "soltero": 7111,
      "magtuga": 7112,
      "engk": 7113,
      "magka": 7114,
      "nalang": 7115,
      "##asiguro": 7116,
      "##pect": 7117,
      "dalanon": 7118,
      "ihamulag": 7119,
      "pilak": 7120,
      "##hael": 7121,
      "manugb": 7122,
      "america": 7123,
      "liberation": 7124,
      "##enez": 7125,
      "cpi": 7126,
      "nakatalana": 7127,
      "nanguna": 7128,
      "##lando": 7129,
      "##witz": 7130,
      "mahinungdanon": 7131,
      "humayan": 7132,
      "marxista": 7133,
      "kontrolado": 7134,
      "makitid": 7135,
      "stud": 7136,
      "sapatos": 7137,
      "pagpangdakop": 7138,
      "strike": 7139,
      "selpon": 7140,
      "mapataas": 7141,
      "komersyante": 7142,
      "mahibaluan": 7143,
      "napaidalom": 7144,
      "bituon": 7145,
      "pagpangsumpo": 7146,
      "istasyon": 7147,
      "ugsad": 7148,
      "pleks": 7149,
      "francisco": 7150,
      "nagahilapit": 7151,
      "quintin": 7152,
      "makapauli": 7153,
      "gintingub": 7154,
      "kundenahon": 7155,
      "kuwarto": 7156,
      "william": 7157,
      "michael": 7158,
      "pagtulun": 7159,
      "pambansang": 7160,
      "nalakip": 7161,
      "porsyento": 7162,
      "panubuon": 7163,
      "suhetib": 7164,
      "aerial": 7165,
      "pagdinaya": 7166,
      "sikwayon": 7167,
      "embahada": 7168,
      "dimauntod": 7169,
      "indigenous": 7170,
      "año": 7171,
      "bre": 7172,
      "beb": 7173,
      "clar": 7174,
      "coke": 7175,
      "der": 7176,
      "duna": 7177,
      "hing": 7178,
      "hampang": 7179,
      "iv": 7180,
      "mu": 7181,
      "nuk": 7182,
      "nayon": 7183,
      "ncip": 7184,
      "ol": 7185,
      "oy": 7186,
      "por": 7187,
      "rob": 7188,
      "₱9": 7189,
      "##iyang": 7190,
      "##ning": 7191,
      "##sw": 7192,
      "##ki": 7193,
      "##ean": 7194,
      "##can": 7195,
      "##cing": 7196,
      "##yanan": 7197,
      "##tod": 7198,
      "##twal": 7199,
      "##bul": 7200,
      "##baw": 7201,
      "##zo": 7202,
      "##ink": 7203,
      "##inda": 7204,
      "##asmin": 7205,
      "##arakhak": 7206,
      "kaundan": 7207,
      "naagyan": 7208,
      "##ith": 7209,
      "##erahan": 7210,
      "##isar": 7211,
      "ginalap": 7212,
      "ginbilanggo": 7213,
      "##apus": 7214,
      "inh": 7215,
      "##endi": 7216,
      "##odoro": 7217,
      "nagayuhum": 7218,
      "##usi": 7219,
      "nagbal": 7220,
      "##ungg": 7221,
      "##olog": 7222,
      "pac": 7223,
      "pauna": 7224,
      "paqu": 7225,
      "##uhaton": 7226,
      "##ukiban": 7227,
      "##trasyon": 7228,
      "iba": 7229,
      "ibon": 7230,
      "##leyar": 7231,
      "agu": 7232,
      "agtang": 7233,
      "kabul": 7234,
      "katahum": 7235,
      "nakakita": 7236,
      "nakumpiska": 7237,
      "##alinga": 7238,
      "madulaan": 7239,
      "kadulom": 7240,
      "ginapal": 7241,
      "ginapanga": 7242,
      "paso": 7243,
      "pagbisita": 7244,
      "orlando": 7245,
      "puloy": 7246,
      "subay": 7247,
      "pagsabwag": 7248,
      "aso": 7249,
      "asso": 7250,
      "asian": 7251,
      "nagpatigayon": 7252,
      "napun": 7253,
      "mamahayag": 7254,
      "mount": 7255,
      "nagahambal": 7256,
      "commit": 7257,
      "##arant": 7258,
      "nagtigayon": 7259,
      "##antayan": 7260,
      "nagasabat": 7261,
      "nahatagan": 7262,
      "nahulog": 7263,
      "ginahim": 7264,
      "karne": 7265,
      "##eph": 7266,
      "gindukot": 7267,
      "gindakup": 7268,
      "ginbuyagyag": 7269,
      "bayol": 7270,
      "lapta": 7271,
      "siglo": 7272,
      "nagadulot": 7273,
      "pahuway": 7274,
      "elec": 7275,
      "nabuhi": 7276,
      "nagdeklarar": 7277,
      "ginlusob": 7278,
      "nagbaskog": 7279,
      "ugyon": 7280,
      "coast": 7281,
      "ginabaligya": 7282,
      "teodoro": 7283,
      "sugpon": 7284,
      "huni": 7285,
      "papa": 7286,
      "card": 7287,
      "agrarian": 7288,
      "12th": 7289,
      "makaangkon": 7290,
      "nagapamahug": 7291,
      "tarlac": 7292,
      "amerika": 7293,
      "tanang": 7294,
      "##ciation": 7295,
      "iii": 7296,
      "dalhon": 7297,
      "mapanghimulos": 7298,
      "mapangwasak": 7299,
      "makaligad": 7300,
      "butigon": 7301,
      "mapait": 7302,
      "rekisito": 7303,
      "hagna": 7304,
      "##akamalaot": 7305,
      "angeles": 7306,
      "kaswalidad": 7307,
      "pagkontrol": 7308,
      "paghangop": 7309,
      "kapalaran": 7310,
      "bumalik": 7311,
      "siklo": 7312,
      "bombing": 7313,
      "pinakamadamo": 7314,
      "maestra": 7315,
      "diliman": 7316,
      "hakson": 7317,
      "chanik": 7318,
      "filipino": 7319,
      "sustenido": 7320,
      "office": 7321,
      "kingdom": 7322,
      "boss": 7323,
      "asembliya": 7324,
      "joseph": 7325,
      "nasaksihan": 7326,
      "noli": 7327,
      "cellphone": 7328,
      "resolusyon": 7329,
      "interogasyon": 7330,
      "criminal": 7331,
      "network": 7332,
      "executive": 7333,
      "phaseout": 7334,
      "pabakuron": 7335,
      "dislokasyon": 7336,
      "suportado": 7337,
      "sekundaryo": 7338,
      "nukleyar": 7339,
      "49": 7340,
      "58": 7341,
      "94": 7342,
      "bet": 7343,
      "best": 7344,
      "doris": 7345,
      "ever": 7346,
      "fu": 7347,
      "guro": 7348,
      "goma": 7349,
      "jm": 7350,
      "pest": 7351,
      "pep": 7352,
      "ragar": 7353,
      "stra": 7354,
      "strat": 7355,
      "tessie": 7356,
      "wb": 7357,
      "wil": 7358,
      "##iwa": 7359,
      "##puslan": 7360,
      "##list": 7361,
      "##gun": 7362,
      "##hun": 7363,
      "##hayan": 7364,
      "##hambal": 7365,
      "##kul": 7366,
      "##kos": 7367,
      "##ts": 7368,
      "##buligay": 7369,
      "sawayon": 7370,
      "##atr": 7371,
      "##iles": 7372,
      "##amang": 7373,
      "##apaw": 7374,
      "into": 7375,
      "nagakon": 7376,
      "##igur": 7377,
      "##esus": 7378,
      "nagr": 7379,
      "##utheast": 7380,
      "##ungham": 7381,
      "pagpagwa": 7382,
      "pagpaantus": 7383,
      "real": 7384,
      "revol": 7385,
      "ana": 7386,
      "magn": 7387,
      "masiling": 7388,
      "##uds": 7389,
      "ded": 7390,
      "agency": 7391,
      "maluoy": 7392,
      "ginpahayag": 7393,
      "##mpre": 7394,
      "pagkay": 7395,
      "madin": 7396,
      "kadlaw": 7397,
      "pasak": 7398,
      "tres": 7399,
      "train": 7400,
      "pagtalakay": 7401,
      "abuga": 7402,
      "##costa": 7403,
      "mapab": 7404,
      "aman": 7405,
      "amlig": 7406,
      "##inaas": 7407,
      "pagsaylo": 7408,
      "nagpal": 7409,
      "alb": 7410,
      "alahas": 7411,
      "paghanduraw": 7412,
      "##akasal": 7413,
      "mabuot": 7414,
      "mabaskug": 7415,
      "naglupok": 7416,
      "napunggan": 7417,
      "pagpamilit": 7418,
      "diw": 7419,
      "dies": 7420,
      "diyos": 7421,
      "gintago": 7422,
      "operational": 7423,
      "magpab": 7424,
      "magpart": 7425,
      "magpursiger": 7426,
      "ipad": 7427,
      "tawong": 7428,
      "##ilia": 7429,
      "ginatukod": 7430,
      "ginatulod": 7431,
      "ginatalana": 7432,
      "##undayag": 7433,
      "pabalay": 7434,
      "ginhambalan": 7435,
      "ginahigugma": 7436,
      "karbon": 7437,
      "sandayao": 7438,
      "##welo": 7439,
      "naghiwat": 7440,
      "naghibi": 7441,
      "pagpanakop": 7442,
      "ginakuha": 7443,
      "binayaan": 7444,
      "ginkawat": 7445,
      "hingalitan": 7446,
      "pakit": 7447,
      "kahimtang": 7448,
      "##ende": 7449,
      "politikal": 7450,
      "kilalahon": 7451,
      "ginasa": 7452,
      "ginasuportahan": 7453,
      "seks": 7454,
      "probisyon": 7455,
      "nadumdoman": 7456,
      "namutikan": 7457,
      "magtindog": 7458,
      "despot": 7459,
      "##chn": 7460,
      "teor": 7461,
      "southeast": 7462,
      "##rique": 7463,
      "eric": 7464,
      "ubod": 7465,
      "surrender": 7466,
      "lauman": 7467,
      "pamatyagan": 7468,
      "demand": 7469,
      "antique": 7470,
      "pisok": 7471,
      "taliw": 7472,
      "caloy": 7473,
      "##iance": 7474,
      "ginpasidunggan": 7475,
      "kongresista": 7476,
      "##tage": 7477,
      "pangmasang": 7478,
      "kagamay": 7479,
      "warrant": 7480,
      "pagpangharas": 7481,
      "dolores": 7482,
      "litrato": 7483,
      "nagakahangawa": 7484,
      "hamungham": 7485,
      "turismo": 7486,
      "ramil": 7487,
      "kmu": 7488,
      "##ualdez": 7489,
      "intelek": 7490,
      "pagkonsolida": 7491,
      "mangayo": 7492,
      "afr": 7493,
      "roger": 7494,
      "rich": 7495,
      "romualdez": 7496,
      "yanggaw": 7497,
      "randall": 7498,
      "eksperto": 7499,
      "kuar": 7500,
      "ilimnon": 7501,
      "bodega": 7502,
      "global": 7503,
      "black": 7504,
      "maaram": 7505,
      "handurawan": 7506,
      "marcelo": 7507,
      "granada": 7508,
      "baklanay": 7509,
      "kabubut": 7510,
      "demonyo": 7511,
      "convention": 7512,
      "malisyoso": 7513,
      "association": 7514,
      "committe": 7515,
      "pestisidyo": 7516,
      "ragaraga": 7517,
      "hamunghamong": 7518,
      "intelektwal": 7519,
      "43": 7520,
      "700": 7521,
      "88": 7522,
      "ahan": 7523,
      "auth": 7524,
      "acosta": 7525,
      "bor": 7526,
      "bent": 7527,
      "boni": 7528,
      "git": 7529,
      "hugpong": 7530,
      "huyop": 7531,
      "jawo": 7532,
      "kalis": 7533,
      "mons": 7534,
      "matigayon": 7535,
      "ps": 7536,
      "p1": 7537,
      "pok": 7538,
      "tulod": 7539,
      "tanda": 7540,
      "tantya": 7541,
      "##iyong": 7542,
      "##nah": 7543,
      "##pat": 7544,
      "##cal": 7545,
      "##cion": 7546,
      "##babawan": 7547,
      "##vo": 7548,
      "##facio": 7549,
      "##agr": 7550,
      "saling": 7551,
      "sauron": 7552,
      "##inalupok": 7553,
      "##ontrol": 7554,
      "##aly": 7555,
      "##atwa": 7556,
      "kaadlawan": 7557,
      "##ilutan": 7558,
      "naan": 7559,
      "##akip": 7560,
      "##akuna": 7561,
      "##ery": 7562,
      "##amyaw": 7563,
      "##ism": 7564,
      "##ish": 7565,
      "ginaw": 7566,
      "ginabaton": 7567,
      "##abas": 7568,
      "nagaling": 7569,
      "##ority": 7570,
      "##ubuan": 7571,
      "##ikid": 7572,
      "nagre": 7573,
      "##imalos": 7574,
      "##unggo": 7575,
      "##ugto": 7576,
      "##ugpon": 7577,
      "##ugiron": 7578,
      "pagpapanaog": 7579,
      "paryente": 7580,
      "relat": 7581,
      "##iparahan": 7582,
      "anano": 7583,
      "isugid": 7584,
      "magtan": 7585,
      "masubo": 7586,
      "##andag": 7587,
      "area": 7588,
      "maisan": 7589,
      "pangg": 7590,
      "##redo": 7591,
      "ginpaslaw": 7592,
      "ginpalayas": 7593,
      "matambok": 7594,
      "katum": 7595,
      "kataw": 7596,
      "atong": 7597,
      "atipan": 7598,
      "kadena": 7599,
      "balah": 7600,
      "pasangk": 7601,
      "trac": 7602,
      "##iho": 7603,
      "pagtuki": 7604,
      "kalub": 7605,
      "banyo": 7606,
      "##yansa": 7607,
      "pagbuyagyag": 7608,
      "mapisan": 7609,
      "pagsugod": 7610,
      "parts": 7611,
      "##uanay": 7612,
      "paghandum": 7613,
      "basket": 7614,
      "bulkan": 7615,
      "estatwa": 7616,
      "gintambungan": 7617,
      "pwertahan": 7618,
      "updan": 7619,
      "paglapad": 7620,
      "moham": 7621,
      "nagahalin": 7622,
      "krus": 7623,
      "nagakuha": 7624,
      "respect": 7625,
      "ginsunod": 7626,
      "ginsaka": 7627,
      "ginhalad": 7628,
      "tinapay": 7629,
      "nasyunal": 7630,
      "nasiplatan": 7631,
      "nagatuyo": 7632,
      "nagatiglawas": 7633,
      "salv": 7634,
      "pagdula": 7635,
      "otso": 7636,
      "ginbuhi": 7637,
      "binangon": 7638,
      "##ampot": 7639,
      "magsugod": 7640,
      "edward": 7641,
      "hinab": 7642,
      "pakpak": 7643,
      "nagapangibabaw": 7644,
      "lokasyon": 7645,
      "pagpaslaw": 7646,
      "magbakwit": 7647,
      "##alikaw": 7648,
      "pagahim": 7649,
      "drama": 7650,
      "sugid": 7651,
      "ubayan": 7652,
      "donya": 7653,
      "benj": 7654,
      "kurap": 7655,
      "tsinelas": 7656,
      "makahuluya": 7657,
      "magdala": 7658,
      "talatapan": 7659,
      "##bayad": 7660,
      "espiya": 7661,
      "pagkaputo": 7662,
      "komprehensibo": 7663,
      "nanta": 7664,
      "partylist": 7665,
      "makaluluoy": 7666,
      "ginsugo": 7667,
      "constr": 7668,
      "liter": 7669,
      "litur": 7670,
      "tagipusoon": 7671,
      "bunghay": 7672,
      "ginbalita": 7673,
      "tamawo": 7674,
      "mersenaryong": 7675,
      "terminal": 7676,
      "fire": 7677,
      "##uction": 7678,
      "nakigbahin": 7679,
      "##arters": 7680,
      "found": 7681,
      "artista": 7682,
      "pistola": 7683,
      "materyales": 7684,
      "matinugahon": 7685,
      "zionistang": 7686,
      "green": 7687,
      "alliance": 7688,
      "processing": 7689,
      "napanahon": 7690,
      "investment": 7691,
      "pangitaon": 7692,
      "implementasyon": 7693,
      "batanes": 7694,
      "golez": 7695,
      "siyentipiko": 7696,
      "text": 7697,
      "abogado": 7698,
      "abugado": 7699,
      "diwata": 7700,
      "bonifacio": 7701,
      "pasangkaron": 7702,
      "mohamed": 7703,
      "44": 7704,
      "46": 7705,
      "65": 7706,
      "awa": 7707,
      "dipl": 7708,
      "ere": 7709,
      "gene": 7710,
      "hoy": 7711,
      "hed": 7712,
      "hana": 7713,
      "harian": 7714,
      "hibubun": 7715,
      "if": 7716,
      "jan": 7717,
      "jay": 7718,
      "kit": 7719,
      "kuhaan": 7720,
      "kidn": 7721,
      "miss": 7722,
      "puod": 7723,
      "pugos": 7724,
      "piy": 7725,
      "sent": 7726,
      "sump": 7727,
      "snip": 7728,
      "tik": 7729,
      "tuna": 7730,
      "year": 7731,
      "##pal": 7732,
      "##plas": 7733,
      "##sak": 7734,
      "##mad": 7735,
      "##lu": 7736,
      "##ria": 7737,
      "##rakt": 7738,
      "##rabaho": 7739,
      "##kob": 7740,
      "##car": 7741,
      "##bas": 7742,
      "##bak": 7743,
      "##angga": 7744,
      "##aguman": 7745,
      "##ilawan": 7746,
      "naagaw": 7747,
      "pagtr": 7748,
      "pagnubo": 7749,
      "pagtraidor": 7750,
      "##amatay": 7751,
      "##isismo": 7752,
      "inp": 7753,
      "sid": 7754,
      "siyudad": 7755,
      "nagais": 7756,
      "nagala": 7757,
      "##ubsan": 7758,
      "##idhon": 7759,
      "##ugangan": 7760,
      "isang": 7761,
      "##urot": 7762,
      "##elebr": 7763,
      "makam": 7764,
      "makasarang": 7765,
      "makawat": 7766,
      "maapektuhan": 7767,
      "##lanog": 7768,
      "pangil": 7769,
      "ginpanawagan": 7770,
      "ginpamatud": 7771,
      "ginpresentar": 7772,
      "pamulong": 7773,
      "matalom": 7774,
      "nakar": 7775,
      "##itao": 7776,
      "ath": 7777,
      "atak": 7778,
      "kinalain": 7779,
      "kinabuhi": 7780,
      "##alisado": 7781,
      "usik": 7782,
      "kasigur": 7783,
      "balanse": 7784,
      "ginapunggan": 7785,
      "pagtadlong": 7786,
      "pagtiro": 7787,
      "ape": 7788,
      "pagbutang": 7789,
      "pagbantay": 7790,
      "mapad": 7791,
      "mapatihan": 7792,
      "pagsira": 7793,
      "alv": 7794,
      "alice": 7795,
      "alvin": 7796,
      "##ublas": 7797,
      "napuno": 7798,
      "mamag": 7799,
      "2025": 7800,
      "##mant": 7801,
      "gintuyo": 7802,
      "paglapta": 7803,
      "paglikaw": 7804,
      "nagakurog": 7805,
      "bro": 7806,
      "kumperensya": 7807,
      "##reserba": 7808,
      "nahalitan": 7809,
      "nahibaloan": 7810,
      "ginharas": 7811,
      "##estic": 7812,
      "nagatulok": 7813,
      "nagalupad": 7814,
      "gindulot": 7815,
      "##angkarote": 7816,
      "ginakinaiyahan": 7817,
      "binutig": 7818,
      "sanag": 7819,
      "##ampanya": 7820,
      "##rotek": 7821,
      "magserbe": 7822,
      "##istur": 7823,
      "tumanon": 7824,
      "nagadalom": 7825,
      "kakibot": 7826,
      "##ingkion": 7827,
      "okay": 7828,
      "nagbag": 7829,
      "nagbulig": 7830,
      "magbag": 7831,
      "magbayad": 7832,
      "berde": 7833,
      "depisito": 7834,
      "magkas": 7835,
      "magkatuhay": 7836,
      "makapang": 7837,
      "##klusyon": 7838,
      "lea": 7839,
      "dulaon": 7840,
      "itum": 7841,
      "kongklusyon": 7842,
      "obed": 7843,
      "republic": 7844,
      "benito": 7845,
      "provin": 7846,
      "dayalogo": 7847,
      "burukrasya": 7848,
      "separado": 7849,
      "tumal": 7850,
      "puts": 7851,
      "pampanga": 7852,
      "damlag": 7853,
      "raa": 7854,
      "exc": 7855,
      "exer": 7856,
      "wargam": 7857,
      "paborito": 7858,
      "redtag": 7859,
      "domestic": 7860,
      "ginapabaskog": 7861,
      "beter": 7862,
      "danny": 7863,
      "dolpo": 7864,
      "nakahimo": 7865,
      "larga": 7866,
      "hamulag": 7867,
      "point": 7868,
      "pesos": 7869,
      "turk": 7870,
      "##iskar": 7871,
      "ginapadayaw": 7872,
      "manipis": 7873,
      "kontraktwal": 7874,
      "hugna": 7875,
      "ginhimuslan": 7876,
      "mapaniplang": 7877,
      "pagpapagsik": 7878,
      "interbyu": 7879,
      "bantayan": 7880,
      "mahamuok": 7881,
      "administrasyon": 7882,
      "##retary": 7883,
      "aprubahan": 7884,
      "panganod": 7885,
      "pangkombat": 7886,
      "buluthuan": 7887,
      "katuyoan": 7888,
      "clark": 7889,
      "ginasaulog": 7890,
      "committee": 7891,
      "authority": 7892,
      "liturhiya": 7893,
      "wargames": 7894,
      "59th": 7895,
      "64": 7896,
      "900": 7897,
      "alan": 7898,
      "beng": 7899,
      "gaway": 7900,
      "gross": 7901,
      "hol": 7902,
      "hambalan": 7903,
      "hublasan": 7904,
      "jon": 7905,
      "karan": 7906,
      "kiban": 7907,
      "nong": 7908,
      "ren": 7909,
      "sor": 7910,
      "tas": 7911,
      "tapas": 7912,
      "tadlong": 7913,
      "ther": 7914,
      "yabe": 7915,
      "##nat": 7916,
      "##ney": 7917,
      "##pit": 7918,
      "##ao": 7919,
      "##sahon": 7920,
      "##mag": 7921,
      "##lot": 7922,
      "##lado": 7923,
      "##luoy": 7924,
      "##kp": 7925,
      "##ees": 7926,
      "##bes": 7927,
      "##wing": 7928,
      "##ance": 7929,
      "##inot": 7930,
      "##inian": 7931,
      "##aling": 7932,
      "##aliya": 7933,
      "##alayo": 7934,
      "##albar": 7935,
      "##asista": 7936,
      "kaab": 7937,
      "##ilan": 7938,
      "##ilas": 7939,
      "##yam": 7940,
      "##ulam": 7941,
      "##itatibong": 7942,
      "##amu": 7943,
      "##amilya": 7944,
      "ginalik": 7945,
      "##ahod": 7946,
      "##ahuyan": 7947,
      "##ahedya": 7948,
      "##ubod": 7949,
      "##usn": 7950,
      "##igu": 7951,
      "##imonya": 7952,
      "##utaran": 7953,
      "##utkot": 7954,
      "pagpalapnag": 7955,
      "pagproseso": 7956,
      "##ibidad": 7957,
      "##ingutan": 7958,
      "##inggitan": 7959,
      "anhon": 7960,
      "isid": 7961,
      "isahon": 7962,
      "isikway": 7963,
      "magbal": 7964,
      "masako": 7965,
      "masangkad": 7966,
      "##urungan": 7967,
      "prime": 7968,
      "mach": 7969,
      "maambong": 7970,
      "##ility": 7971,
      "##okasyon": 7972,
      "agyan": 7973,
      "##lansang": 7974,
      "pangpinansya": 7975,
      "kabulig": 7976,
      "kabigon": 7977,
      "ginpunggan": 7978,
      "nagapangin": 7979,
      "nagapalapad": 7980,
      "nagapabaskog": 7981,
      "nagapamatuod": 7982,
      "maton": 7983,
      "neok": 7984,
      "neth": 7985,
      "kinaw": 7986,
      "2000": 7987,
      "##igation": 7988,
      "balab": 7989,
      "baloy": 7990,
      "ginapahug": 7991,
      "ginapondohan": 7992,
      "ginapangabay": 7993,
      "trahedya": 7994,
      "pagtulok": 7995,
      "pagtortyur": 7996,
      "pagtilipon": 7997,
      "banago": 7998,
      "pagbul": 7999,
      "pagbahin": 8000,
      "barikada": 8001,
      "##ahanumdom": 8002,
      "mapula": 8003,
      "##eder": 8004,
      "nagpanawagan": 8005,
      "nagpalupok": 8006,
      "paghil": 8007,
      "paghulat": 8008,
      "mahambal": 8009,
      "##unsabo": 8010,
      "##umpat": 8011,
      "##orture": 8012,
      "basahon": 8013,
      "##erna": 8014,
      "##alagko": 8015,
      "##unao": 8016,
      "magpasakop": 8017,
      "ipamangkot": 8018,
      "nagtigana": 8019,
      "nagkuha": 8020,
      "nahilway": 8021,
      "ginahandum": 8022,
      "tinut": 8023,
      "nagatin": 8024,
      "nagalubha": 8025,
      "titulo": 8026,
      "##daog": 8027,
      "##angkan": 8028,
      "ginbutong": 8029,
      "naghipos": 8030,
      "ginakons": 8031,
      "ginkabig": 8032,
      "##ampok": 8033,
      "enrique": 8034,
      "ella": 8035,
      "tigs": 8036,
      "produkt": 8037,
      "ikaapat": 8038,
      "kakahuyan": 8039,
      "maghalong": 8040,
      "ginasugid": 8041,
      "nagbulos": 8042,
      "konsult": 8043,
      "##aysayon": 8044,
      "berto": 8045,
      "andam": 8046,
      "desap": 8047,
      "magkat": 8048,
      "makatil": 8049,
      "aktibong": 8050,
      "carbon": 8051,
      "news": 8052,
      "delikado": 8053,
      "permit": 8054,
      "nakapwesto": 8055,
      "likum": 8056,
      "donato": 8057,
      "₱13": 8058,
      "ihaw": 8059,
      "##bert": 8060,
      "nakaangkon": 8061,
      "ginpaar": 8062,
      "kanta": 8063,
      "ektaryang": 8064,
      "american": 8065,
      "ginpangita": 8066,
      "##urse": 8067,
      "##yempre": 8068,
      "2008": 8069,
      "malipatan": 8070,
      "nareport": 8071,
      "pagpangluthang": 8072,
      "umpisahan": 8073,
      "##ursige": 8074,
      "dominasyon": 8075,
      "##akamahal": 8076,
      "##akupon": 8077,
      "persona": 8078,
      "secretary": 8079,
      "leninista": 8080,
      "agumon": 8081,
      "plast": 8082,
      "peste": 8083,
      "moderno": 8084,
      "banderahan": 8085,
      "pagrebolusyon": 8086,
      "kutob": 8087,
      "tagapamaba": 8088,
      "##yuter": 8089,
      "##roponer": 8090,
      "araneta": 8091,
      "##pets": 8092,
      "ginadumilian": 8093,
      "##yadong": 8094,
      "notor": 8095,
      "quinten": 8096,
      "lambat": 8097,
      "lambunao": 8098,
      "konserbatismo": 8099,
      "tinguhaon": 8100,
      "ginhalukan": 8101,
      "##erlands": 8102,
      "puvmp": 8103,
      "father": 8104,
      "traysikol": 8105,
      "amnestiya": 8106,
      "tendensya": 8107,
      "partisipasyon": 8108,
      "paskwa": 8109,
      "palatandaan": 8110,
      "shorts": 8111,
      "diplom": 8112,
      "##raktika": 8113,
      "##elebrar": 8114,
      "beterano": 8115,
      "turkey": 8116,
      "kibanil": 8117,
      "netherlands": 8118,
      "51": 8119,
      "63": 8120,
      "78": 8121,
      "800": 8122,
      "ao": 8123,
      "acc": 8124,
      "big": 8125,
      "bob": 8126,
      "clo": 8127,
      "gold": 8128,
      "his": 8129,
      "jaro": 8130,
      "kug": 8131,
      "kans": 8132,
      "lina": 8133,
      "limpyo": 8134,
      "mm": 8135,
      "mol": 8136,
      "meral": 8137,
      "mawasak": 8138,
      "nalan": 8139,
      "nimo": 8140,
      "otoridad": 8141,
      "py": 8142,
      "port": 8143,
      "pobre": 8144,
      "rivers": 8145,
      "sani": 8146,
      "tot": 8147,
      "tangk": 8148,
      "wh": 8149,
      "yari": 8150,
      "##ies": 8151,
      "##pas": 8152,
      "##uet": 8153,
      "##ligan": 8154,
      "##ku": 8155,
      "##kit": 8156,
      "##eon": 8157,
      "##16": 8158,
      "##bos": 8159,
      "##wo": 8160,
      "##ji": 8161,
      "##xy": 8162,
      "##gahum": 8163,
      "##angis": 8164,
      "##angut": 8165,
      "saulugon": 8166,
      "##aliw": 8167,
      "##ates": 8168,
      "##asyun": 8169,
      "##arch": 8170,
      "##ayod": 8171,
      "##ilid": 8172,
      "##akwat": 8173,
      "##ulto": 8174,
      "##itud": 8175,
      "##itiz": 8176,
      "##erang": 8177,
      "##ampa": 8178,
      "##amuon": 8179,
      "##isdaan": 8180,
      "ginabat": 8181,
      "##apik": 8182,
      "##unos": 8183,
      "inisyal": 8184,
      "##awnt": 8185,
      "nagg": 8186,
      "##import": 8187,
      "##utas": 8188,
      "##ugpa": 8189,
      "pagplano": 8190,
      "pagplastar": 8191,
      "##ibaran": 8192,
      "##ipa": 8193,
      "magel": 8194,
      "prin": 8195,
      "prusisyon": 8196,
      "##tric": 8197,
      "##uptan": 8198,
      "maint": 8199,
      "agta": 8200,
      "agda": 8201,
      "kabayo": 8202,
      "malag": 8203,
      "ginpanginwala": 8204,
      "pamilyang": 8205,
      "matuman": 8206,
      "matukod": 8207,
      "akawnt": 8208,
      "pagkadto": 8209,
      "pagkampo": 8210,
      "ati": 8211,
      "##eks": 8212,
      "panatiko": 8213,
      "panugiron": 8214,
      "panaysayon": 8215,
      "madakpan": 8216,
      "##alisahon": 8217,
      "batasan": 8218,
      "bataon": 8219,
      "batunon": 8220,
      "ginapatigayon": 8221,
      "##agad": 8222,
      "pagtapak": 8223,
      "optim": 8224,
      "padya": 8225,
      "padamuon": 8226,
      "pagbuot": 8227,
      "natak": 8228,
      "natun": 8229,
      "natumod": 8230,
      "natukiban": 8231,
      "mapaslawan": 8232,
      "alib": 8233,
      "paghibalo": 8234,
      "##anaug": 8235,
      "nagluntad": 8236,
      "estad": 8237,
      "gintun": 8238,
      "gintugutan": 8239,
      "##unsaran": 8240,
      "nagakampo": 8241,
      "dugangan": 8242,
      "brt": 8243,
      "##mitlang": 8244,
      "minang": 8245,
      "nagasandig": 8246,
      "gerang": 8247,
      "nagkadlaw": 8248,
      "ginahulagan": 8249,
      "##estasyon": 8250,
      "##akigbahin": 8251,
      "salaligan": 8252,
      "pagdamo": 8253,
      "##iao": 8254,
      "##alakaya": 8255,
      "taguon": 8256,
      "##ustohan": 8257,
      "##welga": 8258,
      "ginbuy": 8259,
      "ginbuksan": 8260,
      "ginkanyon": 8261,
      "ginkalipay": 8262,
      "nagabantay": 8263,
      "##abilidad": 8264,
      "insent": 8265,
      "balaan": 8266,
      "nagadali": 8267,
      "pahugon": 8268,
      "search": 8269,
      "##ingkang": 8270,
      "tax": 8271,
      "konseho": 8272,
      "magbangon": 8273,
      "ginabuhat": 8274,
      "internet": 8275,
      "ginadala": 8276,
      "ginadayaw": 8277,
      "ginadayunan": 8278,
      "##riend": 8279,
      "##onstrasyon": 8280,
      "nalipay": 8281,
      "##indanao": 8282,
      "##umbag": 8283,
      "delos": 8284,
      "erm": 8285,
      "ubra": 8286,
      "##asigon": 8287,
      "##ungkuan": 8288,
      "##ighot": 8289,
      "kawatan": 8290,
      "pamatokan": 8291,
      "utas": 8292,
      "sarplas": 8293,
      "benigno": 8294,
      "makahatag": 8295,
      "piliton": 8296,
      "pagpakigbahin": 8297,
      "##gawan": 8298,
      "pilar": 8299,
      "lalake": 8300,
      "nobya": 8301,
      "##udluan": 8302,
      "dayang": 8303,
      "montero": 8304,
      "1981": 8305,
      "tunog": 8306,
      "tanum": 8307,
      "pagkabaganihan": 8308,
      "departam": 8309,
      "kabangis": 8310,
      "cris": 8311,
      "ginpalala": 8312,
      "##eck": 8313,
      "##impalad": 8314,
      "humalin": 8315,
      "back": 8316,
      "menos": 8317,
      "ginpamangkot": 8318,
      "hai": 8319,
      "nagapanindugan": 8320,
      "good": 8321,
      "##aluduhan": 8322,
      "celiz": 8323,
      "pagtanum": 8324,
      "ginreklamo": 8325,
      "plasa": 8326,
      "sirum": 8327,
      "pagginhawa": 8328,
      "sosyalista": 8329,
      "protekt": 8330,
      "pagkamartir": 8331,
      "airport": 8332,
      "galast": 8333,
      "ordinaryong": 8334,
      "turista": 8335,
      "manggaran": 8336,
      "tony": 8337,
      "daray": 8338,
      "limitasyon": 8339,
      "praktikal": 8340,
      "margie": 8341,
      "european": 8342,
      "##igtingon": 8343,
      "misamis": 8344,
      "tatak": 8345,
      "##alabag": 8346,
      "koordinasyon": 8347,
      "koordinado": 8348,
      "pagpangkastigo": 8349,
      "habal": 8350,
      "pangdagat": 8351,
      "urban": 8352,
      "torres": 8353,
      "rebelde": 8354,
      "concep": 8355,
      "jav": 8356,
      "elektroniko": 8357,
      "##damlag": 8358,
      "maitum": 8359,
      "maabtik": 8360,
      "doctor": 8361,
      "ruben": 8362,
      "hinimoan": 8363,
      "pagrespeto": 8364,
      "taguangkan": 8365,
      "kaalyado": 8366,
      "management": 8367,
      "panalgan": 8368,
      "partisano": 8369,
      "##eguridad": 8370,
      "##alization": 8371,
      "afghanistan": 8372,
      "ritwal": 8373,
      "maguindanao": 8374,
      "jeepney": 8375,
      "bayolasyon": 8376,
      "ericson": 8377,
      "salingsing": 8378,
      "ginawakal": 8379,
      "balahibo": 8380,
      "foundation": 8381,
      "athagon": 8382,
      "tumalambong": 8383,
      "benguet": 8384,
      "isidro": 8385,
      "konsultasyon": 8386,
      "makatilingala": 8387,
      "notoryus": 8388,
      "meralco": 8389,
      "magellan": 8390,
      "42": 8391,
      "66": 8392,
      "7th": 8393,
      "apa": 8394,
      "bot": 8395,
      "baga": 8396,
      "bwas": 8397,
      "dap": 8398,
      "dig": 8399,
      "dra": 8400,
      "dred": 8401,
      "ej": 8402,
      "evel": 8403,
      "gis": 8404,
      "hays": 8405,
      "huyang": 8406,
      "mort": 8407,
      "ns": 8408,
      "paho": 8409,
      "payao": 8410,
      "sugar": 8411,
      "tand": 8412,
      "tita": 8413,
      "tiya": 8414,
      "talag": 8415,
      "uba": 8416,
      "##dong": 8417,
      "##iel": 8418,
      "##mid": 8419,
      "##lod": 8420,
      "##langan": 8421,
      "##rib": 8422,
      "##hh": 8423,
      "##eo": 8424,
      "##ef": 8425,
      "##con": 8426,
      "##yul": 8427,
      "##yensya": 8428,
      "##yaton": 8429,
      "##bt": 8430,
      "##wey": 8431,
      "##vy": 8432,
      "##fb": 8433,
      "##gawa": 8434,
      "##gapor": 8435,
      "##anggi": 8436,
      "saway": 8437,
      "##alman": 8438,
      "angtanay": 8439,
      "##atap": 8440,
      "##atyag": 8441,
      "##atsada": 8442,
      "##arma": 8443,
      "##ayawan": 8444,
      "##ilkil": 8445,
      "naubos": 8446,
      "paglantaw": 8447,
      "##akol": 8448,
      "##ulak": 8449,
      "##uluka": 8450,
      "##itz": 8451,
      "##ition": 8452,
      "##erra": 8453,
      "##amahayag": 8454,
      "ginalan": 8455,
      "##umon": 8456,
      "##awayan": 8457,
      "##enya": 8458,
      "##osyon": 8459,
      "##ubag": 8460,
      "##ubak": 8461,
      "##idong": 8462,
      "##igulang": 8463,
      "##iks": 8464,
      "##ikos": 8465,
      "##esh": 8466,
      "nagnubo": 8467,
      "istag": 8468,
      "isahanon": 8469,
      "magtrabaho": 8470,
      "##ukom": 8471,
      "masul": 8472,
      "masadya": 8473,
      "##urag": 8474,
      "##andro": 8475,
      "##angamuyo": 8476,
      "sinulatan": 8477,
      "singapor": 8478,
      "arch": 8479,
      "makangil": 8480,
      "pangt": 8481,
      "mangangaway": 8482,
      "nagapalapit": 8483,
      "nagapangapin": 8484,
      "nakasak": 8485,
      "##itaay": 8486,
      "atty": 8487,
      "##ektor": 8488,
      "bataan": 8489,
      "balos": 8490,
      "balwar": 8491,
      "pasingkion": 8492,
      "##entado": 8493,
      "abuton": 8494,
      "padalumon": 8495,
      "padasigon": 8496,
      "pagbaton": 8497,
      "kapuslan": 8498,
      "pagpangransak": 8499,
      "pagpangusisa": 8500,
      "kooperasyon": 8501,
      "mapamatud": 8502,
      "subic": 8503,
      "amela": 8504,
      "pagsiguro": 8505,
      "palagwa": 8506,
      "##ensasyon": 8507,
      "##ganyat": 8508,
      "##icy": 8509,
      "aset": 8510,
      "nagpatuman": 8511,
      "mabakal": 8512,
      "##batyag": 8513,
      "##unsad": 8514,
      "ilis": 8515,
      "napaslaw": 8516,
      "bagyong": 8517,
      "div": 8518,
      "baso": 8519,
      "kontrahon": 8520,
      "##ungaw": 8521,
      "##entrar": 8522,
      "paglapak": 8523,
      "singgitan": 8524,
      "kamag": 8525,
      "magpalapad": 8526,
      "magpalapit": 8527,
      "grand": 8528,
      "tawgon": 8529,
      "ginatago": 8530,
      "lamesita": 8531,
      "##ahangup": 8532,
      "nagkalat": 8533,
      "ulikid": 8534,
      "hilo": 8535,
      "nagsunod": 8536,
      "nasayran": 8537,
      "karapatan": 8538,
      "nagatuhaw": 8539,
      "ginakundenar": 8540,
      "ginkomiter": 8541,
      "ginkadtuan": 8542,
      "imf": 8543,
      "hinga": 8544,
      "sakayan": 8545,
      "nabun": 8546,
      "##utho": 8547,
      "nagdala": 8548,
      "##ambiton": 8549,
      "2010": 8550,
      "nagbangon": 8551,
      "andre": 8552,
      "ginabakal": 8553,
      "pagab": 8554,
      "##eyn": 8555,
      "makatapos": 8556,
      "dulfo": 8557,
      "papua": 8558,
      "nalatnan": 8559,
      "hulaton": 8560,
      "pangal": 8561,
      "pangaduha": 8562,
      "itik": 8563,
      "itlog": 8564,
      "₱11": 8565,
      "prote": 8566,
      "proxy": 8567,
      "demonstrasyon": 8568,
      "##iplangon": 8569,
      "magdalagan": 8570,
      "##inalayo": 8571,
      "conta": 8572,
      "corp": 8573,
      "1985": 8574,
      "tumindog": 8575,
      "luisa": 8576,
      "damu": 8577,
      "magasulong": 8578,
      "magaserbe": 8579,
      "pundo": 8580,
      "kasuguan": 8581,
      "narc": 8582,
      "gatasan": 8583,
      "##uelo": 8584,
      "pagpanghangkat": 8585,
      "makigs": 8586,
      "ginpabay": 8587,
      "indibidw": 8588,
      "transp": 8589,
      "iran": 8590,
      "baam": 8591,
      "castro": 8592,
      "ginapaidalom": 8593,
      "1991": 8594,
      "panghunahuna": 8595,
      "emilio": 8596,
      "kantitatibo": 8597,
      "station": 8598,
      "nagapadaku": 8599,
      "pagpadalagan": 8600,
      "mactan": 8601,
      "selebr": 8602,
      "nagpasugot": 8603,
      "lampong": 8604,
      "##yutr": 8605,
      "villar": 8606,
      "pangseguridad": 8607,
      "ginpadala": 8608,
      "tagasakdag": 8609,
      "pagtibusok": 8610,
      "refug": 8611,
      "nagpakilala": 8612,
      "miyembro": 8613,
      "pagatuk": 8614,
      "pitik": 8615,
      "suporter": 8616,
      "jerry": 8617,
      "taclob": 8618,
      "nalipat": 8619,
      "randy": 8620,
      "dipulog": 8621,
      "nagapamatuk": 8622,
      "##raltar": 8623,
      "narekober": 8624,
      "katigulangan": 8625,
      "hospital": 8626,
      "sonang": 8627,
      "financing": 8628,
      "gibraltar": 8629,
      "memorandum": 8630,
      "prisohan": 8631,
      "kapabayaan": 8632,
      "imposible": 8633,
      "service": 8634,
      "##ijan": 8635,
      "advoc": 8636,
      "kadalanan": 8637,
      "revolution": 8638,
      "despotiko": 8639,
      "pagahimuon": 8640,
      "hedkw": 8641,
      "pangilinan": 8642,
      "putsismo": 8643,
      "karanawan": 8644,
      "optimismo": 8645,
      "dredging": 8646,
      "##midya": 8647,
      "balwarte": 8648,
      "kapuslanan": 8649,
      "palagwaon": 8650,
      "96": 8651,
      "bra": 8652,
      "camb": 8653,
      "far": 8654,
      "fake": 8655,
      "gdp": 8656,
      "gahom": 8657,
      "hong": 8658,
      "hig": 8659,
      "hala": 8660,
      "hyd": 8661,
      "igad": 8662,
      "ker": 8663,
      "kuta": 8664,
      "klima": 8665,
      "let": 8666,
      "laway": 8667,
      "lags": 8668,
      "light": 8669,
      "lupog": 8670,
      "rice": 8671,
      "range": 8672,
      "robre": 8673,
      "sco": 8674,
      "tata": 8675,
      "tugutan": 8676,
      "villa": 8677,
      "wps": 8678,
      "zambal": 8679,
      "##sila": 8680,
      "##uen": 8681,
      "##mod": 8682,
      "##lin": 8683,
      "##line": 8684,
      "##hulong": 8685,
      "##kuan": 8686,
      "##cm": 8687,
      "##boy": 8688,
      "##anak": 8689,
      "##gamo": 8690,
      "##galo": 8691,
      "##angl": 8692,
      "##angla": 8693,
      "##inta": 8694,
      "##ingal": 8695,
      "##arang": 8696,
      "kagina": 8697,
      "##ayun": 8698,
      "##ilyong": 8699,
      "##aker": 8700,
      "ginaantus": 8701,
      "##apwan": 8702,
      "##abay": 8703,
      "##abut": 8704,
      "sion": 8705,
      "sierra": 8706,
      "##ost": 8707,
      "nagalagas": 8708,
      "##uban": 8709,
      "##idy": 8710,
      "##idlis": 8711,
      "##usik": 8712,
      "##ikaso": 8713,
      "naglawig": 8714,
      "##imot": 8715,
      "##imaryo": 8716,
      "##utwas": 8717,
      "##ungot": 8718,
      "##alacao": 8719,
      "##ugyaw": 8720,
      "##ugnaw": 8721,
      "parad": 8722,
      "ret": 8723,
      "paigtingon": 8724,
      "##ipas": 8725,
      "##ogr": 8726,
      "masmidya": 8727,
      "##urakot": 8728,
      "##div": 8729,
      "##diya": 8730,
      "##ander": 8731,
      "##andez": 8732,
      "##otas": 8733,
      "indian": 8734,
      "artem": 8735,
      "makalikaw": 8736,
      "##upig": 8737,
      "##leto": 8738,
      "##rey": 8739,
      "malimtan": 8740,
      "ginpalig": 8741,
      "##atiya": 8742,
      "nagapugong": 8743,
      "matingkad": 8744,
      "nakam": 8745,
      "nakalista": 8746,
      "panawag": 8747,
      "kahandaan": 8748,
      "madlos": 8749,
      "kasamtangan": 8750,
      "bilding": 8751,
      "balod": 8752,
      "ginapangatubang": 8753,
      "##ihinal": 8754,
      "pagtuo": 8755,
      "pagtaliwan": 8756,
      "esper": 8757,
      "kalig": 8758,
      "apar": 8759,
      "orihinal": 8760,
      "natalupangdan": 8761,
      "koalis": 8762,
      "mapain": 8763,
      "mapabilin": 8764,
      "mapalayas": 8765,
      "mapahamtang": 8766,
      "marcosa": 8767,
      "pagsalakay": 8768,
      "pagsikway": 8769,
      "nagpalang": 8770,
      "mabatas": 8771,
      "mabangis": 8772,
      "mahina": 8773,
      "maharl": 8774,
      "onse": 8775,
      "online": 8776,
      "diretso": 8777,
      "magaabot": 8778,
      "##ernador": 8779,
      "bulos": 8780,
      "bulalacao": 8781,
      "child": 8782,
      "mogad": 8783,
      "nagakal": 8784,
      "grade": 8785,
      "iplastar": 8786,
      "ginatarget": 8787,
      "pinakamaayo": 8788,
      "nagkalamatay": 8789,
      "uli": 8790,
      "ulitao": 8791,
      "nahuya": 8792,
      "nagatinaas": 8793,
      "pagdis": 8794,
      "pagdayaw": 8795,
      "balayran": 8796,
      "##alakat": 8797,
      "##angkag": 8798,
      "ginbomba": 8799,
      "naghulog": 8800,
      "bayrus": 8801,
      "##ampaton": 8802,
      "korem": 8803,
      "nagabyahe": 8804,
      "himaya": 8805,
      "aktitud": 8806,
      "##yagit": 8807,
      "lubong": 8808,
      "pakana": 8809,
      "nagadumala": 8810,
      "nagapanghalit": 8811,
      "kakunyag": 8812,
      "nabutang": 8813,
      "##layn": 8814,
      "lokalidad": 8815,
      "nagdugay": 8816,
      "nagdesisyon": 8817,
      "nagbukas": 8818,
      "##ektibong": 8819,
      "nadiparahan": 8820,
      "liberal": 8821,
      "magtambong": 8822,
      "magtimbang": 8823,
      "ahos": 8824,
      "ginabal": 8825,
      "magkar": 8826,
      "makapati": 8827,
      "gyerang": 8828,
      "legal": 8829,
      "league": 8830,
      "fritz": 8831,
      "ubo": 8832,
      "##gasan": 8833,
      "₱15": 8834,
      "₱12": 8835,
      "tapak": 8836,
      "nakaugat": 8837,
      "makasulod": 8838,
      "makasabat": 8839,
      "nagapamigos": 8840,
      "bakwit": 8841,
      "monet": 8842,
      "tingug": 8843,
      "1982": 8844,
      "calamba": 8845,
      "nakatukod": 8846,
      "bound": 8847,
      "##taghol": 8848,
      "magaserbi": 8849,
      "insurgency": 8850,
      "mapangibabawan": 8851,
      "sapayan": 8852,
      "mercy": 8853,
      "papeles": 8854,
      "defante": 8855,
      "campa": 8856,
      "tulad": 8857,
      "##aludar": 8858,
      "litro": 8859,
      "##alanggaon": 8860,
      "larawan": 8861,
      "₱30": 8862,
      "sayup": 8863,
      "bungyod": 8864,
      "distribusyon": 8865,
      "medical": 8866,
      "##uctor": 8867,
      "lands": 8868,
      "opereyt": 8869,
      "anomalya": 8870,
      "susp": 8871,
      "time": 8872,
      "nakakuha": 8873,
      "kutsilyo": 8874,
      "bertikal": 8875,
      "funds": 8876,
      "pundam": 8877,
      "kakulangon": 8878,
      "dosis": 8879,
      "##ughog": 8880,
      "pagasakupon": 8881,
      "superyoridad": 8882,
      "candoni": 8883,
      "obrero": 8884,
      "nagtango": 8885,
      "pagdaug": 8886,
      "mutual": 8887,
      "fiesta": 8888,
      "angkunon": 8889,
      "rocket": 8890,
      "kasabwat": 8891,
      "piniliay": 8892,
      "november": 8893,
      "mlm": 8894,
      "suhetibismo": 8895,
      "strait": 8896,
      "richard": 8897,
      "hinablos": 8898,
      "nagaisahanon": 8899,
      "##isturbo": 8900,
      "leave": 8901,
      "provincial": 8902,
      "machine": 8903,
      "neokolonyal": 8904,
      "tinutuyo": 8905,
      "departamento": 8906,
      "selebrasyon": 8907,
      "refugee": 8908,
      "robredo": 8909,
      "scout": 8910,
      "zambales": 8911,
      "artemio": 8912,
      "maharlika": 8913,
      "41": 8914,
      "4th": 8915,
      "56": 8916,
      "77": 8917,
      "adiv": 8918,
      "bog": 8919,
      "baho": 8920,
      "bgen": 8921,
      "cer": 8922,
      "ces": 8923,
      "cant": 8924,
      "cba": 8925,
      "cont": 8926,
      "doh": 8927,
      "ev": 8928,
      "fest": 8929,
      "gast": 8930,
      "hi": 8931,
      "hud": 8932,
      "heg": 8933,
      "ile": 8934,
      "iyang": 8935,
      "jul": 8936,
      "kee": 8937,
      "lop": 8938,
      "lutos": 8939,
      "mir": 8940,
      "met": 8941,
      "nor": 8942,
      "pahanugutan": 8943,
      "rang": 8944,
      "shi": 8945,
      "timu": 8946,
      "tambi": 8947,
      "york": 8948,
      "yuhom": 8949,
      "##neg": 8950,
      "##sam": 8951,
      "##lud": 8952,
      "##hitimo": 8953,
      "##kog": 8954,
      "##kada": 8955,
      "##bun": 8956,
      "##zpi": 8957,
      "##ves": 8958,
      "##viron": 8959,
      "##aniya": 8960,
      "##anne": 8961,
      "##gazpi": 8962,
      "##angyad": 8963,
      "##inhawa": 8964,
      "##inky": 8965,
      "##alimu": 8966,
      "##alidali": 8967,
      "##atro": 8968,
      "kagustohan": 8969,
      "##illo": 8970,
      "naurungan": 8971,
      "paggasto": 8972,
      "##akto": 8973,
      "##akasyon": 8974,
      "##uls": 8975,
      "##uling": 8976,
      "##ulitikal": 8977,
      "##iste": 8978,
      "##ister": 8979,
      "ginkon": 8980,
      "##umok": 8981,
      "##apekto": 8982,
      "inog": 8983,
      "##awis": 8984,
      "##ener": 8985,
      "nagatan": 8986,
      "##organ": 8987,
      "##impon": 8988,
      "##top": 8989,
      "##ipot": 8990,
      "anih": 8991,
      "angay": 8992,
      "##ukol": 8993,
      "massa": 8994,
      "masiguro": 8995,
      "prim": 8996,
[...]
