{
  "version": "1.0",
  "truncation": null,
  "padding": null,
  "added_tokens": [
    {
      "id": 0,
      "content": "[PAD]",
      "single_word": false,
      "lstrip": false,
      "rstrip": false,
      "normalized": false,
      "special": true
    },
    {
      "id": 1,
      "content": "[UNK]",
      "single_word": false,
      "lstrip": false,
      "rstrip": false,
      "normalized": false,
      "special": true
    },
    {
      "id": 2,
      "content": "[CLS]",
      "single_word": false,
      "lstrip": false,
      "rstrip": false,
      "normalized": false,
      "special": true
    },
    {
      "id": 3,
      "content": "[SEP]",
      "single_word": false,
      "lstrip": false,
      "rstrip": false,
      "normalized": false,
      "special": true
    },
    {
      "id": 4,
      "content": "[MASK]",
      "single_word": false,
      "lstrip": false,
      "rstrip": false,
      "normalized": false,
      "special": true
    }
  ],
  "normalizer": {
    "type": "BertNormalizer",
    "clean_text": true,
    "handle_chinese_chars": false,
    "strip_accents": false,
    "lowercase": true
  },
  "pre_tokenizer": {
    "type": "BertPreTokenizer"
  },
  "post_processor": null,
  "decoder": {
    "type": "WordPiece",
    "prefix": "##",
    "cleanup": true
  },
  "model": {
    "type": "WordPiece",
    "unk_token": "[UNK]",
    "continuing_subword_prefix": "##",
    "max_input_chars_per_word": 100,
    "vocab": {
      "[PAD]": 0,
      "[UNK]": 1,
      "[CLS]": 2,
      "[SEP]": 3,
      "[MASK]": 4,
      "!": 5,
      "\"": 6,
      "#": 7,
      "$": 8,
      "%": 9,
      "&": 10,
      "'": 11,
      "(": 12,
      ")": 13,
      "*": 14,
      "+": 15,
      ",": 16,
      "-": 17,
      ".": 18,
      "/": 19,
      "0": 20,
      "1": 21,
      "2": 22,
      "3": 23,
      "4": 24,
      "5": 25,
      "6": 26,
      "7": 27,
      "8": 28,
      "9": 29,
      ":": 30,
      ";": 31,
      "<": 32,
      "=": 33,
      ">": 34,
      "?": 35,
      "@": 36,
      "[": 37,
      "\\": 38,
      "]": 39,
      "_": 40,
      "`": 41,
      "a": 42,
      "b": 43,
      "c": 44,
      "d": 45,
      "e": 46,
      "f": 47,
      "g": 48,
      "h": 49,
      "i": 50,
      "j": 51,
      "k": 52,
      "l": 53,
      "m": 54,
      "n": 55,
      "o": 56,
      "p": 57,
      "q": 58,
      "r": 59,
      "s": 60,
      "t": 61,
      "u": 62,
      "v": 63,
      "w": 64,
      "x": 65,
      "y": 66,
      "z": 67,
      "|": 68,
      "¡": 69,
      "°": 70,
      "±": 71,
      "²": 72,
      "·": 73,
      "×": 74,
      "à": 75,
      "á": 76,
      "â": 77,
      "ã": 78,
      "é": 79,
      "í": 80,
      "ñ": 81,
      "ò": 82,
      "ó": 83,
      "ú": 84,
      "ň": 85,
      "œ": 86,
      "̃": 87,
      "ᵽ": 88,
      "ῆ": 89,
      "‐": 90,
      "–": 91,
      "—": 92,
      "‘": 93,
      "’": 94,
      "‚": 95,
      "“": 96,
      "”": 97,
      "„": 98,
      "…": 99,
      "′": 100,
      "€": 101,
      "₱": 102,
      "😎": 103,
      "##a": 104,
      "##g": 105,
      "##n": 106,
      "##d": 107,
      "##h": 108,
      "##b": 109,
      "##u": 110,
      "##t": 111,
      "##w": 112,
      "##m": 113,
      "##e": 114,
      "##k": 115,
      "##i": 116,
      "##p": 117,
      "##y": 118,
      "##o": 119,
      "##r": 120,
      "##c": 121,
      "##l": 122,
      "##s": 123,
      "##1": 124,
      "##0": 125,
      "##v": 126,
      "##f": 127,
      "##z": 128,
      "##q": 129,
      "##4": 130,
      "##9": 131,
      "##x": 132,
      "##ñ": 133,
      "##j": 134,
      "##2": 135,
      "##7": 136,
      "##8": 137,
      "##5": 138,
      "##3": 139,
      "##6": 140,
      "##°": 141,
      "##€": 142,
      "##œ": 143,
      "##â": 144,
      "##ó": 145,
      "##à": 146,
      "##é": 147,
      "##í": 148,
      "##á": 149,
      "##ῆ": 150,
      "##²": 151,
      "##ú": 152,
      "##×": 153,
      "##ň": 154,
      "##ã": 155,
      "##±": 156,
      "##̃": 157,
      "##₱": 158,
      "##ng": 159,
      "sa": 160,
      "##ga": 161,
      "##ag": 162,
      "##an": 163,
      "nga": 164,
      "sang": 165,
      "##in": 166,
      "##on": 167,
      "##al": 168,
      "ang": 169,
      "##ah": 170,
      "##ang": 171,
      "##at": 172,
      "##as": 173,
      "##ar": 174,
      "##ay": 175,
      "mga": 176,
      "kag": 177,
      "##il": 178,
      "na": 179,
      "ka": 180,
      "pag": 181,
      "##ak": 182,
      "##it": 183,
      "##ul": 184,
      "##ad": 185,
      "##er": 186,
      "##is": 187,
      "##ya": 188,
      "##am": 189,
      "gin": 190,
      "##um": 191,
      "##ap": 192,
      "##ong": 193,
      "##ab": 194,
      "##ahah": 195,
      "##un": 196,
      "in": 197,
      "##aw": 198,
      "##to": 199,
      "hahah": 200,
      "##yon": 201,
      "##en": 202,
      "hahaha": 203,
      "si": 204,
      "##od": 205,
      "##yo": 206,
      "naga": 207,
      "sng": 208,
      "##ub": 209,
      "##os": 210,
      "##us": 211,
      "##id": 212,
      "##ung": 213,
      "##ik": 214,
      "##es": 215,
      "##im": 216,
      "##ig": 217,
      "##or": 218,
      "nag": 219,
      "ni": 220,
      "##ala": 221,
      "##ol": 222,
      "##ut": 223,
      "##la": 224,
      "par": 225,
      "pagp": 226,
      "##ing": 227,
      "##ib": 228,
      "re": 229,
      "##ug": 230,
      "##ip": 231,
      "##mo": 232,
      "##om": 233,
      "##uh": 234,
      "an": 235,
      "pa": 236,
      "man": 237,
      "##gan": 238,
      "mag": 239,
      "is": 240,
      "##uk": 241,
      "##ro": 242,
      "ug": 243,
      "ng": 244,
      "##te": 245,
      "##ta": 246,
      "mas": 247,
      "##ud": 248,
      "iya": 249,
      "##ila": 250,
      "##ur": 251,
      "sin": 252,
      "##og": 253,
      "##di": 254,
      "para": 255,
      "##ot": 256,
      "ini": 257,
      "##tr": 258,
      "wala": 259,
      "ila": 260,
      "##asyon": 261,
      "##ulu": 262,
      "##el": 263,
      "may": 264,
      "##and": 265,
      "mak": 266,
      "##up": 267,
      "ito": 268,
      "kon": 269,
      "ma": 270,
      "pang": 271,
      "ar": 272,
      "isa": 273,
      "##umulu": 274,
      "##uga": 275,
      "indi": 276,
      "##pa": 277,
      "##ado": 278,
      "##le": 279,
      "sini": 280,
      "##him": 281,
      "##lo": 282,
      "##ir": 283,
      "##kon": 284,
      "de": 285,
      "mar": 286,
      "##han": 287,
      "##ilit": 288,
      "ib": 289,
      "kab": 290,
      "##tang": 291,
      "##ati": 292,
      "pumulu": 293,
      "##ina": 294,
      "ag": 295,
      "##pang": 296,
      "reb": 297,
      "##usyon": 298,
      "##re": 299,
      "pam": 300,
      "kat": 301,
      "##lan": 302,
      "niya": 303,
      "##yong": 304,
      "##anan": 305,
      "mang": 306,
      "##ok": 307,
      "mal": 308,
      "##mp": 309,
      "rebol": 310,
      "kah": 311,
      "pr": 312,
      "##ilip": 313,
      "##ata": 314,
      "rebolusyon": 315,
      "lang": 316,
      "nak": 317,
      "##ent": 318,
      "milit": 319,
      "pumuluyo": 320,
      "ak": 321,
      "pagk": 322,
      "ginp": 323,
      "##ek": 324,
      "##ana": 325,
      "##ayon": 326,
      "militar": 327,
      "pan": 328,
      "##ita": 329,
      "kas": 330,
      "pas": 331,
      "at": 332,
      "##uha": 333,
      "ne": 334,
      "hal": 335,
      "##alis": 336,
      "pro": 337,
      "##sa": 338,
      "##wa": 339,
      "##aryo": 340,
      "nagap": 341,
      "bil": 342,
      "##amb": 343,
      "mad": 344,
      "us": 345,
      "sad": 346,
      "##ob": 347,
      "##iga": 348,
      "##gr": 349,
      "##ahan": 350,
      "##away": 351,
      "20": 352,
      "bal": 353,
      "##em": 354,
      "mat": 355,
      "kad": 356,
      "dut": 357,
      "sila": 358,
      "arm": 359,
      "sia": 360,
      "##tong": 361,
      "kal": 362,
      "pagpang": 363,
      "ginap": 364,
      "##aga": 365,
      "##atay": 366,
      "un": 367,
      "pung": 368,
      "##uma": 369,
      "es": 370,
      "##ilipin": 371,
      "##uy": 372,
      "##sod": 373,
      "##ter": 374,
      "##arang": 375,
      "##ma": 376,
      "sub": 377,
      "pagt": 378,
      "##ih": 379,
      "pad": 380,
      "kap": 381,
      "pilipin": 382,
      "##op": 383,
      "op": 384,
      "##et": 385,
      "##ayan": 386,
      "ab": 387,
      "##law": 388,
      "or": 389,
      "kin": 390,
      "##syon": 391,
      "pal": 392,
      "tu": 393,
      "pungsod": 394,
      "pagb": 395,
      "##ra": 396,
      "mangung": 397,
      "mangunguma": 398,
      "##yan": 399,
      "bat": 400,
      "kay": 401,
      "ban": 402,
      "nila": 403,
      "##ic": 404,
      "##cos": 405,
      "pul": 406,
      "sadtong": 407,
      "ko": 408,
      "nat": 409,
      "##uman": 410,
      "##idad": 411,
      "map": 412,
      "##ed": 413,
      "part": 414,
      "up": 415,
      "pags": 416,
      "npa": 417,
      "##uno": 418,
      "##ens": 419,
      "am": 420,
      "kom": 421,
      "masa": 422,
      "marcos": 423,
      "##uhi": 424,
      "as": 425,
      "bang": 426,
      "##do": 427,
      "mah": 428,
      "halin": 429,
      "siya": 430,
      "pin": 431,
      "##uan": 432,
      "##ista": 433,
      "##ali": 434,
      "##pan": 435,
      "mab": 436,
      "gid": 437,
      "imp": 438,
      "##oy": 439,
      "bis": 440,
      "##iko": 441,
      "amo": 442,
      "al": 443,
      "##iya": 444,
      "##apat": 445,
      "pagh": 446,
      "##ation": 447,
      "negr": 448,
      "negros": 449,
      "##akas": 450,
      "tub": 451,
      "##ero": 452,
      "##amat": 453,
      "san": 454,
      "iban": 455,
      "ad": 456,
      "ik": 457,
      "ako": 458,
      "##ulong": 459,
      "imo": 460,
      "##ugon": 461,
      "##ort": 462,
      "##fp": 463,
      "##ido": 464,
      "##eh": 465,
      "##wer": 466,
      "##ito": 467,
      "##ente": 468,
      "##ahin": 469,
      "tanan": 470,
      "##agi": 471,
      "id": 472,
      "barang": 473,
      "sul": 474,
      "tuig": 475,
      "##ahon": 476,
      "##aryong": 477,
      "##uns": 478,
      "nagp": 479,
      "il": 480,
      "rehim": 481,
      "mam": 482,
      "sam": 483,
      "subong": 484,
      "barangay": 485,
      "bag": 486,
      "on": 487,
      "##bat": 488,
      "nam": 489,
      "dapat": 490,
      "##awa": 491,
      "nagl": 492,
      "bh": 493,
      "bhb": 494,
      "nap": 495,
      "agud": 496,
      "kum": 497,
      "##kr": 498,
      "dir": 499,
      "##yer": 500,
      "maga": 501,
      "pagpam": 502,
      "tung": 503,
      "lab": 504,
      "##ilya": 505,
      "202": 506,
      "bas": 507,
      "di": 508,
      "apang": 509,
      "bisan": 510,
      "tr": 511,
      "partido": 512,
      "##und": 513,
      "afp": 514,
      "##iw": 515,
      "demo": 516,
      "banwa": 517,
      "##aha": 518,
      "##tor": 519,
      "##aka": 520,
      "##ibo": 521,
      "ukon": 522,
      "##alag": 523,
      "oper": 524,
      "kontr": 525,
      "##ity": 526,
      "##erte": 527,
      "katap": 528,
      "paghim": 529,
      "##uon": 530,
      "bul": 531,
      "duterte": 532,
      "##ac": 533,
      "est": 534,
      "pagl": 535,
      "##ion": 536,
      "ch": 537,
      "##ismo": 538,
      "organ": 539,
      "##tan": 540,
      "##arung": 541,
      "samtang": 542,
      "mo": 543,
      "##yal": 544,
      "##una": 545,
      "br": 546,
      "##ayo": 547,
      "pat": 548,
      "##aan": 549,
      "demokr": 550,
      "##aran": 551,
      "##alan": 552,
      "pwer": 553,
      "##apos": 554,
      "##ahang": 555,
      "adlaw": 556,
      "kam": 557,
      "##aku": 558,
      "##ulag": 559,
      "duha": 560,
      "upod": 561,
      "gint": 562,
      "##ika": 563,
      "paghimakas": 564,
      "mamum": 565,
      "sit": 566,
      "nagah": 567,
      "kr": 568,
      "rebolusyonaryong": 569,
      "hahahaha": 570,
      "mamumugon": 571,
      "pilipinas": 572,
      "gr": 573,
      "inter": 574,
      "organis": 575,
      "##00": 576,
      "##imo": 577,
      "##ima": 578,
      "##unsar": 579,
      "of": 580,
      "##yud": 581,
      "taw": 582,
      "com": 583,
      "sing": 584,
      "daw": 585,
      "ant": 586,
      "nagak": 587,
      "##way": 588,
      "##yun": 589,
      "bilang": 590,
      "min": 591,
      "hang": 592,
      "malap": 593,
      "##bal": 594,
      "##th": 595,
      "rebolusyonaryo": 596,
      "##utan": 597,
      "##uyag": 598,
      "bangud": 599,
      "diri": 600,
      "##amo": 601,
      "ger": 602,
      "##ili": 603,
      "##emb": 604,
      "##ani": 605,
      "##hi": 606,
      "##iling": 607,
      "nah": 608,
      "pilipino": 609,
      "##mit": 610,
      "pab": 611,
      "##atan": 612,
      "nagt": 613,
      "ph": 614,
      "##ubang": 615,
      "pareh": 616,
      "##eb": 617,
      "##eng": 618,
      "##ask": 619,
      "##igad": 620,
      "##ikt": 621,
      "demokrat": 622,
      "##atag": 623,
      "##ers": 624,
      "ip": 625,
      "nito": 626,
      "city": 627,
      "##tob": 628,
      "res": 629,
      "nang": 630,
      "kinamat": 631,
      "sal": 632,
      "##adong": 633,
      "pres": 634,
      "##atlo": 635,
      "lam": 636,
      "magp": 637,
      "##alo": 638,
      "##obra": 639,
      "##yalis": 640,
      "##da": 641,
      "rehimen": 642,
      "ano": 643,
      "duta": 644,
      "##ubo": 645,
      "nagas": 646,
      "kana": 647,
      "kar": 648,
      "##isyon": 649,
      "padayon": 650,
      "##uw": 651,
      "kinamatarung": 652,
      "la": 653,
      "19": 654,
      "nagk": 655,
      "##io": 656,
      "bahin": 657,
      "##ba": 658,
      "gins": 659,
      "nas": 660,
      "tubtob": 661,
      "##uod": 662,
      "ul": 663,
      "##est": 664,
      "##ahanglan": 665,
      "##yemb": 666,
      "sina": 667,
      "pwersa": 668,
      "##ko": 669,
      "##no": 670,
      "pareho": 671,
      "##ada": 672,
      "##ura": 673,
      "##isa": 674,
      "ap": 675,
      "ginh": 676,
      "ginah": 677,
      "tatlo": 678,
      "nd": 679,
      "paagi": 680,
      "akon": 681,
      "nags": 682,
      "##akig": 683,
      "hil": 684,
      "##ep": 685,
      "batuk": 686,
      "sityo": 687,
      "hangaway": 688,
      "##pin": 689,
      "ter": 690,
      "##ia": 691,
      "##so": 692,
      "im": 693,
      "##aba": 694,
      "##bil": 695,
      "##angk": 696,
      "##ambal": 697,
      "katapo": 698,
      "nagal": 699,
      "##abuhi": 700,
      "komun": 701,
      "aga": 702,
      "tro": 703,
      "mn": 704,
      "gina": 705,
      "nagat": 706,
      "##gy": 707,
      "##alom": 708,
      "pinak": 709,
      "estado": 710,
      "##agon": 711,
      "ginat": 712,
      "##ling": 713,
      "atubang": 714,
      "pagd": 715,
      "##ban": 716,
      "##unit": 717,
      "##iwat": 718,
      "ot": 719,
      "pila": 720,
      "kina": 721,
      "dis": 722,
      "##ari": 723,
      "sup": 724,
      "##non": 725,
      "tit": 726,
      "##apon": 727,
      "gam": 728,
      "imper": 729,
      "##ason": 730,
      "##ano": 731,
      "kontra": 732,
      "##ental": 733,
      "##res": 734,
      "sis": 735,
      "gu": 736,
      "##tat": 737,
      "tag": 738,
      "luyag": 739,
      "os": 740,
      "balay": 741,
      "##ans": 742,
      "##ukod": 743,
      "##ugang": 744,
      "kahub": 745,
      "##ato": 746,
      "##uton": 747,
      "imperyalis": 748,
      "##asak": 749,
      "philip": 750,
      "pamilya": 751,
      "kahubla": 752,
      "philippin": 753,
      "comm": 754,
      "th": 755,
      "##ins": 756,
      "gind": 757,
      "en": 758,
      "##yembre": 759,
      "##ungan": 760,
      "##ant": 761,
      "##unod": 762,
      "lamang": 763,
      "##ulang": 764,
      "##yerno": 765,
      "##usto": 766,
      "nagapang": 767,
      "tunga": 768,
      "##ugar": 769,
      "diin": 770,
      "##idente": 771,
      "tin": 772,
      "##anay": 773,
      "tropa": 774,
      "##entr": 775,
      "##ara": 776,
      "##yang": 777,
      "nagh": 778,
      "ine": 779,
      "matuod": 780,
      "brgy": 781,
      "##ist": 782,
      "##uso": 783,
      "og": 784,
      "pangk": 785,
      "kamp": 786,
      "##uro": 787,
      "bin": 788,
      "kahublagan": 789,
      "##ensya": 790,
      "operasyon": 791,
      "yunit": 792,
      "##ment": 793,
      "lugar": 794,
      "masang": 795,
      "bilog": 796,
      "nangin": 797,
      "##ubl": 798,
      "##ibutan": 799,
      "aton": 800,
      "ay": 801,
      "kak": 802,
      "lin": 803,
      "##ulod": 804,
      "naton": 805,
      "##asan": 806,
      "##alak": 807,
      "kita": 808,
      "daku": 809,
      "lap": 810,
      "##panya": 811,
      "title": 812,
      "law": 813,
      "##istang": 814,
      "bay": 815,
      "kor": 816,
      "prod": 817,
      "gani": 818,
      "ta": 819,
      "ilo": 820,
      "##wel": 821,
      "##ikal": 822,
      "kapit": 823,
      "##dado": 824,
      "gink": 825,
      "kinahanglan": 826,
      "##alap": 827,
      "##np": 828,
      "ek": 829,
      "##abi": 830,
      "organisasyon": 831,
      "kaaway": 832,
      "##akt": 833,
      "armadong": 834,
      "him": 835,
      "##nd": 836,
      "ginb": 837,
      "siste": 838,
      "ginak": 839,
      "##ikong": 840,
      "pnp": 841,
      "##konom": 842,
      "sak": 843,
      "panahon": 844,
      "ekonom": 845,
      "naman": 846,
      "gub": 847,
      "mags": 848,
      "##oc": 849,
      "el": 850,
      "kil": 851,
      "##isyo": 852,
      "grup": 853,
      "##yag": 854,
      "##abay": 855,
      "pagkat": 856,
      "##ational": 857,
      "akt": 858,
      "produk": 859,
      "##alain": 860,
      "##amp": 861,
      "progr": 862,
      "##awan": 863,
      "kaso": 864,
      "ed": 865,
      "bug": 866,
      "ins": 867,
      "##ayag": 868,
      "##cc": 869,
      "##lay": 870,
      "##lingon": 871,
      "##abo": 872,
      "aw": 873,
      "##uyo": 874,
      "##ugalingon": 875,
      "##abil": 876,
      "##igan": 877,
      "##ataas": 878,
      "##ind": 879,
      "liwat": 880,
      "anak": 881,
      "nagab": 882,
      "##uto": 883,
      "##itika": 884,
      "the": 885,
      "pumuluyong": 886,
      "pol": 887,
      "##adto": 888,
      "##aho": 889,
      "ind": 890,
      "pagpan": 891,
      "kuno": 892,
      "##erb": 893,
      "wla": 894,
      "nagd": 895,
      "huk": 896,
      "##int": 897,
      "pe": 898,
      "##ugan": 899,
      "##utang": 900,
      "dugang": 901,
      "kun": 902,
      "##2nd": 903,
      "ele": 904,
      "se": 905,
      "##uth": 906,
      "##itan": 907,
      "##hon": 908,
      "plan": 909,
      "##iktima": 910,
      "##askog": 911,
      "hin": 912,
      "sig": 913,
      "nagligad": 914,
      "tig": 915,
      "nagad": 916,
      "ti": 917,
      "kaugalingon": 918,
      "##uhan": 919,
      "lub": 920,
      "##ue": 921,
      "##end": 922,
      "pero": 923,
      "kada": 924,
      "pak": 925,
      "##igos": 926,
      "pungsodnon": 927,
      "##atuman": 928,
      "kahim": 929,
      "for": 930,
      "##ri": 931,
      "ika": 932,
      "pagpas": 933,
      "tuman": 934,
      "##ako": 935,
      "##unt": 936,
      "sadto": 937,
      "##iba": 938,
      "##alin": 939,
      "china": 940,
      "##port": 941,
      "pah": 942,
      "sibil": 943,
      "tungod": 944,
      "62nd": 945,
      "pulang": 946,
      "##ast": 947,
      "biktima": 948,
      "labi": 949,
      "##umd": 950,
      "nina": 951,
      "##ce": 952,
      "magh": 953,
      "##anon": 954,
      "mil": 955,
      "##man": 956,
      "##por": 957,
      "000": 958,
      "bala": 959,
      "##alay": 960,
      "madamo": 961,
      "base": 962,
      "kaga": 963,
      "##ingk": 964,
      "pasista": 965,
      "##apas": 966,
      "inaway": 967,
      "##isyal": 968,
      "ok": 969,
      "una": 970,
      "##alig": 971,
      "pasistang": 972,
      "##ambit": 973,
      "##ite": 974,
      "kumpanya": 975,
      "##abaho": 976,
      "##abat": 977,
      "sand": 978,
      "##ama": 979,
      "sulod": 980,
      "pagka": 981,
      "##ikuton": 982,
      "##lon": 983,
      "##atagan": 984,
      "gih": 985,
      "##ust": 986,
      "ginas": 987,
      "##ula": 988,
      "##ugay": 989,
      "##himo": 990,
      "reak": 991,
      "##ador": 992,
      "nab": 993,
      "suldado": 994,
      "##ante": 995,
      "bur": 996,
      "##tes": 997,
      "##upod": 998,
      "grupo": 999,
      "hilikuton": 1000,
      "hukb": 1001,
      "##entral": 1002,
      "kabuhi": 1003,
      "pagkatapos": 1004,
      "##ahum": 1005,
      "##aya": 1006,
      "lain": 1007,
      "lok": 1008,
      "bata": 1009,
      "##alum": 1010,
      "##ekto": 1011,
      "##esto": 1012,
      "taga": 1013,
      "##tangan": 1014,
      "kapitalis": 1015,
      "rehimeng": 1016,
      "##kw": 1017,
      "##ulo": 1018,
      "malapad": 1019,
      "lng": 1020,
      "ginl": 1021,
      "ilabi": 1022,
      "ara": 1023,
      "kons": 1024,
      "prob": 1025,
      "##ekt": 1026,
      "##ult": 1027,
      "dalag": 1028,
      "##aron": 1029,
      "##entro": 1030,
      "201": 1031,
      "##anda": 1032,
      "sibilyan": 1033,
      "isla": 1034,
      "gab": 1035,
      "##ern": 1036,
      "##ugo": 1037,
      "##usog": 1038,
      "lay": 1039,
      "##ays": 1040,
      "paga": 1041,
      "demokratiko": 1042,
      "por": 1043,
      "jr": 1044,
      "##iv": 1045,
      "gil": 1046,
      "##erd": 1047,
      "tum": 1048,
      "##testa": 1049,
      "sek": 1050,
      "gerilya": 1051,
      "##unan": 1052,
      "##alik": 1053,
      "##ugot": 1054,
      "untat": 1055,
      "demokratikong": 1056,
      "nagb": 1057,
      "##ct": 1058,
      "lokal": 1059,
      "komunidad": 1060,
      "sol": 1061,
      "bu": 1062,
      "teror": 1063,
      "##ch": 1064,
      "magl": 1065,
      "##orta": 1066,
      "lib": 1067,
      "hun": 1068,
      "masobra": 1069,
      "co": 1070,
      "tawhan": 1071,
      "nad": 1072,
      "idalom": 1073,
      "eng": 1074,
      "##si": 1075,
      "kaang": 1076,
      "##ake": 1077,
      "bayan": 1078,
      "bulan": 1079,
      "##art": 1080,
      "armado": 1081,
      "tawo": 1082,
      "##ump": 1083,
      "##anag": 1084,
      "##tub": 1085,
      "sistema": 1086,
      "##abilin": 1087,
      "##min": 1088,
      "kamo": 1089,
      "philippines": 1090,
      "presyo": 1091,
      "magt": 1092,
      "le": 1093,
      "pih": 1094,
      "sund": 1095,
      "nagapati": 1096,
      "national": 1097,
      "##iran": 1098,
      "kaupod": 1099,
      "ah": 1100,
      "intern": 1101,
      "##ento": 1102,
      "##wal": 1103,
      "##war": 1104,
      "##ton": 1105,
      "residente": 1106,
      "lubos": 1107,
      "dep": 1108,
      "##weldo": 1109,
      "##gad": 1110,
      "##yera": 1111,
      "occ": 1112,
      "##aro": 1113,
      "fr": 1114,
      "##umhan": 1115,
      "proy": 1116,
      "##danan": 1117,
      "##uli": 1118,
      "krim": 1119,
      "so": 1120,
      "dumulu": 1121,
      "nagkalain": 1122,
      "##ulog": 1123,
      "te": 1124,
      "##na": 1125,
      "##awagan": 1126,
      "##abuhian": 1127,
      "kahimtangan": 1128,
      "gilayon": 1129,
      "pihak": 1130,
      "##omba": 1131,
      "simo": 1132,
      "##abe": 1133,
      "gubyerno": 1134,
      "and": 1135,
      "makat": 1136,
      "##wag": 1137,
      "##lok": 1138,
      "des": 1139,
      "##idental": 1140,
      "magk": 1141,
      "siling": 1142,
      "occidental": 1143,
      "dumuluong": 1144,
      "gamit": 1145,
      "lawas": 1146,
      "##dan": 1147,
      "mangin": 1148,
      "sos": 1149,
      "pulis": 1150,
      "sweldo": 1151,
      "buk": 1152,
      "##alang": 1153,
      "gihapon": 1154,
      "magb": 1155,
      "##alam": 1156,
      "##nagon": 1157,
      "kris": 1158,
      "con": 1159,
      "command": 1160,
      "##unga": 1161,
      "lak": 1162,
      "##atu": 1163,
      "upang": 1164,
      "maayo": 1165,
      "##ida": 1166,
      "sim": 1167,
      "##igo": 1168,
      "interes": 1169,
      "##akita": 1170,
      "ginad": 1171,
      "##abot": 1172,
      "bar": 1173,
      "did": 1174,
      "##imb": 1175,
      "yara": 1176,
      "marso": 1177,
      "##ilo": 1178,
      "army": 1179,
      "ginab": 1180,
      "##ey": 1181,
      "##kl": 1182,
      "makap": 1183,
      "##per": 1184,
      "car": 1185,
      "armas": 1186,
      "iloy": 1187,
      "krisis": 1188,
      "##uwas": 1189,
      "kabahin": 1190,
      "pand": 1191,
      "kung": 1192,
      "atake": 1193,
      "##ihi": 1194,
      "aktib": 1195,
      "##ipon": 1196,
      "dr": 1197,
      "##angkot": 1198,
      "##inan": 1199,
      "didto": 1200,
      "asawa": 1201,
      "##adayon": 1202,
      "sug": 1203,
      "##pon": 1204,
      "##syun": 1205,
      "##ensiba": 1206,
      "sobra": 1207,
      "##wayan": 1208,
      "##pe": 1209,
      "##akal": 1210,
      "kami": 1211,
      "rehi": 1212,
      "mayo": 1213,
      "pap": 1214,
      "sabat": 1215,
      "agr": 1216,
      "tawhanon": 1217,
      "kampan": 1218,
      "hambal": 1219,
      "##asa": 1220,
      "nasambit": 1221,
      "##uson": 1222,
      "##ena": 1223,
      "lapnagon": 1224,
      "peop": 1225,
      "pinakam": 1226,
      "2023": 1227,
      "##asyong": 1228,
      "##ibal": 1229,
      "kusog": 1230,
      "abr": 1231,
      "halos": 1232,
      "##ider": 1233,
      "per": 1234,
      "baryo": 1235,
      "##ulot": 1236,
      "##ary": 1237,
      "##hag": 1238,
      "lima": 1239,
      "naka": 1240,
      "bilyon": 1241,
      "##ami": 1242,
      "komite": 1243,
      "##eral": 1244,
      "##akop": 1245,
      "aresto": 1246,
      "dala": 1247,
      "nal": 1248,
      "##ine": 1249,
      "protesta": 1250,
      "to": 1251,
      "##usan": 1252,
      "30": 1253,
      "ekonomya": 1254,
      "south": 1255,
      "##ial": 1256,
      "ong": 1257,
      "##isya": 1258,
      "kahil": 1259,
      "bagong": 1260,
      "##yunal": 1261,
      "pon": 1262,
      "ina": 1263,
      "##de": 1264,
      "##ahal": 1265,
      "proble": 1266,
      "lakip": 1267,
      "kol": 1268,
      "anay": 1269,
      "makab": 1270,
      "##awo": 1271,
      "reaksyun": 1272,
      "me": 1273,
      "15": 1274,
      "napatay": 1275,
      "lik": 1276,
      "##yudad": 1277,
      "hand": 1278,
      "pangp": 1279,
      "amon": 1280,
      "babay": 1281,
      "##intas": 1282,
      "##igal": 1283,
      "sundalo": 1284,
      "new": 1285,
      "ginpas": 1286,
      "eks": 1287,
      "##ulos": 1288,
      "ginpatay": 1289,
      "##osto": 1290,
      "it": 1291,
      "opensiba": 1292,
      "gahum": 1293,
      "ob": 1294,
      "##iz": 1295,
      "10": 1296,
      "##ino": 1297,
      "people": 1298,
      "##alana": 1299,
      "##angan": 1300,
      "suno": 1301,
      "kapitalista": 1302,
      "##ukan": 1303,
      "##ulat": 1304,
      "pu": 1305,
      "palang": 1306,
      "gyera": 1307,
      "kundi": 1308,
      "##pc": 1309,
      "##oh": 1310,
      "ub": 1311,
      "##adl": 1312,
      "sur": 1313,
      "xa": 1314,
      "ngaa": 1315,
      "nakap": 1316,
      "kalibutan": 1317,
      "##kwentro": 1318,
      "##ces": 1319,
      "##ilang": 1320,
      "agosto": 1321,
      "leb": 1322,
      "mataas": 1323,
      "berd": 1324,
      "##ulitika": 1325,
      "del": 1326,
      "imb": 1327,
      "##ungk": 1328,
      "##wan": 1329,
      "##ender": 1330,
      "##aagi": 1331,
      "##asig": 1332,
      "##orm": 1333,
      "##uta": 1334,
      "central": 1335,
      "##ikan": 1336,
      "##unggan": 1337,
      "##go": 1338,
      "##zon": 1339,
      "mahimo": 1340,
      "pandem": 1341,
      "sem": 1342,
      "kump": 1343,
      "##arangan": 1344,
      "proyekto": 1345,
      "##atian": 1346,
      "rehiyon": 1347,
      "##uhay": 1348,
      "takt": 1349,
      "pagpatay": 1350,
      "maka": 1351,
      "##ags": 1352,
      "##bato": 1353,
      "syudad": 1354,
      "hunyo": 1355,
      "2022": 1356,
      "trabaho": 1357,
      "##gos": 1358,
      "pamaagi": 1359,
      "##alibutan": 1360,
      "porma": 1361,
      "kahilwayan": 1362,
      "plano": 1363,
      "madugay": 1364,
      "##yahan": 1365,
      "enero": 1366,
      "kaumhan": 1367,
      "sahi": 1368,
      "pagbato": 1369,
      "kaw": 1370,
      "nya": 1371,
      "ginpang": 1372,
      "##cac": 1373,
      "##awat": 1374,
      "##awag": 1375,
      "engkwentro": 1376,
      "paglapas": 1377,
      "paghulag": 1378,
      "elcac": 1379,
      "layi": 1380,
      "milyon": 1381,
      "##usa": 1382,
      "elek": 1383,
      "lider": 1384,
      "makita": 1385,
      "kur": 1386,
      "kong": 1387,
      "##tar": 1388,
      "mon": 1389,
      "mart": 1390,
      "upisyal": 1391,
      "programa": 1392,
      "abril": 1393,
      "ts": 1394,
      "kadalag": 1395,
      "##ice": 1396,
      "mis": 1397,
      "##ingki": 1398,
      "##igh": 1399,
      "pagtuon": 1400,
      "##apan": 1401,
      "##adlok": 1402,
      "pagm": 1403,
      "he": 1404,
      "##alup": 1405,
      "gob": 1406,
      "##ilala": 1407,
      "nakita": 1408,
      "pos": 1409,
      "##ie": 1410,
      "gera": 1411,
      "##uslan": 1412,
      "paano": 1413,
      "don": 1414,
      "away": 1415,
      "pamp": 1416,
      "pamat": 1417,
      "reg": 1418,
      "makas": 1419,
      "pandemya": 1420,
      "##ibot": 1421,
      "alas": 1422,
      "produksyon": 1423,
      "##ikang": 1424,
      "problema": 1425,
      "##ngan": 1426,
      "##mat": 1427,
      "lebel": 1428,
      "ben": 1429,
      "##lang": 1430,
      "##ibalo": 1431,
      "hukbong": 1432,
      "kadungan": 1433,
      "karon": 1434,
      "##amay": 1435,
      "kampanya": 1436,
      "madam": 1437,
      "##ustisya": 1438,
      "##ase": 1439,
      "##isasyon": 1440,
      "##tel": 1441,
      "er": 1442,
      "buh": 1443,
      "##yat": 1444,
      "##ustr": 1445,
      "padulong": 1446,
      "##ayun": 1447,
      "##4th": 1448,
      "##tf": 1449,
      "##va": 1450,
      "kabata": 1451,
      "12": 1452,
      "pagpamigos": 1453,
      "mais": 1454,
      "ikaw": 1455,
      "operation": 1456,
      "ulihi": 1457,
      "tan": 1458,
      "##ular": 1459,
      "da": 1460,
      "nagapanguna": 1461,
      "##abaw": 1462,
      "##gas": 1463,
      "tubig": 1464,
      "##gar": 1465,
      "pagpa": 1466,
      "hustisya": 1467,
      "ginaga": 1468,
      "kababa": 1469,
      "##may": 1470,
      "husto": 1471,
      "gd": 1472,
      "ting": 1473,
      "philippine": 1474,
      "##agwa": 1475,
      "##uya": 1476,
      "disyembre": 1477,
      "##gamit": 1478,
      "₱1": 1479,
      "dalan": 1480,
      "ih": 1481,
      "##ber": 1482,
      "##ubong": 1483,
      "sh": 1484,
      "##gu": 1485,
      "##ungod": 1486,
      "tar": 1487,
      "makah": 1488,
      "##ambalan": 1489,
      "mayor": 1490,
      "antes": 1491,
      "pamatan": 1492,
      "##ebr": 1493,
      "korap": 1494,
      "pis": 1495,
      "sar": 1496,
      "##nubo": 1497,
      "babaye": 1498,
      "ato": 1499,
      "pamangkot": 1500,
      "matapos": 1501,
      "gobyerno": 1502,
      "ntf": 1503,
      "##uo": 1504,
      "##ihan": 1505,
      "pagtukod": 1506,
      "isulong": 1507,
      "pagpamuno": 1508,
      "##uhon": 1509,
      "apat": 1510,
      "imperyalistang": 1511,
      "pondo": 1512,
      "estr": 1513,
      "gusto": 1514,
      "##ulok": 1515,
      "dem": 1516,
      "##yudal": 1517,
      "agalon": 1518,
      "tap": 1519,
      "##insya": 1520,
      "guih": 1521,
      "dag": 1522,
      "##get": 1523,
      "##alitan": 1524,
      "##mang": 1525,
      "##iental": 1526,
      "dayon": 1527,
      "serb": 1528,
      "dikt": 1529,
      "oriental": 1530,
      "kamot": 1531,
      "##umb": 1532,
      "pagpakig": 1533,
      "ginapang": 1534,
      "##orte": 1535,
      "##urender": 1536,
      "kan": 1537,
      "komunista": 1538,
      "##ha": 1539,
      "##ulngan": 1540,
      "magd": 1541,
      "##inhan": 1542,
      "ginpa": 1543,
      "ep": 1544,
      "##sang": 1545,
      "pagkaon": 1546,
      "##lat": 1547,
      "amb": 1548,
      "ba": 1549,
      "##awig": 1550,
      "krimen": 1551,
      "idalum": 1552,
      "##ño": 1553,
      "paglunsar": 1554,
      "terorismo": 1555,
      "anti": 1556,
      "pil": 1557,
      "##uron": 1558,
      "dek": 1559,
      "dal": 1560,
      "import": 1561,
      "guihulngan": 1562,
      "kwar": 1563,
      "namon": 1564,
      "##inal": 1565,
      "##yante": 1566,
      "gi": 1567,
      "##tra": 1568,
      "##balik": 1569,
      "##ulig": 1570,
      "##aylo": 1571,
      "##udl": 1572,
      "nob": 1573,
      "uban": 1574,
      "manila": 1575,
      "##yos": 1576,
      "##akat": 1577,
      "mismo": 1578,
      "katung": 1579,
      "mind": 1580,
      "lalak": 1581,
      "kinahanglanon": 1582,
      "94th": 1583,
      "sanday": 1584,
      "semana": 1585,
      "hul": 1586,
      "##igit": 1587,
      "##ord": 1588,
      "amay": 1589,
      "handum": 1590,
      "##athag": 1591,
      "##oran": 1592,
      "manug": 1593,
      "##arar": 1594,
      "polis": 1595,
      "##akit": 1596,
      "##udlay": 1597,
      "ginlunsar": 1598,
      "suporta": 1599,
      "##ras": 1600,
      "##ultura": 1601,
      "pilit": 1602,
      "##ilidad": 1603,
      "##agay": 1604,
      "##indog": 1605,
      "##ayong": 1606,
      "##lain": 1607,
      "sil": 1608,
      "kabaro": 1609,
      "ginagamit": 1610,
      "nagapam": 1611,
      "2021": 1612,
      "hugot": 1613,
      "ca": 1614,
      "##ges": 1615,
      "##sol": 1616,
      "polisiya": 1617,
      "bak": 1618,
      "##roong": 1619,
      "mayroong": 1620,
      "inyo": 1621,
      "##alagan": 1622,
      "forces": 1623,
      "ginhimo": 1624,
      "##utal": 1625,
      "pek": 1626,
      "##olb": 1627,
      "##ibers": 1628,
      "##anao": 1629,
      "batok": 1630,
      "tab": 1631,
      "##ubliko": 1632,
      "##alisa": 1633,
      "antus": 1634,
      "buruk": 1635,
      "gas": 1636,
      "##ian": 1637,
      "##aysayan": 1638,
      "kub": 1639,
      "##illa": 1640,
      "negos": 1641,
      "mata": 1642,
      "##inong": 1643,
      "agod": 1644,
      "##angil": 1645,
      "ulo": 1646,
      "tikang": 1647,
      "##nan": 1648,
      "##udlo": 1649,
      "oktub": 1650,
      "oktubre": 1651,
      "##yado": 1652,
      "masami": 1653,
      "ala": 1654,
      "##ulta": 1655,
      "kumand": 1656,
      "##ugma": 1657,
      "##inguha": 1658,
      "##ilyon": 1659,
      "katungdanan": 1660,
      "sum": 1661,
      "##ugong": 1662,
      "utang": 1663,
      "subay": 1664,
      "natabo": 1665,
      "##iliusa": 1666,
      "##aligan": 1667,
      "##aduha": 1668,
      "gan": 1669,
      "pebr": 1670,
      "sakop": 1671,
      "pebrero": 1672,
      "manubo": 1673,
      "##akaran": 1674,
      "kabataan": 1675,
      "magnubo": 1676,
      "##ugod": 1677,
      "sige": 1678,
      "##ektibo": 1679,
      "palangabuhian": 1680,
      "##yente": 1681,
      "##able": 1682,
      "ikas": 1683,
      "sektor": 1684,
      "pagsulong": 1685,
      "kand": 1686,
      "ndfp": 1687,
      "cp": 1688,
      "dul": 1689,
      "put": 1690,
      "kaangay": 1691,
      "patakaran": 1692,
      "rason": 1693,
      "##himulos": 1694,
      "commun": 1695,
      "##alapad": 1696,
      "dalagko": 1697,
      "ikasarang": 1698,
      "kagamit": 1699,
      "lalaki": 1700,
      "lu": 1701,
      "##asya": 1702,
      "kampo": 1703,
      "##ate": 1704,
      "masunod": 1705,
      "##tod": 1706,
      "isip": 1707,
      "##irm": 1708,
      "##uba": 1709,
      "amer": 1710,
      "agaw": 1711,
      "mala": 1712,
      "hatagan": 1713,
      "mabuhi": 1714,
      "gamay": 1715,
      "ikaayong": 1716,
      "pk": 1717,
      "##ont": 1718,
      "kadre": 1719,
      "##asyunal": 1720,
      "bes": 1721,
      "##abaskog": 1722,
      "mario": 1723,
      "dug": 1724,
      "bukid": 1725,
      "##akan": 1726,
      "katuy": 1727,
      "##ci": 1728,
      "##inalag": 1729,
      "##orth": 1730,
      "kababainhan": 1731,
      "##init": 1732,
      "armed": 1733,
      "##uporta": 1734,
      "katuyuan": 1735,
      "serbisyo": 1736,
      "tumand": 1737,
      "iligal": 1738,
      "dekada": 1739,
      "tal": 1740,
      "##ardo": 1741,
      "##ene": 1742,
      "panay": 1743,
      "##taas": 1744,
      "##untad": 1745,
      "##ard": 1746,
      "##ekl": 1747,
      "198": 1748,
      "ya": 1749,
      "##ahe": 1750,
      "##lawan": 1751,
      "burukr": 1752,
      "north": 1753,
      "hukbo": 1754,
      "brutal": 1755,
      "##umdom": 1756,
      "niño": 1757,
      "##termin": 1758,
      "##ill": 1759,
      "##alismo": 1760,
      "nagkalainlain": 1761,
      "pakadto": 1762,
      "repor": 1763,
      "nagapan": 1764,
      "##tanan": 1765,
      "##ahug": 1766,
      "##mple": 1767,
      "##uyagyag": 1768,
      "tumandok": 1769,
      "tuyo": 1770,
      "dako": 1771,
      "##isip": 1772,
      "uga": 1773,
      "eleksyon": 1774,
      "prins": 1775,
      "ektar": 1776,
      "determin": 1777,
      "puwer": 1778,
      "2020": 1779,
      "##ayaw": 1780,
      "bangod": 1781,
      "taktikal": 1782,
      "sep": 1783,
      "bangk": 1784,
      "nagahari": 1785,
      "11": 1786,
      "##bay": 1787,
      "##gayon": 1788,
      "wa": 1789,
      "##agat": 1790,
      "dalagk": 1791,
      "liber": 1792,
      "##ilingban": 1793,
      "hulyo": 1794,
      "##ela": 1795,
      "ii": 1796,
      "sining": 1797,
      "##has": 1798,
      "##askugon": 1799,
      "##urs": 1800,
      "prinsip": 1801,
      "##edad": 1802,
      "pagpamatay": 1803,
      "himuon": 1804,
      "##alit": 1805,
      "pagg": 1806,
      "industr": 1807,
      "buot": 1808,
      "peke": 1809,
      "num": 1810,
      "padre": 1811,
      "bo": 1812,
      "manggad": 1813,
      "##ublag": 1814,
      "tun": 1815,
      "pabaskugon": 1816,
      "pinakad": 1817,
      "korapsyon": 1818,
      "cal": 1819,
      "no": 1820,
      "pun": 1821,
      "##ikanan": 1822,
      "14": 1823,
      "japan": 1824,
      "##aton": 1825,
      "##indugan": 1826,
      "pagpatuman": 1827,
      "pangpulitika": 1828,
      "##ola": 1829,
      "abi": 1830,
      "##ahog": 1831,
      "kabuk": 1832,
      "##ahalon": 1833,
      "##ambong": 1834,
      "jo": 1835,
      "##yagan": 1836,
      "malapit": 1837,
      "##ando": 1838,
      "pagbag": 1839,
      "tubtub": 1840,
      "ser": 1841,
      "basehan": 1842,
      "madamu": 1843,
      "##mb": 1844,
      "labing": 1845,
      "ex": 1846,
      "ra": 1847,
      "iloilo": 1848,
      "##mong": 1849,
      "mabaskog": 1850,
      "imperyalista": 1851,
      "##isan": 1852,
      "naglab": 1853,
      "##qu": 1854,
      "dam": 1855,
      "lor": 1856,
      "agrik": 1857,
      "naw": 1858,
      "pahayag": 1859,
      "kabukiran": 1860,
      "##uran": 1861,
      "kasaysayan": 1862,
      "seg": 1863,
      "ginikanan": 1864,
      "kagamitan": 1865,
      "##angkon": 1866,
      "sb": 1867,
      "cor": 1868,
      "ging": 1869,
      "madasig": 1870,
      "istr": 1871,
      "##digan": 1872,
      "nakat": 1873,
      "program": 1874,
      "prub": 1875,
      "tay": 1876,
      "##git": 1877,
      "simb": 1878,
      "bagay": 1879,
      "##amit": 1880,
      "ektarya": 1881,
      "dugo": 1882,
      "##co": 1883,
      "##atigayon": 1884,
      "sandig": 1885,
      "uma": 1886,
      "##st": 1887,
      "##ady": 1888,
      "tao": 1889,
      "burukrata": 1890,
      "##era": 1891,
      "abyan": 1892,
      "kubay": 1893,
      "##gi": 1894,
      "##ly": 1895,
      "sab": 1896,
      "kamatu": 1897,
      "nobyembre": 1898,
      "ipit": 1899,
      "ayhan": 1900,
      "kl": 1901,
      "isra": 1902,
      "ekonomiya": 1903,
      "ayud": 1904,
      "bana": 1905,
      "ulan": 1906,
      "##ahayag": 1907,
      "abot": 1908,
      "eduk": 1909,
      "israel": 1910,
      "##rd": 1911,
      "amat": 1912,
      "larangan": 1913,
      "prubinsya": 1914,
      "ginapas": 1915,
      "kamatuoran": 1916,
      "cr": 1917,
      "##olon": 1918,
      "anibers": 1919,
      "##cr": 1920,
      "##fic": 1921,
      "tagsa": 1922,
      "aksyon": 1923,
      "pangkalibutan": 1924,
      "mindanao": 1925,
      "anyos": 1926,
      "##tay": 1927,
      "##angon": 1928,
      "##adlong": 1929,
      "but": 1930,
      "##atayon": 1931,
      "kadam": 1932,
      "katapu": 1933,
      "##unuan": 1934,
      "nahibal": 1935,
      "##was": 1936,
      "##bilin": 1937,
      "##duta": 1938,
      "mayduta": 1939,
      "gikan": 1940,
      "##oder": 1941,
      "datu": 1942,
      "aktibista": 1943,
      "waay": 1944,
      "##tag": 1945,
      "##iy": 1946,
      "hambalan": 1947,
      "unyon": 1948,
      "anibersaryo": 1949,
      "pangkalibutanon": 1950,
      "##akaisa": 1951,
      "pulitika": 1952,
      "pagpamomba": 1953,
      "##yu": 1954,
      "##uel": 1955,
      "##bit": 1956,
      "##apin": 1957,
      "##ugmat": 1958,
      "reaksyunaryong": 1959,
      "##mal": 1960,
      "##aring": 1961,
      "##ugas": 1962,
      "sbng": 1963,
      "ig": 1964,
      "magap": 1965,
      "nakab": 1966,
      "magas": 1967,
      "burges": 1968,
      "kongres": 1969,
      "tatay": 1970,
      "200": 1971,
      "sya": 1972,
      "##ement": 1973,
      "daan": 1974,
      "##vid": 1975,
      "produkto": 1976,
      "sentral": 1977,
      "##pir": 1978,
      "front": 1979,
      "##rador": 1980,
      "##lit": 1981,
      "can": 1982,
      "lpc": 1983,
      "cpp": 1984,
      "##undan": 1985,
      "##enar": 1986,
      "nagaka": 1987,
      "##ca": 1988,
      "pangabuhian": 1989,
      "mao": 1990,
      "##ook": 1991,
      "##tok": 1992,
      "16": 1993,
      "##trabaho": 1994,
      "malahalon": 1995,
      "kahadlok": 1996,
      "##etro": 1997,
      "lum": 1998,
      "pkp": 1999,
      "##ev": 2000,
      "ngalan": 2001,
      "angut": 2002,
      "##itikal": 2003,
      "sandigan": 2004,
      "col": 2005,
      "mapang": 2006,
      "nan": 2007,
      "##ging": 2008,
      "ining": 2009,
      "##uhaw": 2010,
      "demokrasya": 2011,
      "puno": 2012,
      "sen": 2013,
      "ginahimo": 2014,
      "internasyunal": 2015,
      "pulu": 2016,
      "ud": 2017,
      "##udyante": 2018,
      "##anday": 2019,
      "basi": 2020,
      "##itabo": 2021,
      "insur": 2022,
      "depart": 2023,
      "##utos": 2024,
      "##aty": 2025,
      "18": 2026,
      "25": 2027,
      "pus": 2028,
      "tiil": 2029,
      "med": 2030,
      "pum": 2031,
      "gali": 2032,
      "suh": 2033,
      "pw": 2034,
      "pakaisa": 2035,
      "##ye": 2036,
      "##udlayan": 2037,
      "##hay": 2038,
      "berdugo": 2039,
      "pagkap": 2040,
      "##ateh": 2041,
      "estudyante": 2042,
      "kawad": 2043,
      "que": 2044,
      "sept": 2045,
      "ide": 2046,
      "ginal": 2047,
      "diktad": 2048,
      "higit": 2049,
      "kasug": 2050,
      "ord": 2051,
      "##tern": 2052,
      "human": 2053,
      "##tos": 2054,
      "##ose": 2055,
      "rekl": 2056,
      "erya": 2057,
      "17": 2058,
      "septyembre": 2059,
      "##oloh": 2060,
      "panawagan": 2061,
      "martir": 2062,
      "dip": 2063,
      "##apinan": 2064,
      "##amaylan": 2065,
      "target": 2066,
      "bac": 2067,
      "##gay": 2068,
      "##aslawan": 2069,
      "##ts": 2070,
      "##kan": 2071,
      "##igayon": 2072,
      "##igasyon": 2073,
      "direk": 2074,
      "himamaylan": 2075,
      "hublag": 2076,
      "norte": 2077,
      "##ibid": 2078,
      "kabang": 2079,
      "##ilanon": 2080,
      "madinalag": 2081,
      "patay": 2082,
      "##ago": 2083,
      "##atubang": 2084,
      "korte": 2085,
      "esk": 2086,
      "rebel": 2087,
      "prente": 2088,
      "##ines": 2089,
      "##ansya": 2090,
      "pagpanghimulos": 2091,
      "##alad": 2092,
      "##oses": 2093,
      "##ibong": 2094,
      "loc": 2095,
      "atr": 2096,
      "imong": 2097,
      "reaksyunaryo": 2098,
      "edukasyon": 2099,
      "ga": 2100,
      "hapon": 2101,
      "sakon": 2102,
      "##lac": 2103,
      "grabe": 2104,
      "batuan": 2105,
      "simbahan": 2106,
      "##ulangan": 2107,
      "quezon": 2108,
      "padayun": 2109,
      "##yur": 2110,
      "##ukaw": 2111,
      "iduso": 2112,
      "kamatayon": 2113,
      "13": 2114,
      "##gal": 2115,
      "uswag": 2116,
      "##agihan": 2117,
      "poder": 2118,
      "##oro": 2119,
      "juan": 2120,
      "##wit": 2121,
      "batt": 2122,
      "indibid": 2123,
      "##ti": 2124,
      "war": 2125,
      "##iban": 2126,
      "tuk": 2127,
      "##ec": 2128,
      "malip": 2129,
      "inagihan": 2130,
      "pagkab": 2131,
      "##iwan": 2132,
      "komp": 2133,
      "##upok": 2134,
      "numero": 2135,
      "ayuda": 2136,
      "##itor": 2137,
      "gat": 2138,
      "baseng": 2139,
      "hear": 2140,
      "tuga": 2141,
      "##reto": 2142,
      "oras": 2143,
      "##umdum": 2144,
      "##truk": 2145,
      "salog": 2146,
      "bangkay": 2147,
      "ro": 2148,
      "tina": 2149,
      "##bon": 2150,
      "##los": 2151,
      "##za": 2152,
      "##ors": 2153,
      "masak": 2154,
      "pulong": 2155,
      "leon": 2156,
      "qu": 2157,
      "rebolus": 2158,
      "ikaduha": 2159,
      "edad": 2160,
      "nanay": 2161,
      "pito": 2162,
      "sunod": 2163,
      "diktadur": 2164,
      "apan": 2165,
      "nakas": 2166,
      "agrikultura": 2167,
      "21": 2168,
      "##ibang": 2169,
      "analisa": 2170,
      "##alion": 2171,
      "paghiliusa": 2172,
      "kongreso": 2173,
      "##eg": 2174,
      "mapintas": 2175,
      "desisyon": 2176,
      "sob": 2177,
      "kasubong": 2178,
      "kahalitan": 2179,
      "##aham": 2180,
      "nakal": 2181,
      "ginpal": 2182,
      "pagpangh": 2183,
      "##igya": 2184,
      "hen": 2185,
      "##san": 2186,
      "angkon": 2187,
      "tigulang": 2188,
      "##iksyon": 2189,
      "battalion": 2190,
      "gen": 2191,
      "₱2": 2192,
      "##tik": 2193,
      "simana": 2194,
      "makig": 2195,
      "department": 2196,
      "##olohiya": 2197,
      "baba": 2198,
      "##isda": 2199,
      "unit": 2200,
      "bisag": 2201,
      "salak": 2202,
      "##ve": 2203,
      "sah": 2204,
      "##utigan": 2205,
      "##igay": 2206,
      "##umduman": 2207,
      "covid": 2208,
      "utod": 2209,
      "palest": 2210,
      "##ede": 2211,
      "reporma": 2212,
      "lit": 2213,
      "katapusan": 2214,
      "hum": 2215,
      "##ver": 2216,
      "##inyo": 2217,
      "reaksyon": 2218,
      "##siyon": 2219,
      "##oper": 2220,
      "partik": 2221,
      "benep": 2222,
      "##ulan": 2223,
      "kulang": 2224,
      "mong": 2225,
      "##imuslan": 2226,
      "nagm": 2227,
      "militarisasyon": 2228,
      "pirm": 2229,
      "linibo": 2230,
      "baylo": 2231,
      "26": 2232,
      "kasyud": 2233,
      "##torya": 2234,
      "##adyet": 2235,
      "##orya": 2236,
      "##ork": 2237,
      "puluy": 2238,
      "ir": 2239,
      "pagpah": 2240,
      "sec": 2241,
      "sus": 2242,
      "party": 2243,
      "segur": 2244,
      "kasyudaran": 2245,
      "ha": 2246,
      "##arian": 2247,
      "nar": 2248,
      "nilang": 2249,
      "##ungko": 2250,
      "imperyalismong": 2251,
      "##mbl": 2252,
      "kabutigan": 2253,
      "upat": 2254,
      "##apit": 2255,
      "##ukot": 2256,
      "partikular": 2257,
      "##uoy": 2258,
      "trans": 2259,
      "sistemang": 2260,
      "##inar": 2261,
      "##awhan": 2262,
      "##upad": 2263,
      "00": 2264,
      "du": 2265,
      "pakig": 2266,
      "tul": 2267,
      "##tit": 2268,
      "pasangil": 2269,
      "kumander": 2270,
      "dalagku": 2271,
      "##iso": 2272,
      "gar": 2273,
      "nahan": 2274,
      "##oso": 2275,
      "aktibidad": 2276,
      "nagapabilin": 2277,
      "bomba": 2278,
      "hmbl": 2279,
      "##log": 2280,
      "beses": 2281,
      "##vel": 2282,
      "region": 2283,
      "##ikano": 2284,
      "prib": 2285,
      "force": 2286,
      "tingog": 2287,
      "ut": 2288,
      "##unting": 2289,
      "maathag": 2290,
      "##ive": 2291,
      "##ursig": 2292,
      "##yembro": 2293,
      "##land": 2294,
      "amerikano": 2295,
      "badyet": 2296,
      "##abu": 2297,
      "##odo": 2298,
      "pagpangl": 2299,
      "himo": 2300,
      "##ible": 2301,
      "50": 2302,
      "dili": 2303,
      "##wala": 2304,
      "nagaharing": 2305,
      "kwarta": 2306,
      "gaw": 2307,
      "ump": 2308,
      "kahoy": 2309,
      "##iwanag": 2310,
      "##alapit": 2311,
      "##ipay": 2312,
      "raw": 2313,
      "balak": 2314,
      "paliwanag": 2315,
      "maglunsar": 2316,
      "dri": 2317,
      "uk": 2318,
      "ahensya": 2319,
      "international": 2320,
      "eskwel": 2321,
      "vic": 2322,
      "insurh": 2323,
      "##adlaw": 2324,
      "##enda": 2325,
      "rj": 2326,
      "yo": 2327,
      "##ural": 2328,
      "balik": 2329,
      "laye": 2330,
      "rjpc": 2331,
      "lo": 2332,
      "##indi": 2333,
      "##agsik": 2334,
      "dum": 2335,
      "##ez": 2336,
      "sap": 2337,
      "##ugal": 2338,
      "military": 2339,
      "organisasyong": 2340,
      "eskwelahan": 2341,
      "rey": 2342,
      "##eklarar": 2343,
      "##ge": 2344,
      "##olet": 2345,
      "makal": 2346,
      "##aras": 2347,
      "communist": 2348,
      "mer": 2349,
      "##ipisyo": 2350,
      "sugod": 2351,
      "##oseso": 2352,
      "nanday": 2353,
      "uyat": 2354,
      "##ret": 2355,
      "panan": 2356,
      "mod": 2357,
      "##lik": 2358,
      "mapa": 2359,
      "men": 2360,
      "##mento": 2361,
      "prinsipyo": 2362,
      "ale": 2363,
      "luwas": 2364,
      "pinaka": 2365,
      "din": 2366,
      "pata": 2367,
      "##taw": 2368,
      "##atyagon": 2369,
      "rebolusyong": 2370,
      "##ka": 2371,
      "##ahi": 2372,
      "report": 2373,
      "linte": 2374,
      "estrateh": 2375,
      "def": 2376,
      "##atic": 2377,
      "cl": 2378,
      "cam": 2379,
      "day": 2380,
      "##anaog": 2381,
      "imporm": 2382,
      "pabor": 2383,
      "aktibo": 2384,
      "terorista": 2385,
      "pataason": 2386,
      "luns": 2387,
      "##mi": 2388,
      "pasismo": 2389,
      "desper": 2390,
      "paggamit": 2391,
      "impras": 2392,
      "##alista": 2393,
      "soldado": 2394,
      "##ises": 2395,
      "##her": 2396,
      "kaay": 2397,
      "##uyang": 2398,
      "presidente": 2399,
      "##resulta": 2400,
      "hambalanon": 2401,
      "pangapinan": 2402,
      "##yedad": 2403,
      "##akam": 2404,
      "asia": 2405,
      "mabuhay": 2406,
      "likod": 2407,
      "dom": 2408,
      "##tura": 2409,
      "##sada": 2410,
      "nabat": 2411,
      "malaparan": 2412,
      "hay": 2413,
      "intel": 2414,
      "##tom": 2415,
      "malala": 2416,
      "##arungan": 2417,
      "##aktura": 2418,
      "burgesya": 2419,
      "kabangdanan": 2420,
      "val": 2421,
      "atras": 2422,
      "lag": 2423,
      "pigos": 2424,
      "##ibi": 2425,
      "balatyagon": 2426,
      "plant": 2427,
      "##wn": 2428,
      "nahimo": 2429,
      "go": 2430,
      "##amis": 2431,
      "pirme": 2432,
      "22": 2433,
      "pet": 2434,
      "police": 2435,
      "pangh": 2436,
      "imbest": 2437,
      "pati": 2438,
      "##tek": 2439,
      "marx": 2440,
      "opisyal": 2441,
      "tyo": 2442,
      "hing": 2443,
      "kund": 2444,
      "##istr": 2445,
      "kabal": 2446,
      "bugas": 2447,
      "red": 2448,
      "kriminal": 2449,
      "dy": 2450,
      "st": 2451,
      "##omb": 2452,
      "##balhas": 2453,
      "anakbalhas": 2454,
      "hambalon": 2455,
      "hulag": 2456,
      "len": 2457,
      "sr": 2458,
      "##ry": 2459,
      "ginpam": 2460,
      "##alisk": 2461,
      "dok": 2462,
      "ham": 2463,
      "##one": 2464,
      "kabil": 2465,
      "imol": 2466,
      "##peto": 2467,
      "##igayun": 2468,
      "be": 2469,
      "makit": 2470,
      "paghatag": 2471,
      "papel": 2472,
      "##agunting": 2473,
      "sultan": 2474,
      "buhi": 2475,
      "##trol": 2476,
      "kalinong": 2477,
      "29": 2478,
      "dol": 2479,
      "nakah": 2480,
      "kinaiya": 2481,
      "alagad": 2482,
      "ginapa": 2483,
      "##erson": 2484,
      "bunga": 2485,
      "##agahon": 2486,
      "##imu": 2487,
      "##alakay": 2488,
      "sg": 2489,
      "##olib": 2490,
      "neolib": 2491,
      "santo": 2492,
      "salakyan": 2493,
      "butang": 2494,
      "rod": 2495,
      "##agyan": 2496,
      "salagunting": 2497,
      "##antus": 2498,
      "mahin": 2499,
      "sosyal": 2500,
      "todo": 2501,
      "##inahanglan": 2502,
      "pagpat": 2503,
      "elemento": 2504,
      "##wasyon": 2505,
      "##ira": 2506,
      "##reh": 2507,
      "ros": 2508,
      "##idalom": 2509,
      "##hanas": 2510,
      "##rika": 2511,
      "palibot": 2512,
      "bab": 2513,
      "##wang": 2514,
      "##gwa": 2515,
      "tiran": 2516,
      "##akup": 2517,
      "##uswag": 2518,
      "pagpamat": 2519,
      "pabrika": 2520,
      "##asaker": 2521,
      "dughan": 2522,
      "nay": 2523,
      "magbato": 2524,
      "##amatud": 2525,
      "2024": 2526,
      "##alupang": 2527,
      "kabilugan": 2528,
      "24": 2529,
      "dan": 2530,
      "##ensa": 2531,
      "insurhensya": 2532,
      "dali": 2533,
      "agre": 2534,
      "rebelde": 2535,
      "organisa": 2536,
      "negosyo": 2537,
      "kaayuhan": 2538,
      "kaakig": 2539,
      "kahuy": 2540,
      "prolet": 2541,
      "gabri": 2542,
      "indibidwal": 2543,
      "sy": 2544,
      "##alisasyon": 2545,
      "##cs": 2546,
      "##abig": 2547,
      "kilala": 2548,
      "mand": 2549,
      "##9th": 2550,
      "ram": 2551,
      "##ting": 2552,
      "toto": 2553,
      "huo": 2554,
      "hinali": 2555,
      "##ayas": 2556,
      "rek": 2557,
      "manging": 2558,
      "100": 2559,
      "bon": 2560,
      "jose": 2561,
      "sugilanon": 2562,
      "pabil": 2563,
      "197": 2564,
      "##ence": 2565,
      "##ign": 2566,
      "##ukas": 2567,
      "caf": 2568,
      "lunsay": 2569,
      "##uig": 2570,
      "##ibabaw": 2571,
      "democr": 2572,
      "pagmina": 2573,
      "pwede": 2574,
      "dagat": 2575,
      "##amuyo": 2576,
      "##erbi": 2577,
      "gamiton": 2578,
      "hub": 2579,
      "##awigon": 2580,
      "agi": 2581,
      "minilyon": 2582,
      "cafgu": 2583,
      "pagtrabaho": 2584,
      "##ulon": 2585,
      "patag": 2586,
      "##alayas": 2587,
      "##sion": 2588,
      "##ond": 2589,
      "##abak": 2590,
      "isabe": 2591,
      "##aligya": 2592,
      "isabela": 2593,
      "act": 2594,
      "##po": 2595,
      "##ayp": 2596,
      "##orts": 2597,
      "kontrad": 2598,
      "moises": 2599,
      "kolektibo": 2600,
      "pel": 2601,
      "vis": 2602,
      "pari": 2603,
      "##uhum": 2604,
      "neoliberal": 2605,
      "mabug": 2606,
      "kaagahon": 2607,
      "##ipl": 2608,
      "kontrol": 2609,
      "presensya": 2610,
      "kandid": 2611,
      "rom": 2612,
      "##ran": 2613,
      "199": 2614,
      "nagaluntad": 2615,
      "umpisa": 2616,
      "##ugos": 2617,
      "palap": 2618,
      "direkta": 2619,
      "23": 2620,
      "pala": 2621,
      "##umod": 2622,
      "kapin": 2623,
      "##tani": 2624,
      "tani": 2625,
      "##pit": 2626,
      "##idyo": 2627,
      "halintang": 2628,
      "ndf": 2629,
      "##imbang": 2630,
      "sarang": 2631,
      "agreement": 2632,
      "sala": 2633,
      "bung": 2634,
      "##igugma": 2635,
      "gintukod": 2636,
      "naham": 2637,
      "mangingisda": 2638,
      "dira": 2639,
      "##3rd": 2640,
      "berdugong": 2641,
      "puwersa": 2642,
      "gingamit": 2643,
      "magluwas": 2644,
      "##kreto": 2645,
      "##les": 2646,
      "rep": 2647,
      "naglunsar": 2648,
      "##pi": 2649,
      "##ilway": 2650,
      "sitwasyon": 2651,
      "ligal": 2652,
      "##isina": 2653,
      "##wasak": 2654,
      "##olonyal": 2655,
      "democratic": 2656,
      "juli": 2657,
      "kontradiksyon": 2658,
      "od": 2659,
      "##agum": 2660,
      "##aman": 2661,
      "atom": 2662,
      "##alud": 2663,
      "magpa": 2664,
      "ginsug": 2665,
      "##unahon": 2666,
      "kaban": 2667,
      "temp": 2668,
      "##pons": 2669,
      "pwersang": 2670,
      "misamis": 2671,
      "cel": 2672,
      "kumprador": 2673,
      "pampulitika": 2674,
      "##ulasyon": 2675,
      "nagpa": 2676,
      "gutom": 2677,
      "gasto": 2678,
      "##titusyon": 2679,
      "##don": 2680,
      "##ungog": 2681,
      "napil": 2682,
      "##olbar": 2683,
      "leonardo": 2684,
      "pasilidad": 2685,
      "samar": 2686,
      "magal": 2687,
      "kuntani": 2688,
      "fran": 2689,
      "lola": 2690,
      "zena": 2691,
      "##yar": 2692,
      "##ayber": 2693,
      "##pagan": 2694,
      "suba": 2695,
      "ginhatag": 2696,
      "ginatos": 2697,
      "zenaida": 2698,
      "##son": 2699,
      "makad": 2700,
      "##lano": 2701,
      "panaligan": 2702,
      "bulig": 2703,
      "nagalala": 2704,
      "sea": 2705,
      "cas": 2706,
      "kul": 2707,
      "##utay": 2708,
      "##imbawa": 2709,
      "impormasyon": 2710,
      "##yaw": 2711,
      "##iplang": 2712,
      "nagapadayon": 2713,
      "batal": 2714,
      "paghari": 2715,
      "ulumhan": 2716,
      "ginahimuslan": 2717,
      "linya": 2718,
      "drayber": 2719,
      "##ee": 2720,
      "##enta": 2721,
      "##uhaan": 2722,
      "suhol": 2723,
      "nagresulta": 2724,
      "##olo": 2725,
      "ginapam": 2726,
      "ass": 2727,
      "tinawo": 2728,
      "person": 2729,
      "##inand": 2730,
      "##rotesta": 2731,
      "pangkat": 2732,
      "permi": 2733,
      "progres": 2734,
      "southern": 2735,
      "masaker": 2736,
      "28": 2737,
      "ceb": 2738,
      "##iyahan": 2739,
      "##ganihan": 2740,
      "makak": 2741,
      "langis": 2742,
      "##ense": 2743,
      "sigur": 2744,
      "##vao": 2745,
      "davao": 2746,
      "determinasyon": 2747,
      "metro": 2748,
      "malapyudal": 2749,
      "##ayagan": 2750,
      "##alangga": 2751,
      "##last": 2752,
      "nawong": 2753,
      "dulot": 2754,
      "pyudal": 2755,
      "##ua": 2756,
      "##uok": 2757,
      "##imit": 2758,
      "kalam": 2759,
      "padilla": 2760,
      "##opol": 2761,
      "pagpalapad": 2762,
      "patar": 2763,
      "##idong": 2764,
      "##ibisyon": 2765,
      "pangkatilingban": 2766,
      "huna": 2767,
      "puro": 2768,
      "ginatan": 2769,
      "##upog": 2770,
      "tagip": 2771,
      "##erbe": 2772,
      "##sing": 2773,
      "##asura": 2774,
      "##unon": 2775,
      "malak": 2776,
      "##ica": 2777,
      "myembro": 2778,
      "pagtaas": 2779,
      "##ensyon": 2780,
      "lenin": 2781,
      "##pes": 2782,
      "##ck": 2783,
      "##cy": 2784,
      "inf": 2785,
      "india": 2786,
      "nabatian": 2787,
      "ferd": 2788,
      "olan": 2789,
      "##bo": 2790,
      "##ektong": 2791,
      "halimbawa": 2792,
      "epekto": 2793,
      "kasugtanan": 2794,
      "aq": 2795,
      "kasubo": 2796,
      "paslaw": 2797,
      "imperyalismo": 2798,
      "atomiko": 2799,
      "pangunahon": 2800,
      "panim": 2801,
      "dun": 2802,
      "mig": 2803,
      "##lag": 2804,
      "##abon": 2805,
      "##uklat": 2806,
      "siguro": 2807,
      "pabilog": 2808,
      "ferdinand": 2809,
      "ding": 2810,
      "malain": 2811,
      "##yot": 2812,
      "grupong": 2813,
      "##ies": 2814,
      "##upa": 2815,
      "buhis": 2816,
      "27": 2817,
      "##if": 2818,
      "proyektong": 2819,
      "##rehens": 2820,
      "kant": 2821,
      "mina": 2822,
      "##ilabot": 2823,
      "sip": 2824,
      "##ubig": 2825,
      "taiwan": 2826,
      "kapitalismo": 2827,
      "tukuron": 2828,
      "abd": 2829,
      "gindakop": 2830,
      "sun": 2831,
      "ginpasaka": 2832,
      "kahuyangan": 2833,
      "##apad": 2834,
      "ginpagwa": 2835,
      "singgit": 2836,
      "cebu": 2837,
      "bol": 2838,
      "walo": 2839,
      "pwers": 2840,
      "##ahm": 2841,
      "pagtan": 2842,
      "maghulag": 2843,
      "demanda": 2844,
      "gul": 2845,
      "##ugutan": 2846,
      "industriya": 2847,
      "tion": 2848,
      "##ds": 2849,
      "##ilian": 2850,
      "nabilin": 2851,
      "inc": 2852,
      "kilo": 2853,
      "##ektado": 2854,
      "ubos": 2855,
      "ideolohiya": 2856,
      "##paganda": 2857,
      "##ilot": 2858,
      "##imp": 2859,
      "ginapan": 2860,
      "hangin": 2861,
      "defense": 2862,
      "##alaw": 2863,
      "##olod": 2864,
      "##ulup": 2865,
      "sosyedad": 2866,
      "pumila": 2867,
      "tinaga": 2868,
      "##ayu": 2869,
      "pangabuhi": 2870,
      "maria": 2871,
      "namn": 2872,
      "estrada": 2873,
      "pinakadaku": 2874,
      "tak": 2875,
      "##ungon": 2876,
      "##akasan": 2877,
      "kapintas": 2878,
      "impl": 2879,
      "sahing": 2880,
      "kabudlayan": 2881,
      "bud": 2882,
      "str": 2883,
      "##bagan": 2884,
      "sosyalis": 2885,
      "kuryente": 2886,
      "₱3": 2887,
      "binal": 2888,
      "rodr": 2889,
      "napilasan": 2890,
      "##ons": 2891,
      "nagtuga": 2892,
      "po": 2893,
      "masarangan": 2894,
      "admin": 2895,
      "dios": 2896,
      "##ini": 2897,
      "##abawan": 2898,
      "mahal": 2899,
      "talam": 2900,
      "##utaan": 2901,
      "##aliwan": 2902,
      "karl": 2903,
      "monopol": 2904,
      "tapuson": 2905,
      "hag": 2906,
      "abuso": 2907,
      "ginatawag": 2908,
      "administr": 2909,
      "ninyo": 2910,
      "##apo": 2911,
      "##abton": 2912,
      "subd": 2913,
      "plantasyon": 2914,
      "##nag": 2915,
      "anum": 2916,
      "##utom": 2917,
      "2019": 2918,
      "500": 2919,
      "ipa": 2920,
      "mid": 2921,
      "##ner": 2922,
      "malig": 2923,
      "kasong": 2924,
      "pagtinguha": 2925,
      "nagahatag": 2926,
      "ido": 2927,
      "nagapa": 2928,
      "##que": 2929,
      "alyan": 2930,
      "je": 2931,
      "##eksyon": 2932,
      "binalbagan": 2933,
      "##sya": 2934,
      "##ivers": 2935,
      "##ahaha": 2936,
      "hahahahaha": 2937,
      "##ukon": 2938,
      "magad": 2939,
      "cap": 2940,
      "tra": 2941,
      "##ace": 2942,
      "##agsak": 2943,
      "benepisyo": 2944,
      "79th": 2945,
      "lar": 2946,
      "sentro": 2947,
      "nagpang": 2948,
      "##himakas": 2949,
      "##igayunan": 2950,
      "malakolonyal": 2951,
      "##yop": 2952,
      "##ipos": 2953,
      "##ilitar": 2954,
      "##down": 2955,
      "sitio": 2956,
      "taktika": 2957,
      "##itiko": 2958,
      "##ukpan": 2959,
      "corpor": 2960,
      "paghanas": 2961,
      "##ure": 2962,
      "kilid": 2963,
      "##alupok": 2964,
      "ambus": 2965,
      "##se": 2966,
      "say": 2967,
      "##abudlay": 2968,
      "##oma": 2969,
      "kahigayunan": 2970,
      "kaangot": 2971,
      "subdibisyon": 2972,
      "bit": 2973,
      "hanay": 2974,
      "list": 2975,
      "rcs": 2976,
      "pangkalin": 2977,
      "susp": 2978,
      "nabatyagan": 2979,
      "eb": 2980,
      "##bahin": 2981,
      "sanglit": 2982,
      "##ulit": 2983,
      "##agatan": 2984,
      "ululup": 2985,
      "aports": 2986,
      "suplay": 2987,
      "tunay": 2988,
      "bacolod": 2989,
      "ululupod": 2990,
      "##opment": 2991,
      "cons": 2992,
      "nalista": 2993,
      "tali": 2994,
      "sakr": 2995,
      "ginre": 2996,
      "dekl": 2997,
      "northern": 2998,
      "##anta": 2999,
      "##itimo": 3000,
      "##idasyon": 3001,
      "##uway": 3002,
      "##ota": 3003,
      "##fa": 3004,
      "##ukid": 3005,
      "##andum": 3006,
      "barko": 3007,
      "##aso": 3008,
      "nauna": 3009,
      "##uligay": 3010,
      "##iguson": 3011,
      "agum": 3012,
      "gindala": 3013,
      "inspir": 3014,
      "bus": 3015,
      "##mon": 3016,
      "protek": 3017,
      "pulo": 3018,
      "tabon": 3019,
      "patarasak": 3020,
      "libo": 3021,
      "our": 3022,
      "kapaslawan": 3023,
      "tuo": 3024,
      "puti": 3025,
      "rcsp": 3026,
      "handa": 3027,
      "##eta": 3028,
      "ec": 3029,
      "##isog": 3030,
      "napas": 3031,
      "kakugmat": 3032,
      "40": 3033,
      "##ilitan": 3034,
      "pagkad": 3035,
      "apektado": 3036,
      "nadula": 3037,
      "lorna": 3038,
      "haw": 3039,
      "wel": 3040,
      "##elo": 3041,
      "kompanya": 3042,
      "gintalana": 3043,
      "nagalab": 3044,
      "distr": 3045,
      "corporation": 3046,
      "bi": 3047,
      "manang": 3048,
      "##ulagon": 3049,
      "comp": 3050,
      "ber": 3051,
      "dat": 3052,
      "ho": 3053,
      "rel": 3054,
      "##lawas": 3055,
      "sekret": 3056,
      "yadto": 3057,
      "devel": 3058,
      "##baton": 3059,
      "luha": 3060,
      "rus": 3061,
      "angot": 3062,
      "##uhunan": 3063,
      "pangmal": 3064,
      "malab": 3065,
      "hilway": 3066,
      "##ungganon": 3067,
      "lip": 3068,
      "##alab": 3069,
      "nagapad": 3070,
      "pahulagon": 3071,
      "stat": 3072,
      "soc": 3073,
      "trin": 3074,
      "awto": 3075,
      "posible": 3076,
      "kta": 3077,
      "nagprotesta": 3078,
      "##uthang": 3079,
      "hug": 3080,
      "sir": 3081,
      "pagpap": 3082,
      "##ugid": 3083,
      "##legal": 3084,
      "##eo": 3085,
      "##lig": 3086,
      "##iman": 3087,
      "cab": 3088,
      "##ea": 3089,
      "pagkal": 3090,
      "lock": 3091,
      "seguridad": 3092,
      "task": 3093,
      "##ahuna": 3094,
      "maghimo": 3095,
      "##ulugan": 3096,
      "##loy": 3097,
      "punggan": 3098,
      "teritor": 3099,
      "sakripisyo": 3100,
      "##arm": 3101,
      "sulit": 3102,
      "bib": 3103,
      "nagbalik": 3104,
      "gabriel": 3105,
      "deklar": 3106,
      "##kat": 3107,
      "ibuyagyag": 3108,
      "katawhan": 3109,
      "negrosanon": 3110,
      "##eho": 3111,
      "labaw": 3112,
      "united": 3113,
      "trinidad": 3114,
      "##awi": 3115,
      "balor": 3116,
      "ener": 3117,
      "cat": 3118,
      "dayun": 3119,
      "gal": 3120,
      "mr": 3121,
      "uy": 3122,
      "##li": 3123,
      "nagabal": 3124,
      "##idungog": 3125,
      "determinado": 3126,
      "babae": 3127,
      "em": 3128,
      "talak": 3129,
      "##abuton": 3130,
      "konsol": 3131,
      "giyera": 3132,
      "kandidato": 3133,
      "set": 3134,
      "##umento": 3135,
      "katilingban": 3136,
      "##ilangang": 3137,
      "dungganon": 3138,
      "##nie": 3139,
      "##agmay": 3140,
      "respons": 3141,
      "paggin": 3142,
      "development": 3143,
      "igo": 3144,
      "##lor": 3145,
      "##gamo": 3146,
      "##abtan": 3147,
      "ahente": 3148,
      "epektibo": 3149,
      "cent": 3150,
      "banas": 3151,
      "silot": 3152,
      "nagakaigo": 3153,
      "jon": 3154,
      "##idor": 3155,
      "malawig": 3156,
      "kalakasan": 3157,
      "banggi": 3158,
      "visayas": 3159,
      "lockdown": 3160,
      "##sia": 3161,
      "nagapamuno": 3162,
      "boy": 3163,
      "mcc": 3164,
      "##ilyang": 3165,
      "panadlong": 3166,
      "mel": 3167,
      "##uhaon": 3168,
      "kalsada": 3169,
      "60": 3170,
      "land": 3171,
      "##pam": 3172,
      "##ampang": 3173,
      "##apak": 3174,
      "mapiguson": 3175,
      "panimalay": 3176,
      "bwas": 3177,
      "##50": 3178,
      "##ulaan": 3179,
      "##laon": 3180,
      "mac": 3181,
      "partidong": 3182,
      "makabayan": 3183,
      "##akamala": 3184,
      "##alala": 3185,
      "##abugal": 3186,
      "pagpad": 3187,
      "pamunuan": 3188,
      "pusil": 3189,
      "##hod": 3190,
      "##vis": 3191,
      "##angpan": 3192,
      "naghatag": 3193,
      "dagway": 3194,
      "kwarto": 3195,
      "##ibad": 3196,
      "##agaw": 3197,
      "##ensiya": 3198,
      "naghalin": 3199,
      "kabalayan": 3200,
      "bomb": 3201,
      "##ulsol": 3202,
      "pula": 3203,
      "medi": 3204,
      "russia": 3205,
      "##iyo": 3206,
      "kaina": 3207,
      "anuman": 3208,
      "malayo": 3209,
      "proseso": 3210,
      "kalamidad": 3211,
      "##ding": 3212,
      "sanga": 3213,
      "pagla": 3214,
      "kadutaan": 3215,
      "unod": 3216,
      "pangpubliko": 3217,
      "palestino": 3218,
      "kus": 3219,
      "propaganda": 3220,
      "operey": 3221,
      "ton": 3222,
      "##ne": 3223,
      "##amon": 3224,
      "##yor": 3225,
      "pagmasaker": 3226,
      "dalawa": 3227,
      "##usuon": 3228,
      "##esa": 3229,
      "maki": 3230,
      "balaklon": 3231,
      "##pital": 3232,
      "ubal": 3233,
      "kaim": 3234,
      "##ade": 3235,
      "sapat": 3236,
      "palaabuton": 3237,
      "##tad": 3238,
      "ginbal": 3239,
      "anu": 3240,
      "pagpanguna": 3241,
      "##yern": 3242,
      "dipota": 3243,
      "dyip": 3244,
      "abdak": 3245,
      "bawat": 3246,
      "anom": 3247,
      "ngipon": 3248,
      "##andig": 3249,
      "kundisyon": 3250,
      "air": 3251,
      "work": 3252,
      "angkan": 3253,
      "island": 3254,
      "kalamay": 3255,
      "korpor": 3256,
      "baganihan": 3257,
      "pagkam": 3258,
      "##uot": 3259,
      "##uwa": 3260,
      "agres": 3261,
      "mapas": 3262,
      "papet": 3263,
      "ugat": 3264,
      "li": 3265,
      "##unahan": 3266,
      "##imum": 3267,
      "##iktik": 3268,
      "##ights": 3269,
      "pes": 3270,
      "##wat": 3271,
      "##ibilidad": 3272,
      "##ortahan": 3273,
      "nagakah": 3274,
      "sekretaryo": 3275,
      "ginapanag": 3276,
      "gip": 3277,
      "iyahan": 3278,
      "##alas": 3279,
      "pangkabil": 3280,
      "insidente": 3281,
      "silingon": 3282,
      "regular": 3283,
      "ihatag": 3284,
      "##lastar": 3285,
      "tip": 3286,
      "nabal": 3287,
      "manun": 3288,
      "masbat": 3289,
      "nagpas": 3290,
      "##abatyag": 3291,
      "##aryado": 3292,
      "##uyon": 3293,
      "sag": 3294,
      "pagsulod": 3295,
      "sayop": 3296,
      "##unog": 3297,
      "pagpangd": 3298,
      "nagsulod": 3299,
      "ginkuha": 3300,
      "sentr": 3301,
      "##agayan": 3302,
      "aspeto": 3303,
      "tawhanong": 3304,
      "dalaga": 3305,
      "valle": 3306,
      "batay": 3307,
      "mt": 3308,
      "sel": 3309,
      "##ahas": 3310,
      "##angas": 3311,
      "##util": 3312,
      "inspirasyon": 3313,
      "plat": 3314,
      "##ayad": 3315,
      "pagbakal": 3316,
      "duog": 3317,
      "##wad": 3318,
      "##sment": 3319,
      "##abwag": 3320,
      "##andan": 3321,
      "kadagatan": 3322,
      "diutay": 3323,
      "pinakamataas": 3324,
      "pangmalawigon": 3325,
      "hayagan": 3326,
      "test": 3327,
      "##ket": 3328,
      "2018": 3329,
      "gane": 3330,
      "transport": 3331,
      "dak": 3332,
      "##yn": 3333,
      "##umahan": 3334,
      "estadong": 3335,
      "cha": 3336,
      "super": 3337,
      "##astigo": 3338,
      "diktadurya": 3339,
      "emple": 3340,
      "tam": 3341,
      "istorya": 3342,
      "pop": 3343,
      "##ange": 3344,
      "##igko": 3345,
      "siyam": 3346,
      "guwa": 3347,
      "ginpat": 3348,
      "magat": 3349,
      "blay": 3350,
      "##kado": 3351,
      "##pak": 3352,
      "##pong": 3353,
      "kaumahan": 3354,
      "bulawan": 3355,
      "awan": 3356,
      "desperado": 3357,
      "pi": 3358,
      "nagsugod": 3359,
      "tiyan": 3360,
      "reklam": 3361,
      "gawas": 3362,
      "talamnan": 3363,
      "dar": 3364,
      "pagpasurender": 3365,
      "batalyon": 3366,
      "rodrigo": 3367,
      "pl": 3368,
      "##dag": 3369,
      "##asar": 3370,
      "##estor": 3371,
      "##akigbato": 3372,
      "pagsul": 3373,
      "ordin": 3374,
      "marxismo": 3375,
      "leh": 3376,
      "tur": 3377,
      "##hiya": 3378,
      "##mn": 3379,
      "##yenda": 3380,
      "##ulad": 3381,
      "ginm": 3382,
      "nanginahanglan": 3383,
      "ginakond": 3384,
      "inday": 3385,
      "pagpasilabot": 3386,
      "obra": 3387,
      "maisog": 3388,
      "prenteng": 3389,
      "tagipusuon": 3390,
      "cagayan": 3391,
      "isyu": 3392,
      "pangm": 3393,
      "arth": 3394,
      "kapalibutan": 3395,
      "kombat": 3396,
      "##yudalismo": 3397,
      "pablo": 3398,
      "buena": 3399,
      "##ungka": 3400,
      "##ono": 3401,
      "##ubha": 3402,
      "balita": 3403,
      "baligya": 3404,
      "nagtaliwan": 3405,
      "importante": 3406,
      "nagapanawagan": 3407,
      "##ibangdan": 3408,
      "##uc": 3409,
      "##alon": 3410,
      "##uguon": 3411,
      "kaluoy": 3412,
      "##tort": 3413,
      "ginaduso": 3414,
      "hungod": 3415,
      "##yahe": 3416,
      "kailangang": 3417,
      "##uks": 3418,
      "nagakad": 3419,
      "ginhatagan": 3420,
      "himata": 3421,
      "##ampad": 3422,
      "bukidnon": 3423,
      "##iner": 3424,
      "##igi": 3425,
      "lapit": 3426,
      "vicente": 3427,
      "euro": 3428,
      "matag": 3429,
      "mabudlay": 3430,
      "##calan": 3431,
      "##ikasyon": 3432,
      "##iguro": 3433,
      "panindugan": 3434,
      "parehas": 3435,
      "##umpo": 3436,
      "palaparon": 3437,
      "paslawon": 3438,
      "suspek": 3439,
      "mapatay": 3440,
      "pagpamahug": 3441,
      "##undenar": 3442,
      "maghatag": 3443,
      "##cho": 3444,
      "imbestigasyon": 3445,
      "pyudalismo": 3446,
      "##sag": 3447,
      "##apa": 3448,
      "malinong": 3449,
      "##ampo": 3450,
      "##aysay": 3451,
      "merkado": 3452,
      "alec": 3453,
      "##kalan": 3454,
      "##uhin": 3455,
      "##rop": 3456,
      "nakuha": 3457,
      "pagpangabuhi": 3458,
      "magah": 3459,
      "minyong": 3460,
      "##iliug": 3461,
      "reklamo": 3462,
      "kabankalan": 3463,
      "##agan": 3464,
      "gulpi": 3465,
      "lut": 3466,
      "##ayao": 3467,
      "##yuhan": 3468,
      "##agway": 3469,
      "niini": 3470,
      "kasayp": 3471,
      "kolon": 3472,
      "sober": 3473,
      "progresibo": 3474,
      "kasaypanan": 3475,
      "hitabo": 3476,
      "piy": 3477,
      "##cial": 3478,
      "napan": 3479,
      "ginala": 3480,
      "##abal": 3481,
      "##try": 3482,
      "komers": 3483,
      "pamatukan": 3484,
      "imprastruk": 3485,
      "masbate": 3486,
      "spe": 3487,
      "west": 3488,
      "##ayaan": 3489,
      "combat": 3490,
      "ubay": 3491,
      "##cific": 3492,
      "lumad": 3493,
      "fre": 3494,
      "mers": 3495,
      "sp": 3496,
      "##bayan": 3497,
      "##ect": 3498,
      "mahinay": 3499,
      "publiko": 3500,
      "##tya": 3501,
      "##yuhum": 3502,
      "##ror": 3503,
      "bilugan": 3504,
      "kapigad": 3505,
      "imprastruktura": 3506,
      "dason": 3507,
      "gwa": 3508,
      "han": 3509,
      "##astern": 3510,
      "pacific": 3511,
      "manggar": 3512,
      "ginpatuman": 3513,
      "pagbalik": 3514,
      "piso": 3515,
      "fir": 3516,
      "₱4": 3517,
      "militante": 3518,
      "ilunsar": 3519,
      "ginakabig": 3520,
      "arthur": 3521,
      "band": 3522,
      "jac": 3523,
      "##kul": 3524,
      "##angga": 3525,
      "pagre": 3526,
      "mahibal": 3527,
      "disipl": 3528,
      "mersen": 3529,
      "lant": 3530,
      "##ulom": 3531,
      "##abok": 3532,
      "pagsaway": 3533,
      "kinaiyahan": 3534,
      "2016": 3535,
      "ginalunsar": 3536,
      "setyembre": 3537,
      "kapigaduhon": 3538,
      "stok": 3539,
      "##rans": 3540,
      "##inasyon": 3541,
      "upisina": 3542,
      "wak": 3543,
      "##ser": 3544,
      "nakak": 3545,
      "palak": 3546,
      "##alagman": 3547,
      "produktong": 3548,
      "pilason": 3549,
      "##iyang": 3550,
      "##vista": 3551,
      "pagpabaskog": 3552,
      "pangulo": 3553,
      "tinuig": 3554,
      "sakup": 3555,
      "diktador": 3556,
      "##pas": 3557,
      "terror": 3558,
      "pagpamatuk": 3559,
      "austr": 3560,
      "isda": 3561,
      "magab": 3562,
      "resulta": 3563,
      "nagasingki": 3564,
      "##net": 3565,
      "##arter": 3566,
      "maangkon": 3567,
      "bato": 3568,
      "paghigugma": 3569,
      "termin": 3570,
      "order": 3571,
      "korporasyon": 3572,
      "has": 3573,
      "rad": 3574,
      "##tas": 3575,
      "##lum": 3576,
      "makuha": 3577,
      "uno": 3578,
      "ilinit": 3579,
      "kampanyang": 3580,
      "fa": 3581,
      "##ona": 3582,
      "angel": 3583,
      "tiyo": 3584,
      "##ight": 3585,
      "bel": 3586,
      "nestor": 3587,
      "tort": 3588,
      "##anyon": 3589,
      "##ibabawan": 3590,
      "kongkreto": 3591,
      "kantidad": 3592,
      "af": 3593,
      "bulong": 3594,
      "##ual": 3595,
      "##ism": 3596,
      "##istan": 3597,
      "mahangpan": 3598,
      "leninismo": 3599,
      "lehitimo": 3600,
      "##bong": 3601,
      "##ide": 3602,
      "##ibag": 3603,
      "manok": 3604,
      "ped": 3605,
      "##masyon": 3606,
      "ibpa": 3607,
      "operasyong": 3608,
      "196": 3609,
      "303rd": 3610,
      "ginatantya": 3611,
      "##anga": 3612,
      "kalayo": 3613,
      "minorya": 3614,
      "pagdum": 3615,
      "hit": 3616,
      "##apoy": 3617,
      "katarungan": 3618,
      "akus": 3619,
      "mater": 3620,
      "subs": 3621,
      "##eyds": 3622,
      "operations": 3623,
      "##haw": 3624,
      "ginar": 3625,
      "simple": 3626,
      "pagpataas": 3627,
      "ani": 3628,
      "natural": 3629,
      "napamatud": 3630,
      "luzon": 3631,
      "teritoryo": 3632,
      "deklarasyon": 3633,
      "buenavista": 3634,
      "las": 3635,
      "##uct": 3636,
      "##las": 3637,
      "##ilyo": 3638,
      "masupog": 3639,
      "detat": 3640,
      "##ambi": 3641,
      "ginapatuman": 3642,
      "univers": 3643,
      "##ical": 3644,
      "peace": 3645,
      "dulunan": 3646,
      "administrasyong": 3647,
      "##cis": 3648,
      "magpang": 3649,
      "paghimo": 3650,
      "##ransak": 3651,
      "hulot": 3652,
      "mi": 3653,
      "##tuan": 3654,
      "##oni": 3655,
      "inte": 3656,
      "katalagman": 3657,
      "##raine": 3658,
      "pagsuporta": 3659,
      "gindeklarar": 3660,
      "nalab": 3661,
      "pampook": 3662,
      "gah": 3663,
      "##iter": 3664,
      "##ubos": 3665,
      "nagapakig": 3666,
      "napulo": 3667,
      "gerilyang": 3668,
      "kaimulon": 3669,
      "swan": 3670,
      "senado": 3671,
      "swannie": 3672,
      "rights": 3673,
      "##abunan": 3674,
      "panulok": 3675,
      "palay": 3676,
      "asud": 3677,
      "kagab": 3678,
      "ginpalukpan": 3679,
      "70": 3680,
      "##tahan": 3681,
      "natalana": 3682,
      "kapitan": 3683,
      "maoismo": 3684,
      "kuw": 3685,
      "##akot": 3686,
      "##abang": 3687,
      "##uyatan": 3688,
      "oplan": 3689,
      "alsa": 3690,
      "platun": 3691,
      "hel": 3692,
      "##aa": 3693,
      "##ungsod": 3694,
      "batangas": 3695,
      "asin": 3696,
      "nagakat": 3697,
      "pagpasulong": 3698,
      "imbes": 3699,
      "serye": 3700,
      "detatsment": 3701,
      "##gat": 3702,
      "pangabudlay": 3703,
      "nakig": 3704,
      "ginpah": 3705,
      "2017": 3706,
      "kurso": 3707,
      "estratehikong": 3708,
      "proletaryado": 3709,
      "europe": 3710,
      "tim": 3711,
      "##ced": 3712,
      "alyado": 3713,
      "pagpanag": 3714,
      "pagpahulag": 3715,
      "ginakondenar": 3716,
      "##rang": 3717,
      "##ukl": 3718,
      "nagpad": 3719,
      "basta": 3720,
      "kontrata": 3721,
      "taliwala": 3722,
      "mun": 3723,
      "tumulu": 3724,
      "inasar": 3725,
      "##ubas": 3726,
      "bibig": 3727,
      "opereytor": 3728,
      "gunit": 3729,
      "sm": 3730,
      "##old": 3731,
      "lorena": 3732,
      "klase": 3733,
      "kw": 3734,
      "ipatuman": 3735,
      "##resent": 3736,
      "drone": 3737,
      "ukraine": 3738,
      "um": 3739,
      "##gen": 3740,
      "##uka": 3741,
      "pamahog": 3742,
      "kinagamo": 3743,
      "ginbutang": 3744,
      "gaza": 3745,
      "anon": 3746,
      "kahang": 3747,
      "balatian": 3748,
      "escalan": 3749,
      "##arunganon": 3750,
      "ospital": 3751,
      "canlaon": 3752,
      "##even": 3753,
      "welga": 3754,
      "##yernong": 3755,
      "##tortyur": 3756,
      "escalante": 3757,
      "ing": 3758,
      "ginam": 3759,
      "##ogo": 3760,
      "##upaktura": 3761,
      "ibabaw": 3762,
      "##lana": 3763,
      "##tante": 3764,
      "kolum": 3765,
      "napa": 3766,
      "init": 3767,
      "rec": 3768,
      "halit": 3769,
      "##ober": 3770,
      "bangko": 3771,
      "madamuan": 3772,
      "pwersahan": 3773,
      "center": 3774,
      "mult": 3775,
      "non": 3776,
      "plac": 3777,
      "##mak": 3778,
      "kaisog": 3779,
      "##erol": 3780,
      "##usong": 3781,
      "maabot": 3782,
      "ari": 3783,
      "madalom": 3784,
      "pagpangawat": 3785,
      "kapal": 3786,
      "kagawad": 3787,
      "31": 3788,
      "jun": 3789,
      "yabi": 3790,
      "##ses": 3791,
      "inos": 3792,
      "##andaan": 3793,
      "##uyan": 3794,
      "reaksyonaryo": 3795,
      "pagkon": 3796,
      "##akon": 3797,
      "##igar": 3798,
      "##ations": 3799,
      "atubangon": 3800,
      "kilos": 3801,
      "ugaling": 3802,
      "pursig": 3803,
      "##hin": 3804,
      "kaswal": 3805,
      "libre": 3806,
      "luc": 3807,
      "alyansa": 3808,
      "limit": 3809,
      "tubi": 3810,
      "solusyon": 3811,
      "hunahuna": 3812,
      "tiraniko": 3813,
      "jonerol": 3814,
      "bun": 3815,
      "ganan": 3816,
      "##isipan": 3817,
      "higayon": 3818,
      "km": 3819,
      "rali": 3820,
      "ist": 3821,
      "bakuna": 3822,
      "community": 3823,
      "nahanungod": 3824,
      "##akos": 3825,
      "##eny": 3826,
      "##usw": 3827,
      "sinambit": 3828,
      "punglo": 3829,
      "pulitikal": 3830,
      "patri": 3831,
      "sakit": 3832,
      "##ueva": 3833,
      "irigasyon": 3834,
      "##nip": 3835,
      "##halit": 3836,
      "##ks": 3837,
      "##atiba": 3838,
      "kalipay": 3839,
      "nagatindog": 3840,
      "piyak": 3841,
      "kamukl": 3842,
      "nagahiliug": 3843,
      "##ward": 3844,
      "kamuklatan": 3845,
      "fo": 3846,
      "##awigan": 3847,
      "pagkas": 3848,
      "pagpangs": 3849,
      "ilabe": 3850,
      "probinsya": 3851,
      "datos": 3852,
      "coc": 3853,
      "vi": 3854,
      "##ior": 3855,
      "##ilag": 3856,
      "nav": 3857,
      "##apta": 3858,
      "nagatuga": 3859,
      "##artsa": 3860,
      "dalagan": 3861,
      "social": 3862,
      "pagsulundan": 3863,
      "pursigido": 3864,
      "55": 3865,
      "langit": 3866,
      "##ambo": 3867,
      "##alia": 3868,
      "paghang": 3869,
      "kumpan": 3870,
      "##umbas": 3871,
      "rog": 3872,
      "##tim": 3873,
      "##isyat": 3874,
      "kabaylo": 3875,
      "katimbang": 3876,
      "##ilipon": 3877,
      "##amatuod": 3878,
      "conf": 3879,
      "tsina": 3880,
      "mayorya": 3881,
      "disiplina": 3882,
      "university": 3883,
      "bum": 3884,
      "emp": 3885,
      "wasak": 3886,
      "##along": 3887,
      "##ark": 3888,
      "##itarian": 3889,
      "##utong": 3890,
      "bilyong": 3891,
      "nagkadto": 3892,
      "uyatan": 3893,
      "hors": 3894,
      "inutil": 3895,
      "##idunggan": 3896,
      "athag": 3897,
      "mining": 3898,
      "pangkalinungan": 3899,
      "##ulb": 3900,
      "##aping": 3901,
      "##apanaog": 3902,
      "katunga": 3903,
      "balas": 3904,
      "##imbuok": 3905,
      "gang": 3906,
      "##iron": 3907,
      "ginapigos": 3908,
      "pinas": 3909,
      "gintawag": 3910,
      "minimum": 3911,
      "agraryo": 3912,
      "industri": 3913,
      "transportasyon": 3914,
      "inosente": 3915,
      "ganansya": 3916,
      "₱5": 3917,
      "##itu": 3918,
      "##alaan": 3919,
      "anuns": 3920,
      "kalin": 3921,
      "natabu": 3922,
      "bastante": 3923,
      "brigad": 3924,
      "libro": 3925,
      "eksp": 3926,
      "##lad": 3927,
      "##aniban": 3928,
      "##akwit": 3929,
      "##osisyon": 3930,
      "ginpad": 3931,
      "##ict": 3932,
      "alang": 3933,
      "depensa": 3934,
      "makatarunganon": 3935,
      "gro": 3936,
      "##ayl": 3937,
      "inisyat": 3938,
      "nagag": 3939,
      "pangs": 3940,
      "aswang": 3941,
      "trib": 3942,
      "trilyon": 3943,
      "##aludo": 3944,
      "lir": 3945,
      "pmn": 3946,
      "##antry": 3947,
      "##usob": 3948,
      "madali": 3949,
      "mahatagan": 3950,
      "tagalog": 3951,
      "##ungkag": 3952,
      "joeven": 3953,
      "doming": 3954,
      "##vin": 3955,
      "##ile": 3956,
      "malaba": 3957,
      "prakt": 3958,
      "matod": 3959,
      "support": 3960,
      "ekonomiko": 3961,
      "modern": 3962,
      "manunudlo": 3963,
      "##ahaw": 3964,
      "nagpan": 3965,
      "##tem": 3966,
      "kabilo": 3967,
      "pagbin": 3968,
      "kapital": 3969,
      "##solida": 3970,
      "##aliskad": 3971,
      "##uswagon": 3972,
      "3rd": 3973,
      "japon": 3974,
      "##alah": 3975,
      "##itibo": 3976,
      "##ese": 3977,
      "##hanan": 3978,
      "nagapakita": 3979,
      "lapsag": 3980,
      "kaangtanan": 3981,
      "rol": 3982,
      "##andam": 3983,
      "kond": 3984,
      "panibag": 3985,
      "asos": 3986,
      "mabatian": 3987,
      "##ampi": 3988,
      "secur": 3989,
      "infantry": 3990,
      "listahan": 3991,
      "payag": 3992,
      "pasulit": 3993,
      "pagpauswag": 3994,
      "##pamaba": 3995,
      "muklat": 3996,
      "olay": 3997,
      "##ission": 3998,
      "##use": 3999,
      "det": 4000,
      "salabton": 4001,
      "nadumduman": 4002,
      "ebid": 4003,
      "kabilogan": 4004,
      "olayra": 4005,
      "##ject": 4006,
      "##ilaw": 4007,
      "##akpan": 4008,
      "##ugata": 4009,
      "##okus": 4010,
      "ipabilin": 4011,
      "ipakigbato": 4012,
      "##uwang": 4013,
      "pagduso": 4014,
      "istraping": 4015,
      "reaksyonaryong": 4016,
      "bub": 4017,
      "##dong": 4018,
      "##ated": 4019,
      "sib": 4020,
      "##oss": 4021,
      "##uhod": 4022,
      "napilitan": 4023,
      "katapuan": 4024,
      "offic": 4025,
      "ginahambal": 4026,
      "kinaandan": 4027,
      "##izal": 4028,
      "##uksok": 4029,
      "45": 4030,
      "foc": 4031,
      "sud": 4032,
      "##sad": 4033,
      "##alidad": 4034,
      "kagulangan": 4035,
      "##ogon": 4036,
      "##upong": 4037,
      "dutang": 4038,
      "hubon": 4039,
      "reklamasyon": 4040,
      "leksyon": 4041,
      "##akod": 4042,
      "##isk": 4043,
      "##igon": 4044,
      "##igting": 4045,
      "ginpan": 4046,
      "kadlum": 4047,
      "abaga": 4048,
      "organo": 4049,
      "nagtindog": 4050,
      "tempor": 4051,
      "impluw": 4052,
      "baligyaanay": 4053,
      "pay": 4054,
      "maayu": 4055,
      "katumbas": 4056,
      "labis": 4057,
      "##tant": 4058,
      "sosyo": 4059,
      "buhok": 4060,
      "placida": 4061,
      "focus": 4062,
      "tupad": 4063,
      "##sik": 4064,
      "##ff": 4065,
      "##asaka": 4066,
      "##arya": 4067,
      "##anse": 4068,
      "asset": 4069,
      "security": 4070,
      "gary": 4071,
      "##gang": 4072,
      "##itat": 4073,
      "##untat": 4074,
      "##igot": 4075,
      "kampus": 4076,
      "nagabaskog": 4077,
      "pamatyag": 4078,
      "##yus": 4079,
      "##ld": 4080,
      "##ahen": 4081,
      "##utaw": 4082,
      "nagpam": 4083,
      "trad": 4084,
      "imahen": 4085,
      "tagging": 4086,
      "teorya": 4087,
      "demol": 4088,
      "hinganiban": 4089,
      "ginapanawagan": 4090,
      "kolonyal": 4091,
      "dig": 4092,
      "dungan": 4093,
      "kuhaon": 4094,
      "lakas": 4095,
      "kaisipan": 4096,
      "##inga": 4097,
      "mahigko": 4098,
      "##awaan": 4099,
      "nagasuporta": 4100,
      "ginhambal": 4101,
      "##abaton": 4102,
      "##ibur": 4103,
      "makahal": 4104,
      "kalab": 4105,
      "kakapoy": 4106,
      "kahimbon": 4107,
      "##ization": 4108,
      "ambot": 4109,
      "nakabase": 4110,
      "##umdumon": 4111,
      "regional": 4112,
      "ginpasakaan": 4113,
      "asod": 4114,
      "suk": 4115,
      "##ron": 4116,
      "##yoso": 4117,
      "pagpadayon": 4118,
      "##ugyan": 4119,
      "##elle": 4120,
      "##ahanon": 4121,
      "alagyan": 4122,
      "kumb": 4123,
      "tagas": 4124,
      "reyd": 4125,
      "bonnet": 4126,
      "pagginahum": 4127,
      "##akamalaut": 4128,
      "##ho": 4129,
      "##ilign": 4130,
      "nagam": 4131,
      "param": 4132,
      "nakad": 4133,
      "pagtuo": 4134,
      "##ihon": 4135,
      "labot": 4136,
      "presyuhan": 4137,
      "martial": 4138,
      "boto": 4139,
      "media": 4140,
      "##7th": 4141,
      "##ahuway": 4142,
      "##olusyon": 4143,
      "##utig": 4144,
      "mainit": 4145,
      "pamins": 4146,
      "##oble": 4147,
      "bagyo": 4148,
      "tind": 4149,
      "baybay": 4150,
      "##igante": 4151,
      "coun": 4152,
      "abraham": 4153,
      "liberalisasyon": 4154,
      "materyal": 4155,
      "patriyot": 4156,
      "300": 4157,
      "mus": 4158,
      "pip": 4159,
      "##dp": 4160,
      "##iro": 4161,
      "##ulub": 4162,
      "##ikway": 4163,
      "katulad": 4164,
      "aktwal": 4165,
      "lubi": 4166,
      "##kwela": 4167,
      "solo": 4168,
      "##siang": 4169,
      "baboy": 4170,
      "##fael": 4171,
      "pina": 4172,
      "##tog": 4173,
      "##ingan": 4174,
      "pagtasa": 4175,
      "pinuno": 4176,
      "laban": 4177,
      "ginapangayo": 4178,
      "sigurado": 4179,
      "wakil": 4180,
      "##ja": 4181,
      "##alth": 4182,
      "##akay": 4183,
      "##ore": 4184,
      "magulang": 4185,
      "pagbal": 4186,
      "pagsaka": 4187,
      "nagasalig": 4188,
      "wasakon": 4189,
      "##alamat": 4190,
      "pautang": 4191,
      "art": 4192,
      "pagpangapin": 4193,
      "pagsabat": 4194,
      "libertad": 4195,
      "high": 4196,
      "ysiang": 4197,
      "##tol": 4198,
      "##uhoy": 4199,
      "masingki": 4200,
      "rafael": 4201,
      "sobrang": 4202,
      "heneral": 4203,
      "petibur": 4204,
      "kiko": 4205,
      "##mar": 4206,
      "ref": 4207,
      "##ich": 4208,
      "eksport": 4209,
      "fahm": 4210,
      "higante": 4211,
      "##aguba": 4212,
      "##arong": 4213,
      "madalum": 4214,
      "##apatan": 4215,
      "##krut": 4216,
      "kakulangan": 4217,
      "komprador": 4218,
      "##pesyal": 4219,
      "ginalauman": 4220,
      "bik": 4221,
      "dah": 4222,
      "los": 4223,
      "tel": 4224,
      "wes": 4225,
      "##ham": 4226,
      "##abato": 4227,
      "##pangapin": 4228,
      "nakibot": 4229,
      "##ema": 4230,
      "pagtib": 4231,
      "pulos": 4232,
      "##berto": 4233,
      "##truksyon": 4234,
      "diktaduryang": 4235,
      "##ligence": 4236,
      "enerhiya": 4237,
      "dugay": 4238,
      "isk": 4239,
      "kasal": 4240,
      "tuod": 4241,
      "pinoy": 4242,
      "mabat": 4243,
      "titser": 4244,
      "medikal": 4245,
      "manggaranon": 4246,
      "rene": 4247,
      "##westo": 4248,
      "kaisa": 4249,
      "##awon": 4250,
      "kapak": 4251,
      "oris": 4252,
      "##unoan": 4253,
      "pagpamahog": 4254,
      "karun": 4255,
      "likom": 4256,
      "##tellana": 4257,
      "##indihan": 4258,
      "francis": 4259,
      "castellana": 4260,
      "fahmida": 4261,
      "tat": 4262,
      "##az": 4263,
      "##haan": 4264,
      "sangk": 4265,
      "kawayan": 4266,
      "##undo": 4267,
      "ginapah": 4268,
      "magag": 4269,
      "##angkat": 4270,
      "balikatan": 4271,
      "anunsyo": 4272,
      "52": 4273,
      "farm": 4274,
      "ilegal": 4275,
      "tya": 4276,
      "##ny": 4277,
      "santa": 4278,
      "##eploy": 4279,
      "##amian": 4280,
      "local": 4281,
      "jor": 4282,
      "pund": 4283,
      "##my": 4284,
      "##areho": 4285,
      "ginbilin": 4286,
      "##tron": 4287,
      "project": 4288,
      "##ulagway": 4289,
      "##asakup": 4290,
      "gihulagway": 4291,
      "mindoro": 4292,
      "ipan": 4293,
      "parte": 4294,
      "katip": 4295,
      "special": 4296,
      "asosasyon": 4297,
      "demolisyon": 4298,
      "boh": 4299,
      "den": 4300,
      "##asat": 4301,
      "##inggit": 4302,
      "ginpili": 4303,
      "madula": 4304,
      "##toryahan": 4305,
      "compan": 4306,
      "antip": 4307,
      "guya": 4308,
      "##alapnag": 4309,
      "##ultural": 4310,
      "rox": 4311,
      "imprastr": 4312,
      "kang": 4313,
      "lg": 4314,
      "rizal": 4315,
      "wat": 4316,
      "kasakit": 4317,
      "nagapuyo": 4318,
      "##opter": 4319,
      "mapat": 4320,
      "pabay": 4321,
      "paminsaron": 4322,
      "##isyong": 4323,
      "##isita": 4324,
      "paantus": 4325,
      "##tero": 4326,
      "kakampi": 4327,
      "##piritu": 4328,
      "##operasyon": 4329,
      "##hol": 4330,
      "##agr": 4331,
      "##ondo": 4332,
      "agusan": 4333,
      "union": 4334,
      "##ampas": 4335,
      "konstitusyon": 4336,
      "##matiko": 4337,
      "intelligence": 4338,
      "bohol": 4339,
      "##ess": 4340,
      "malawigan": 4341,
      "##saulog": 4342,
      "kinaalam": 4343,
      "milyong": 4344,
      "midya": 4345,
      "tortyur": 4346,
      "kud": 4347,
      "was": 4348,
      "proper": 4349,
      "matin": 4350,
      "bansa": 4351,
      "gintuga": 4352,
      "minahan": 4353,
      "##artir": 4354,
      "empleyado": 4355,
      "dahon": 4356,
      "ku": 4357,
      "##tana": 4358,
      "##aboy": 4359,
      "##omiter": 4360,
      "palig": 4361,
      "patyon": 4362,
      "bilangg": 4363,
      "##alapta": 4364,
      "gubyernong": 4365,
      "brigade": 4366,
      "paramilitar": 4367,
      "##ilin": 4368,
      "kasanag": 4369,
      "pagdumdom": 4370,
      "puting": 4371,
      "monopolyo": 4372,
      "mersenaryo": 4373,
      "imprastraktura": 4374,
      "##cia": 4375,
      "##inado": 4376,
      "gintan": 4377,
      "ginpakita": 4378,
      "instr": 4379,
      "##akdag": 4380,
      "##usang": 4381,
      "##ingala": 4382,
      "##kons": 4383,
      "ginapat": 4384,
      "ginapad": 4385,
      "padih": 4386,
      "engk": 4387,
      "perman": 4388,
      "doktor": 4389,
      "domingo": 4390,
      "fac": 4391,
      "##wisyo": 4392,
      "##alast": 4393,
      "##ispo": 4394,
      "pauswagon": 4395,
      "makib": 4396,
      "mahigit": 4397,
      "idu": 4398,
      "##ach": 4399,
      "commission": 4400,
      "kanyon": 4401,
      "romeo": 4402,
      "pangkabilugan": 4403,
      "##alastas": 4404,
      "##yut": 4405,
      "##ilad": 4406,
      "##awasak": 4407,
      "kadaku": 4408,
      "asta": 4409,
      "nadulaan": 4410,
      "kabataang": 4411,
      "##resentar": 4412,
      "kapakanan": 4413,
      "fund": 4414,
      "tek": 4415,
      "##alya": 4416,
      "kasingk": 4417,
      "kapas": 4418,
      "aber": 4419,
      "##igana": 4420,
      "nahanunga": 4421,
      "##rehensibo": 4422,
      "capiz": 4423,
      "digong": 4424,
      "company": 4425,
      "##atura": 4426,
      "##andu": 4427,
      "##acha": 4428,
      "petrol": 4429,
      "makapang": 4430,
      "bitbit": 4431,
      "inisyatiba": 4432,
      "western": 4433,
      "##oga": 4434,
      "##1st": 4435,
      "##anya": 4436,
      "akig": 4437,
      "paniktik": 4438,
      "oposisyon": 4439,
      "magpabilin": 4440,
      "pagpasidungog": 4441,
      "ebidensya": 4442,
      "32": 4443,
      "mom": 4444,
      "##ulihi": 4445,
      "inadlaw": 4446,
      "##igro": 4447,
      "##ugtan": 4448,
      "mando": 4449,
      "magban": 4450,
      "##atihan": 4451,
      "##aniro": 4452,
      "ipakita": 4453,
      "ilocos": 4454,
      "pinakadako": 4455,
      "ideya": 4456,
      "makibaka": 4457,
      "har": 4458,
      "##alaga": 4459,
      "masakit": 4460,
      "kabalisk": 4461,
      "namang": 4462,
      "tropang": 4463,
      "bayaran": 4464,
      "okup": 4465,
      "makadali": 4466,
      "populasyon": 4467,
      "kalabanan": 4468,
      "kabaliskaran": 4469,
      "##bang": 4470,
      "##aggwa": 4471,
      "manuel": 4472,
      "kalap": 4473,
      "pagpangb": 4474,
      "chacha": 4475,
      "buang": 4476,
      "dinast": 4477,
      "mandu": 4478,
      "lt": 4479,
      "pook": 4480,
      "wor": 4481,
      "##dto": 4482,
      "##uhat": 4483,
      "manalastas": 4484,
      "##uko": 4485,
      "##sagan": 4486,
      "madumduman": 4487,
      "kontrakt": 4488,
      "chines": 4489,
      "grp": 4490,
      "philipin": 4491,
      "importasyon": 4492,
      "ganhaan": 4493,
      "kalinungan": 4494,
      "lirio": 4495,
      "chinese": 4496,
      "walay": 4497,
      "sako": 4498,
      "nagahimo": 4499,
      "magbalik": 4500,
      "aran": 4501,
      "##epensa": 4502,
      "nagabag": 4503,
      "ihibalo": 4504,
      "menor": 4505,
      "kusina": 4506,
      "munisip": 4507,
      "₱7": 4508,
      "##bayon": 4509,
      "##anggo": 4510,
      "ars": 4511,
      "mamam": 4512,
      "anting": 4513,
      "makatarungan": 4514,
      "konsolidasyon": 4515,
      "abereyds": 4516,
      "luyo": 4517,
      "##ipan": 4518,
      "##uhom": 4519,
      "##elio": 4520,
      "pray": 4521,
      "pagkah": 4522,
      "espesyal": 4523,
      "bank": 4524,
      "##aant": 4525,
      "guba": 4526,
      "nene": 4527,
      "scho": 4528,
      "saging": 4529,
      "##yaga": 4530,
      "##apna": 4531,
      "##idalum": 4532,
      "##ikit": 4533,
      "pagpal": 4534,
      "masanag": 4535,
      "##urt": 4536,
      "##dihon": 4537,
      "##irma": 4538,
      "##wagan": 4539,
      "koord": 4540,
      "politika": 4541,
      "##iver": 4542,
      "teroristang": 4543,
      "school": 4544,
      "iga": 4545,
      "jed": 4546,
      "nahang": 4547,
      "##ultant": 4548,
      "##abalan": 4549,
      "magm": 4550,
      "pangd": 4551,
      "manghod": 4552,
      "aks": 4553,
      "carabalan": 4554,
      "makabulig": 4555,
      "##gasto": 4556,
      "##garan": 4557,
      "kapasidad": 4558,
      "##ky": 4559,
      "pagwasak": 4560,
      "##ish": 4561,
      "paglala": 4562,
      "nagahulat": 4563,
      "termino": 4564,
      "petiburges": 4565,
      "danay": 4566,
      "dardo": 4567,
      "my": 4568,
      "uhon": 4569,
      "##fo": 4570,
      "##ña": 4571,
      "##aguwa": 4572,
      "##ild": 4573,
      "amot": 4574,
      "milisya": 4575,
      "15th": 4576,
      "laguna": 4577,
      "bic": 4578,
      "erop": 4579,
      "##wayon": 4580,
      "ngadto": 4581,
      "##ilan": 4582,
      "abaw": 4583,
      "sison": 4584,
      "bintana": 4585,
      "himu": 4586,
      "hayop": 4587,
      "ordinaryo": 4588,
      "flor": 4589,
      "lun": 4590,
      "zeny": 4591,
      "##uz": 4592,
      "##onom": 4593,
      "##ahay": 4594,
      "##ator": 4595,
      "##ayran": 4596,
      "manip": 4597,
      "kabug": 4598,
      "pagkuha": 4599,
      "matahum": 4600,
      "pagsalig": 4601,
      "pribado": 4602,
      "miguel": 4603,
      "magagmay": 4604,
      "dim": 4605,
      "dro": 4606,
      "lamb": 4607,
      "pre": 4608,
      "##ilat": 4609,
      "##ident": 4610,
      "##oridad": 4611,
      "##ibre": 4612,
      "nagpat": 4613,
      "change": 4614,
      "linyang": 4615,
      "##ursiger": 4616,
      "pagkadula": 4617,
      "banggianay": 4618,
      "kumpanyang": 4619,
      "75": 4620,
      "cot": 4621,
      "oil": 4622,
      "zion": 4623,
      "##erbat": 4624,
      "##ungdan": 4625,
      "##udisyal": 4626,
      "artik": 4627,
      "nagapat": 4628,
      "anton": 4629,
      "kakusog": 4630,
      "##uyop": 4631,
      "konserbat": 4632,
      "pagat": 4633,
      "liter": 4634,
      "first": 4635,
      "integr": 4636,
      "permanente": 4637,
      "parak": 4638,
      "##ugat": 4639,
      "pagpangita": 4640,
      "pulitiko": 4641,
      "naghambal": 4642,
      "kilom": 4643,
      "programang": 4644,
      "republ": 4645,
      "temporaryo": 4646,
      "bikil": 4647,
      "cast": 4648,
      "lupok": 4649,
      "tupong": 4650,
      "##ora": 4651,
      "maghimakas": 4652,
      "panap": 4653,
      "hall": 4654,
      "##aci": 4655,
      "ulipon": 4656,
      "ginaatubang": 4657,
      "kumparar": 4658,
      "you": 4659,
      "gov": 4660,
      "bert": 4661,
      "bl": 4662,
      "baw": 4663,
      "pukaw": 4664,
      "will": 4665,
      "##saw": 4666,
      "##arat": 4667,
      "##amad": 4668,
      "##esisyon": 4669,
      "magpan": 4670,
      "ginpab": 4671,
      "unon": 4672,
      "paltik": 4673,
      "nagsurender": 4674,
      "element": 4675,
      "suriga": 4676,
      "##apital": 4677,
      "migr": 4678,
      "gra": 4679,
      "lana": 4680,
      "##alogo": 4681,
      "kaugma": 4682,
      "naghimo": 4683,
      "ginapabugal": 4684,
      "##ihag": 4685,
      "pining": 4686,
      "nagpak": 4687,
      "ginkundenar": 4688,
      "##olbe": 4689,
      "puwers": 4690,
      "juanito": 4691,
      "celia": 4692,
      "kaugmaon": 4693,
      "nagyuhum": 4694,
      "pagtam": 4695,
      "abono": 4696,
      "pagsaludo": 4697,
      "organisahon": 4698,
      "internal": 4699,
      "ama": 4700,
      "bungk": 4701,
      "tre": 4702,
      "##bey": 4703,
      "##roseso": 4704,
      "##lam": 4705,
      "ngaman": 4706,
      "##onya": 4707,
      "maluwas": 4708,
      "panch": 4709,
      "matabo": 4710,
      "##balay": 4711,
      "magkadto": 4712,
      "pagpanglapas": 4713,
      "pipila": 4714,
      "panchay": 4715,
      "ling": 4716,
      "ple": 4717,
      "uton": 4718,
      "##agmak": 4719,
      "##ones": 4720,
      "##adya": 4721,
      "##esyon": 4722,
      "kapul": 4723,
      "kapagsik": 4724,
      "importe": 4725,
      "alip": 4726,
      "kilusang": 4727,
      "kaangut": 4728,
      "pinakamad": 4729,
      "henos": 4730,
      "##inahanglanon": 4731,
      "econom": 4732,
      "pedro": 4733,
      "##iligni": 4734,
      "imported": 4735,
      "lig": 4736,
      "ur": 4737,
      "##hawa": 4738,
      "##ayanan": 4739,
      "##iping": 4740,
      "##lant": 4741,
      "matarung": 4742,
      "asyenda": 4743,
      "bulak": 4744,
      "##alinan": 4745,
      "soberanya": 4746,
      "jacolbe": 4747,
      "##emple": 4748,
      "##yento": 4749,
      "sangsa": 4750,
      "##ald": 4751,
      "##amulag": 4752,
      "##amnan": 4753,
      "ginagmay": 4754,
      "##orsa": 4755,
      "kritikal": 4756,
      "korea": 4757,
      "##amaayo": 4758,
      "bukas": 4759,
      "health": 4760,
      "##olbado": 4761,
      "##ilotan": 4762,
      "##empleyo": 4763,
      "haras": 4764,
      "##mukon": 4765,
      "##utuon": 4766,
      "anan": 4767,
      "##ures": 4768,
      "##led": 4769,
      "madre": 4770,
      "ginapagwa": 4771,
      "unibers": 4772,
      "banilad": 4773,
      "##ico": 4774,
      "kakulang": 4775,
      "konsentr": 4776,
      "eksper": 4777,
      "world": 4778,
      "80": 4779,
      "##nt": 4780,
      "##sin": 4781,
      "##atuhay": 4782,
      "##asing": 4783,
      "pagpab": 4784,
      "pagpanganyon": 4785,
      "pagsilot": 4786,
      "sulat": 4787,
      "saka": 4788,
      "guban": 4789,
      "problemang": 4790,
      "##ief": 4791,
      "mommy": 4792,
      "pukawon": 4793,
      "surigao": 4794,
      "henosidyo": 4795,
      "hur": 4796,
      "₱6": 4797,
      "##akuon": 4798,
      "arbit": 4799,
      "pagkar": 4800,
      "absol": 4801,
      "natapos": 4802,
      "alberto": 4803,
      "ilong": 4804,
      "soledad": 4805,
      "ginpangunahan": 4806,
      "##aantus": 4807,
      "arbitr": 4808,
      "dand": 4809,
      "eastern": 4810,
      "##rol": 4811,
      "##sura": 4812,
      "##arget": 4813,
      "##akus": 4814,
      "##awhay": 4815,
      "pamayanan": 4816,
      "balayon": 4817,
      "magak": 4818,
      "nahadlok": 4819,
      "magpam": 4820,
      "naghalad": 4821,
      "nagdaku": 4822,
      "konstruksyon": 4823,
      "kungdi": 4824,
      "##irmahan": 4825,
      "fausto": 4826,
      "pinaagi": 4827,
      "bicol": 4828,
      "lolo": 4829,
      "lungsod": 4830,
      "##uang": 4831,
      "samp": 4832,
      "##adtong": 4833,
      "nato": 4834,
      "##asakop": 4835,
      "kapitalistang": 4836,
      "klaro": 4837,
      "malipayon": 4838,
      "35": 4839,
      "gre": 4840,
      "haci": 4841,
      "mor": 4842,
      "kahawaan": 4843,
      "palad": 4844,
      "ginsulod": 4845,
      "ginahatag": 4846,
      "baybayon": 4847,
      "##manupaktura": 4848,
      "##ulogan": 4849,
      "santol": 4850,
      "ginreport": 4851,
      "cord": 4852,
      "kultura": 4853,
      "##ger": 4854,
      "##uti": 4855,
      "kalas": 4856,
      "abante": 4857,
      "amu": 4858,
      "mababa": 4859,
      "paghanda": 4860,
      "napaslawan": 4861,
      "laagan": 4862,
      "##naon": 4863,
      "tayuyon": 4864,
      "pananom": 4865,
      "relasyon": 4866,
      "cotabato": 4867,
      "kilometro": 4868,
      "bid": 4869,
      "##ty": 4870,
      "##anali": 4871,
      "##alanan": 4872,
      "ginhim": 4873,
      "##usga": 4874,
      "##uswagan": 4875,
      "maukod": 4876,
      "paslit": 4877,
      "trak": 4878,
      "ginbun": 4879,
      "planta": 4880,
      "residenteng": 4881,
      "##rehensive": 4882,
      "comprehensive": 4883,
      "lipong": 4884,
      "tekn": 4885,
      "pit": 4886,
      "##kom": 4887,
      "##ahong": 4888,
      "##ulba": 4889,
      "makadto": 4890,
      "malik": 4891,
      "mapan": 4892,
      "##urog": 4893,
      "court": 4894,
      "dugmukon": 4895,
      "humanitarian": 4896,
      "reyes": 4897,
      "##vision": 4898,
      "katipunan": 4899,
      "##toryahanay": 4900,
      "dos": 4901,
      "jer": 4902,
      "sors": 4903,
      "##gon": 4904,
      "##naw": 4905,
      "##yd": 4906,
      "##aks": 4907,
      "##ikaw": 4908,
      "kapilya": 4909,
      "kroni": 4910,
      "gamhanan": 4911,
      "nagadako": 4912,
      "##usten": 4913,
      "tiraniya": 4914,
      "tipo": 4915,
      "kondisyon": 4916,
      "sorsogon": 4917,
      "aahm": 4918,
      "##cil": 4919,
      "kaing": 4920,
      "##ubad": 4921,
      "pagpak": 4922,
      "nagapas": 4923,
      "baranggay": 4924,
      "pato": 4925,
      "nagaserbi": 4926,
      "supor": 4927,
      "ginpasingki": 4928,
      "negosyante": 4929,
      "nagmartsa": 4930,
      "sukton": 4931,
      "aahmir": 4932,
      "lat": 4933,
      "nyang": 4934,
      "tac": 4935,
      "##baron": 4936,
      "##ven": 4937,
      "katre": 4938,
      "pagkilala": 4939,
      "padung": 4940,
      "padayaw": 4941,
      "magpas": 4942,
      "hasta": 4943,
      "nahangpan": 4944,
      "buy": 4945,
      "##pakan": 4946,
      "##age": 4947,
      "##alip": 4948,
      "##ayang": 4949,
      "##ome": 4950,
      "##upaan": 4951,
      "##red": 4952,
      "magpad": 4953,
      "##asakit": 4954,
      "institusyon": 4955,
      "baril": 4956,
      "pilas": 4957,
      "napaslang": 4958,
      "responsable": 4959,
      "droga": 4960,
      "tuhoy": 4961,
      "##ililipon": 4962,
      "##umpa": 4963,
      "##unyag": 4964,
      "##oled": 4965,
      "und": 4966,
      "ginkilala": 4967,
      "ginasiling": 4968,
      "paggwa": 4969,
      "personal": 4970,
      "group": 4971,
      "bdp": 4972,
      "lgu": 4973,
      "##ps": 4974,
      "##ren": 4975,
      "##adinalag": 4976,
      "##umal": 4977,
      "##ungg": 4978,
      "pagpukaw": 4979,
      "##ugh": 4980,
      "ginpak": 4981,
      "pagtapos": 4982,
      "##lawig": 4983,
      "napat": 4984,
      "buligan": 4985,
      "##angkad": 4986,
      "punto": 4987,
      "gawi": 4988,
      "nakahibalo": 4989,
      "nagakadapat": 4990,
      "radyo": 4991,
      "eroplano": 4992,
      "aqu": 4993,
      "tampad": 4994,
      "##atra": 4995,
      "##atubig": 4996,
      "##apekt": 4997,
      "pagpaniro": 4998,
      "remo": 4999,
      "##udo": 5000,
      "##hana": 5001,
      "pamunoan": 5002,
      "armando": 5003,
      "pagpanumpo": 5004,
      "hinanali": 5005,
      "kahimuan": 5006,
      "##umpong": 5007,
      "imbolbado": 5008,
      "calatra": 5009,
      "sipalay": 5010,
      "iskema": 5011,
      "unibersidad": 5012,
      "calatrava": 5013,
      "kn": 5014,
      "su": 5015,
      "##tion": 5016,
      "##9ib": 5017,
      "##ulay": 5018,
      "##ores": 5019,
      "komit": 5020,
      "bulner": 5021,
      "suportahan": 5022,
      "nagabug": 5023,
      "nagadaku": 5024,
      "nagadamo": 5025,
      "tagaan": 5026,
      "untaton": 5027,
      "palestine": 5028,
      "humay": 5029,
      "action": 5030,
      "nahamtang": 5031,
      "kaswalti": 5032,
      "kasingkasing": 5033,
      "migrante": 5034,
      "hacienda": 5035,
      "biden": 5036,
      "rob": 5037,
      "uhaw": 5038,
      "##olisan": 5039,
      "pagpabak": 5040,
      "##hanay": 5041,
      "kapolisan": 5042,
      "pagbaha": 5043,
      "pagpamintas": 5044,
      "bulsa": 5045,
      "atubangan": 5046,
      "nagdalagan": 5047,
      "makasiligni": 5048,
      "tapaz": 5049,
      "nars": 5050,
      "dolyar": 5051,
      "bubon": 5052,
      "kut": 5053,
      "##yog": 5054,
      "##ime": 5055,
      "##lagas": 5056,
      "ark": 5057,
      "katambi": 5058,
      "##lantaw": 5059,
      "prom": 5060,
      "bise": 5061,
      "tray": 5062,
      "ginduso": 5063,
      "magsurender": 5064,
      "makahibalo": 5065,
      "butkon": 5066,
      "cans": 5067,
      "hap": 5068,
      "higad": 5069,
      "liwan": 5070,
      "out": 5071,
      "sta": 5072,
      "sik": 5073,
      "makaga": 5074,
      "ginapakita": 5075,
      "all": 5076,
      "gintulok": 5077,
      "##ubli": 5078,
      "magtukod": 5079,
      "barato": 5080,
      "quint": 5081,
      "garuk": 5082,
      "budak": 5083,
      "industriyalis": 5084,
      "artikulo": 5085,
      "vil": 5086,
      "##iket": 5087,
      "main": 5088,
      "pant": 5089,
      "estorya": 5090,
      "kinabuhi": 5091,
      "pagsolbar": 5092,
      "asemb": 5093,
      "nagpabilin": 5094,
      "##klamo": 5095,
      "gihimo": 5096,
      "danoy": 5097,
      "impluwensya": 5098,
      "padihot": 5099,
      "castro": 5100,
      "##apektuhan": 5101,
      "damian": 5102,
      "##cio": 5103,
      "##inwala": 5104,
      "##alibad": 5105,
      "##ahasan": 5106,
      "##akh": 5107,
      "##eno": 5108,
      "mani": 5109,
      "pangibabawan": 5110,
      "agc": 5111,
      "palm": 5112,
      "tubo": 5113,
      "##unson": 5114,
      "nagalapad": 5115,
      "sunud": 5116,
      "tonel": 5117,
      "praktika": 5118,
      "officer": 5119,
      "dumdumon": 5120,
      "utan": 5121,
      "##moso": 5122,
      "##gamay": 5123,
      "##isy": 5124,
      "##tooled": 5125,
      "##imtan": 5126,
      "retooled": 5127,
      "maar": 5128,
      "chr": 5129,
      "php": 5130,
      "resorsa": 5131,
      "nagalunsar": 5132,
      "pormal": 5133,
      "from": 5134,
      "tapnaon": 5135,
      "layo": 5136,
      "rand": 5137,
      "##umba": 5138,
      "nia": 5139,
      "ginpirmahan": 5140,
      "patubig": 5141,
      "nagahil": 5142,
      "##uwasan": 5143,
      "teray": 5144,
      "pagpaslang": 5145,
      "sagupaan": 5146,
      "##erasyon": 5147,
      "makabuhi": 5148,
      "##ahanugutan": 5149,
      "kalaw": 5150,
      "mapah": 5151,
      "##daug": 5152,
      "##porter": 5153,
      "pampubliko": 5154,
      "gatos": 5155,
      "camar": 5156,
      "australia": 5157,
      "kapalpakan": 5158,
      "panapton": 5159,
      "##nila": 5160,
      "##ega": 5161,
      "##inb": 5162,
      "##ining": 5163,
      "naagum": 5164,
      "ibde": 5165,
      "panag": 5166,
      "usisa": 5167,
      "##alagyo": 5168,
      "makapa": 5169,
      "segurado": 5170,
      "bgy": 5171,
      "##uligan": 5172,
      "gintortyur": 5173,
      "##andaman": 5174,
      "bantay": 5175,
      "ilig": 5176,
      "##ction": 5177,
      "ekstr": 5178,
      "sabton": 5179,
      "##impyo": 5180,
      "state": 5181,
      "##alahig": 5182,
      "council": 5183,
      "moro": 5184,
      "tir": 5185,
      "##work": 5186,
      "##angat": 5187,
      "##are": 5188,
      "##isito": 5189,
      "##iska": 5190,
      "##apol": 5191,
      "##ibusyon": 5192,
      "##andambong": 5193,
      "maid": 5194,
      "areg": 5195,
      "margos": 5196,
      "pasyente": 5197,
      "espiritu": 5198,
      "labor": 5199,
      "ginauyatan": 5200,
      "cooper": 5201,
      "igt": 5202,
      "peligro": 5203,
      "distrito": 5204,
      "prayoridad": 5205,
      "margosatubig": 5206,
      "east": 5207,
      "gagmay": 5208,
      "##uad": 5209,
      "##arry": 5210,
      "masaligan": 5211,
      "##redo": 5212,
      "katuwang": 5213,
      "propes": 5214,
      "german": 5215,
      "194": 5216,
      "nalip": 5217,
      "tarlac": 5218,
      "quarry": 5219,
      "##alupangod": 5220,
      "govern": 5221,
      "camarines": 5222,
      "##west": 5223,
      "##ingot": 5224,
      "pasado": 5225,
      "##ambog": 5226,
      "nagpalapit": 5227,
      "end": 5228,
      "##abaya": 5229,
      "pagpanubo": 5230,
      "##pormasyon": 5231,
      "conc": 5232,
      "pribat": 5233,
      "rosel": 5234,
      "duso": 5235,
      "tor": 5236,
      "##alat": 5237,
      "##atiko": 5238,
      "kaun": 5239,
      "##uraw": 5240,
      "ibang": 5241,
      "pamb": 5242,
      "pamens": 5243,
      "##lans": 5244,
      "paghampas": 5245,
      "nagakap": 5246,
      "nagtuhaw": 5247,
      "awon": 5248,
      "atrasado": 5249,
      "dokumento": 5250,
      "##alawsaw": 5251,
      "focused": 5252,
      "roxas": 5253,
      "##beylans": 5254,
      "gib": 5255,
      "lisa": 5256,
      "##hum": 5257,
      "pagpati": 5258,
      "makinar": 5259,
      "##iwatan": 5260,
      "pagluntad": 5261,
      "ginsilotan": 5262,
      "enhan": 5263,
      "makasahi": 5264,
      "prinsipal": 5265,
      "ginsuguran": 5266,
      "patriyotiko": 5267,
      "alaw": 5268,
      "ja": 5269,
      "kem": 5270,
      "ron": 5271,
      "##awas": 5272,
      "palpak": 5273,
      "salamat": 5274,
      "magsulod": 5275,
      "##lokasyon": 5276,
      "obid": 5277,
      "1980": 5278,
      "tinao": 5279,
      "victor": 5280,
      "agresyon": 5281,
      "giya": 5282,
      "joma": 5283,
      "##ogan": 5284,
      "##rih": 5285,
      "##jc": 5286,
      "nagataas": 5287,
      "##uboy": 5288,
      "##ikopter": 5289,
      "nagtaas": 5290,
      "makip": 5291,
      "kape": 5292,
      "asjc": 5293,
      "mahimu": 5294,
      "organization": 5295,
      "ginsiling": 5296,
      "entra": 5297,
      "cruz": 5298,
      "ginapamunuan": 5299,
      "helikopter": 5300,
      "cocoy": 5301,
      "dil": 5302,
      "natigayon": 5303,
      "tob": 5304,
      "##ls": 5305,
      "kaiping": 5306,
      "##usot": 5307,
      "pagtutuon": 5308,
      "##hiyon": 5309,
      "ginahatagan": 5310,
      "ginakuhaan": 5311,
      "##uthor": 5312,
      "joint": 5313,
      "general": 5314,
      "rogelio": 5315,
      "pinasahi": 5316,
      "pamensaron": 5317,
      "author": 5318,
      "bihag": 5319,
      "zone": 5320,
      "##nel": 5321,
      "##iang": 5322,
      "##ating": 5323,
      "##idel": 5324,
      "manong": 5325,
      "kasam": 5326,
      "pagpanguma": 5327,
      "paghin": 5328,
      "subongman": 5329,
      "##undar": 5330,
      "karibal": 5331,
      "guer": 5332,
      "ginakilala": 5333,
      "tiglawas": 5334,
      "pagas": 5335,
      "siguruhon": 5336,
      "implasyon": 5337,
      "paglaum": 5338,
      "makinarya": 5339,
      "publ": 5340,
      "##daan": 5341,
      "inang": 5342,
      "##usok": 5343,
      "##iglawas": 5344,
      "##uportahan": 5345,
      "panahong": 5346,
      "bilkul": 5347,
      "kadamo": 5348,
      "pagtat": 5349,
      "pagsuma": 5350,
      "off": 5351,
      "magpak": 5352,
      "kahublagang": 5353,
      "maisulong": 5354,
      "sablag": 5355,
      "medyo": 5356,
      "sahod": 5357,
      "aquino": 5358,
      "bong": 5359,
      "just": 5360,
      "##ral": 5361,
      "##rano": 5362,
      "##asang": 5363,
      "ginban": 5364,
      "##umo": 5365,
      "##emor": 5366,
      "mapunggan": 5367,
      "carp": 5368,
      "shuboy": 5369,
      "makakuha": 5370,
      "##abalaka": 5371,
      "nagahiliugyon": 5372,
      "sibuy": 5373,
      "glo": 5374,
      "tamb": 5375,
      "##long": 5376,
      "##laran": 5377,
      "##adb": 5378,
      "inv": 5379,
      "maigi": 5380,
      "##rehiyon": 5381,
      "kahon": 5382,
      "kahapon": 5383,
      "pagpangk": 5384,
      "kapid": 5385,
      "paglakat": 5386,
      "magpadayon": 5387,
      "apr": 5388,
      "depensiba": 5389,
      "##hermoso": 5390,
      "vallehermoso": 5391,
      "bulawanon": 5392,
      "kahangawa": 5393,
      "joh": 5394,
      "##isyun": 5395,
      "##ehiyo": 5396,
      "ginting": 5397,
      "antas": 5398,
      "lamesa": 5399,
      "kagar": 5400,
      "pondong": 5401,
      "tsup": 5402,
      "##eklara": 5403,
      "ginpamunuan": 5404,
      "1972": 5405,
      "julius": 5406,
      "purok": 5407,
      "john": 5408,
      "aur": 5409,
      "doble": 5410,
      "ge": 5411,
      "idi": 5412,
      "##atras": 5413,
      "naangkon": 5414,
      "##isyunal": 5415,
      "##uting": 5416,
      "##ingaw": 5417,
      "ulit": 5418,
      "jeep": 5419,
      "instrumento": 5420,
      "petrolyo": 5421,
      "magbanua": 5422,
      "tonelada": 5423,
      "54": 5424,
      "amp": 5425,
      "calin": 5426,
      "huya": 5427,
      "tante": 5428,
      "##alasa": 5429,
      "##alsik": 5430,
      "##asaligan": 5431,
      "pagpanay": 5432,
      "##ugilanon": 5433,
      "maynila": 5434,
      "signip": 5435,
      "1986": 5436,
      "nahibaluan": 5437,
      "laragway": 5438,
      "tapos": 5439,
      "##gitan": 5440,
      "##rahon": 5441,
      "##all": 5442,
      "##asi": 5443,
      "##adtuan": 5444,
      "intim": 5445,
      "##yora": 5446,
      "nagahimakas": 5447,
      "ana": 5448,
      "##ilaab": 5449,
      "ikat": 5450,
      "disempleyo": 5451,
      "gindumdom": 5452,
      "pagpasaka": 5453,
      "ginpasibangdan": 5454,
      "malaca": 5455,
      "power": 5456,
      "##ulbaan": 5457,
      "malacañ": 5458,
      "39": 5459,
      "##idl": 5460,
      "##ikto": 5461,
      "##ikta": 5462,
      "##utik": 5463,
      "pagpalangga": 5464,
      "pagpandambong": 5465,
      "mary": 5466,
      "pagtimbuok": 5467,
      "##toridad": 5468,
      "##ansoy": 5469,
      "##umpiska": 5470,
      "positibo": 5471,
      "nakalunsar": 5472,
      "pagpanghalit": 5473,
      "kunden": 5474,
      "superyor": 5475,
      "terrorism": 5476,
      "paghangup": 5477,
      "inosenteng": 5478,
      "economic": 5479,
      "dandansoy": 5480,
      "tsuper": 5481,
      "36": 5482,
      "eh": 5483,
      "##inag": 5484,
      "##iligad": 5485,
      "##abelle": 5486,
      "deta": 5487,
      "halambalan": 5488,
      "##amba": 5489,
      "banat": 5490,
      "mahatag": 5491,
      "nagasulong": 5492,
      "supre": 5493,
      "##araang": 5494,
      "importansya": 5495,
      "pusisyon": 5496,
      "##awhanon": 5497,
      "limitado": 5498,
      "##rihl": 5499,
      "idion": 5500,
      "halambalanon": 5501,
      "cle": 5502,
      "damo": 5503,
      "gon": 5504,
      "utok": 5505,
      "##stem": 5506,
      "##ayop": 5507,
      "##ayuon": 5508,
      "##apay": 5509,
      "##abog": 5510,
      "##unot": 5511,
      "inom": 5512,
      "nagagamit": 5513,
      "##ution": 5514,
      "##uksan": 5515,
      "nagpadayon": 5516,
      "minuto": 5517,
      "##utok": 5518,
      "ginasulong": 5519,
      "carh": 5520,
      "carlos": 5521,
      "elektron": 5522,
      "negosasyon": 5523,
      "duag": 5524,
      "proteksyon": 5525,
      "ipanawagan": 5526,
      "antonio": 5527,
      "puwersadong": 5528,
      "absoluto": 5529,
      "signipik": 5530,
      "hayag": 5531,
      "jet": 5532,
      "we": 5533,
      "##dom": 5534,
      "##rod": 5535,
      "##ayaran": 5536,
      "##idlaw": 5537,
      "##udahan": 5538,
      "##anduraw": 5539,
      "malutos": 5540,
      "pagkaguba": 5541,
      "ginpabaskog": 5542,
      "nahitabo": 5543,
      "awayan": 5544,
      "buas": 5545,
      "dalagkuan": 5546,
      "ulitawo": 5547,
      "2nd": 5548,
      "3id": 5549,
      "dad": 5550,
      "##uayan": 5551,
      "##ubay": 5552,
      "##ike": 5553,
      "manog": 5554,
      "dela": 5555,
      "nakilala": 5556,
      "balhas": 5557,
      "pagpangibabaw": 5558,
      "pagbaskog": 5559,
      "chief": 5560,
      "taas": 5561,
      "magsulong": 5562,
      "pinakamalapad": 5563,
      "kanday": 5564,
      "sentralismo": 5565,
      "pagkaraan": 5566,
      "calinog": 5567,
      "rap": 5568,
      "##yent": 5569,
      "kama": 5570,
      "##ermon": 5571,
      "##isado": 5572,
      "sikreto": 5573,
      "anim": 5574,
      "pasap": 5575,
      "kalag": 5576,
      "pagbaligya": 5577,
      "mabakod": 5578,
      "nagpungko": 5579,
      "app": 5580,
      "sistematiko": 5581,
      "##utod": 5582,
      "mapanghalit": 5583,
      "padayunon": 5584,
      "kuwar": 5585,
      "tradisyunal": 5586,
      "pribatisasyon": 5587,
      "carhrihl": 5588,
      "duk": 5589,
      "nueva": 5590,
      "##kot": 5591,
      "sari": 5592,
      "##alos": 5593,
      "kaup": 5594,
      "kauswagan": 5595,
      "##ulungan": 5596,
      "##isi": 5597,
      "ginaw": 5598,
      "##awad": 5599,
      "##toy": 5600,
      "##ubog": 5601,
      "##ungo": 5602,
      "ibalik": 5603,
      "##uyod": 5604,
      "##etibo": 5605,
      "diwa": 5606,
      "bulag": 5607,
      "krist": 5608,
      "binhi": 5609,
      "##chment": 5610,
      "agric": 5611,
      "babaylan": 5612,
      "misayl": 5613,
      "kasugpon": 5614,
      "estratehiya": 5615,
      "petisyon": 5616,
      "agresibo": 5617,
      "kapulisan": 5618,
      "signipikante": 5619,
      "ayo": 5620,
      "vill": 5621,
      "##hel": 5622,
      "##mundo": 5623,
      "sara": 5624,
      "##gaw": 5625,
      "##inasyunal": 5626,
      "##alipay": 5627,
      "##ahudisyal": 5628,
      "##arga": 5629,
      "##adas": 5630,
      "##adlawan": 5631,
      "##ugpong": 5632,
      "##omen": 5633,
      "##let": 5634,
      "pamuhunan": 5635,
      "nakit": 5636,
      "kapareho": 5637,
      "organisador": 5638,
      "##baligya": 5639,
      "##eport": 5640,
      "binilyon": 5641,
      "bayu": 5642,
      "okasyon": 5643,
      "palangga": 5644,
      "##telya": 5645,
      "sosyalistang": 5646,
      "saywar": 5647,
      "tumuluon": 5648,
      "multinasyunal": 5649,
      "##ichard": 5650,
      "alipures": 5651,
      "kaunlaran": 5652,
      "enhanced": 5653,
      "##gin": 5654,
      "##iporm": 5655,
      "##elas": 5656,
      "mait": 5657,
      "##ugakom": 5658,
      "kahiwatan": 5659,
      "nagapamat": 5660,
      "abanse": 5661,
      "nagliligad": 5662,
      "##akaon": 5663,
      "kinamatarong": 5664,
      "pagdaku": 5665,
      "magka": 5666,
      "pkm": 5667,
      "repormang": 5668,
      "makitawhanon": 5669,
      "talakayan": 5670,
      "pangmilitar": 5671,
      "kemikal": 5672,
      "malacañang": 5673,
      "bok": 5674,
      "river": 5675,
      "saf": 5676,
      "pagmanupaktura": 5677,
      "pagpalig": 5678,
      "##gana": 5679,
      "makaraang": 5680,
      "tagap": 5681,
      "posibilidad": 5682,
      "##illera": 5683,
      "seryoso": 5684,
      "system": 5685,
      "angelica": 5686,
      "cordillera": 5687,
      "malikawan": 5688,
      "invest": 5689,
      "pasaporte": 5690,
      "chan": 5691,
      "giga": 5692,
      "##dam": 5693,
      "##dor": 5694,
      "##ki": 5695,
      "##pot": 5696,
      "##yum": 5697,
      "##jo": 5698,
      "##agod": 5699,
      "##inaw": 5700,
      "nagaantus": 5701,
      "nagahana": 5702,
      "##yano": 5703,
      "pinansya": 5704,
      "ilang": 5705,
      "labuyo": 5706,
      "apol": 5707,
      "##urot": 5708,
      "kakulba": 5709,
      "metr": 5710,
      "150": 5711,
      "tantos": 5712,
      "rekord": 5713,
      "budl": 5714,
      "hulat": 5715,
      "justo": 5716,
      "kop": 5717,
      "tang": 5718,
      "##pis": 5719,
      "kaal": 5720,
      "##ulugon": 5721,
      "##unal": 5722,
      "pagpalayas": 5723,
      "pagkak": 5724,
      "##obispo": 5725,
      "matawhay": 5726,
      "pagpangamuyo": 5727,
      "pagbasura": 5728,
      "paghilway": 5729,
      "santos": 5730,
      "hangkat": 5731,
      "nagserbe": 5732,
      "magkuha": 5733,
      "dagko": 5734,
      "ginpaidalom": 5735,
      "hubog": 5736,
      "paglagas": 5737,
      "arsobispo": 5738,
      "ekstrahudisyal": 5739,
      "germany": 5740,
      "38": 5741,
      "tangk": 5742,
      "zambo": 5743,
      "##yas": 5744,
      "##cel": 5745,
      "ginamit": 5746,
      "##api": 5747,
      "##imaan": 5748,
      "##ugtaw": 5749,
      "##uripon": 5750,
      "##ative": 5751,
      "pasalig": 5752,
      "##ensar": 5753,
      "namartir": 5754,
      "nagahulag": 5755,
      "ginhawa": 5756,
      "supporter": 5757,
      "dalagita": 5758,
      "ginabug": 5759,
      "##aryas": 5760,
      "agrikultural": 5761,
      "traidor": 5762,
      "dakbayan": 5763,
      "komiteng": 5764,
      "bulnerable": 5765,
      "cand": 5766,
      "susten": 5767,
      "##ni": 5768,
      "##oo": 5769,
      "##lado": 5770,
      "##sar": 5771,
      "##usisa": 5772,
      "##ikula": 5773,
      "##oris": 5774,
      "##ipuson": 5775,
      "maluya": 5776,
      "kasi": 5777,
      "bantog": 5778,
      "##ick": 5779,
      "puli": 5780,
      "maghambal": 5781,
      "##ingkad": 5782,
      "donabelle": 5783,
      "giing": 5784,
      "northe": 5785,
      "budget": 5786,
      "jean": 5787,
      "jorge": 5788,
      "kalapasan": 5789,
      "suprema": 5790,
      "baliskad": 5791,
      "tadl": 5792,
      "##ihim": 5793,
      "##pad": 5794,
      "##aban": 5795,
      "nagaoperasyon": 5796,
      "##impormasyon": 5797,
      "##elec": 5798,
      "madulom": 5799,
      "pagbukas": 5800,
      "natukod": 5801,
      "operatiba": 5802,
      "disimpormasyon": 5803,
      "##istina": 5804,
      "pagpaninguha": 5805,
      "nagdugang": 5806,
      "alagaran": 5807,
      "nakaligad": 5808,
      "pagdumili": 5809,
      "pagpanayasat": 5810,
      "tadlungon": 5811,
      "talap": 5812,
      "##tayan": 5813,
      "##yte": 5814,
      "##cing": 5815,
      "##ft": 5816,
      "nagtang": 5817,
      "##uhol": 5818,
      "mans": 5819,
      "magre": 5820,
      "illegal": 5821,
      "nagtukod": 5822,
      "nagtambong": 5823,
      "##uwentro": 5824,
      "hinabunan": 5825,
      "##alikdan": 5826,
      "makatawo": 5827,
      "##alangay": 5828,
      "kawsa": 5829,
      "liberalismo": 5830,
      "kadamuon": 5831,
      "pelle": 5832,
      "pagtanom": 5833,
      "workers": 5834,
      "pagpanagtag": 5835,
      "mabatyagan": 5836,
      "maaram": 5837,
      "government": 5838,
      "intimidasyon": 5839,
      "gigamit": 5840,
      "budlasan": 5841,
      "ray": 5842,
      "##uio": 5843,
      "##rna": 5844,
      "##mok": 5845,
      "arev": 5846,
      "net": 5847,
      "unahan": 5848,
      "trump": 5849,
      "games": 5850,
      "tanom": 5851,
      "cauayan": 5852,
      "1987": 5853,
      "pwesto": 5854,
      "sosyalista": 5855,
      "konsolid": 5856,
      "myrna": 5857,
      "zamboanga": 5858,
      "arevalo": 5859,
      "##dy": 5860,
      "##kong": 5861,
      "sagay": 5862,
      "##ahero": 5863,
      "##estra": 5864,
      "pangamuyo": 5865,
      "panit": 5866,
      "pasabton": 5867,
      "maduguon": 5868,
      "kalidad": 5869,
      "pagtalana": 5870,
      "kakinahanglanon": 5871,
      "ginbasura": 5872,
      "nagdulot": 5873,
      "paborable": 5874,
      "water": 5875,
      "okupasyon": 5876,
      "##lak": 5877,
      "kainit": 5878,
      "##ulanan": 5879,
      "##ibog": 5880,
      "##iple": 5881,
      "pagkaka": 5882,
      "##ambak": 5883,
      "opisina": 5884,
      "##daog": 5885,
      "##bilanggo": 5886,
      "pagpaniplang": 5887,
      "pagpanulsol": 5888,
      "tigpangapin": 5889,
      "makabig": 5890,
      "mont": 5891,
      "posadas": 5892,
      "tabunan": 5893,
      "maoist": 5894,
      "testing": 5895,
      "kalasangan": 5896,
      "sibuyas": 5897,
      "ikatatlo": 5898,
      "detachment": 5899,
      "gonz": 5900,
      "kaupdanan": 5901,
      "mens": 5902,
      "##ague": 5903,
      "##into": 5904,
      "##ass": 5905,
      "##unong": 5906,
      "marines": 5907,
      "bili": 5908,
      "esp": 5909,
      "##amatukan": 5910,
      "kumite": 5911,
      "buli": 5912,
      "nasud": 5913,
      "pangkultura": 5914,
      "depens": 5915,
      "krimeng": 5916,
      "magbub": 5917,
      "magbakal": 5918,
      "gasol": 5919,
      "dunang": 5920,
      "responsibilidad": 5921,
      "komersyal": 5922,
      "miyembro": 5923,
      "pabayaron": 5924,
      "33": 5925,
      "larang": 5926,
      "tama": 5927,
      "##pat": 5928,
      "##salon": 5929,
      "##angot": 5930,
      "##erland": 5931,
      "ginransak": 5932,
      "##abong": 5933,
      "##alauma": 5934,
      "manindugan": 5935,
      "pagtul": 5936,
      "mapagsik": 5937,
      "baguio": 5938,
      "minor": 5939,
      "edsa": 5940,
      "colle": 5941,
      "ginpamatay": 5942,
      "nagakahulugan": 5943,
      "##ondohan": 5944,
      "kaingod": 5945,
      "bde": 5946,
      "usa": 5947,
      "##tut": 5948,
      "##mas": 5949,
      "katawo": 5950,
      "kasan": 5951,
      "kasapatan": 5952,
      "pagbayad": 5953,
      "namugos": 5954,
      "interb": 5955,
      "##bantay": 5956,
      "tinion": 5957,
      "pagkapatay": 5958,
      "bungol": 5959,
      "meling": 5960,
      "detensyon": 5961,
      "munisipalidad": 5962,
      "roselyn": 5963,
      "doc": 5964,
      "gap": 5965,
      "king": 5966,
      "##kal": 5967,
      "##79ib": 5968,
      "##isahan": 5969,
      "##maitan": 5970,
      "nagtulod": 5971,
      "karahasan": 5972,
      "tsip": 5973,
      "##guwa": 5974,
      "exp": 5975,
      "gatmaitan": 5976,
      "##eguro": 5977,
      "dimasaligan": 5978,
      "dimasaligan79ib": 5979,
      "das": 5980,
      "filipin": 5981,
      "##ear": 5982,
      "sainyo": 5983,
      "##igda": 5984,
      "pamugon": 5985,
      "pamalay": 5986,
      "pagsin": 5987,
      "mabin": 5988,
      "altar": 5989,
      "adb": 5990,
      "gintudlo": 5991,
      "ginhal": 5992,
      "teor": 5993,
      "babayi": 5994,
      "obl": 5995,
      "pamatuod": 5996,
      "damgo": 5997,
      "reform": 5998,
      "sangkap": 5999,
      "magbubukid": 6000,
      "rub": 6001,
      "##edi": 6002,
      "##ris": 6003,
      "##saran": 6004,
      "inug": 6005,
      "##ikado": 6006,
      "militarista": 6007,
      "palas": 6008,
      "asian": 6009,
      "basa": 6010,
      "nagtipon": 6011,
      "ginhalinan": 6012,
      "edca": 6013,
      "##aysik": 6014,
      "makabalik": 6015,
      "obr": 6016,
      "##imuslanon": 6017,
      "beato": 6018,
      "sentrong": 6019,
      "free": 6020,
      "arbitraryo": 6021,
      "##unggod": 6022,
      "cansermon": 6023,
      "##isyaryo": 6024,
      "larangang": 6025,
      "hita": 6026,
      "tant": 6027,
      "angk": 6028,
      "##ulsa": 6029,
      "##amot": 6030,
      "##olog": 6031,
      "##lement": 6032,
      "##ambok": 6033,
      "kalan": 6034,
      "magpat": 6035,
      "##ugangan": 6036,
      "nagabusong": 6037,
      "nagdako": 6038,
      "hinay": 6039,
      "pakam": 6040,
      "barr": 6041,
      "tsek": 6042,
      "pagpauli": 6043,
      "ginapangita": 6044,
      "mongtut": 6045,
      "tagasuporta": 6046,
      "bati": 6047,
      "flo": 6048,
      "finan": 6049,
      "##ney": 6050,
      "##hip": 6051,
      "##col": 6052,
      "##unay": 6053,
      "paathag": 6054,
      "##tain": 6055,
      "kondi": 6056,
      "pagpangutang": 6057,
      "naglakat": 6058,
      "##askug": 6059,
      "nagatulod": 6060,
      "magsunod": 6061,
      "likawan": 6062,
      "ganid": 6063,
      "##ardin": 6064,
      "##inario": 6065,
      "apolinario": 6066,
      "fmo": 6067,
      "hak": 6068,
      "kit": 6069,
      "mob": 6070,
      "##uas": 6071,
      "##uib": 6072,
      "##lus": 6073,
      "sapa": 6074,
      "##apter": 6075,
      "pagtin": 6076,
      "abra": 6077,
      "sanang": 6078,
      "##wersa": 6079,
      "kamut": 6080,
      "bayad": 6081,
      "botelya": 6082,
      "road": 6083,
      "sector": 6084,
      "pagbinuligay": 6085,
      "duktor": 6086,
      "gum": 6087,
      "ihon": 6088,
      "kis": 6089,
      "##wapo": 6090,
      "##cal": 6091,
      "##inang": 6092,
      "##aling": 6093,
      "kapang": 6094,
      "ginasak": 6095,
      "##osa": 6096,
      "iskw": 6097,
      "arro": 6098,
      "##ention": 6099,
      "aklan": 6100,
      "pagkamatuod": 6101,
      "abaka": 6102,
      "mapag": 6103,
      "paglab": 6104,
      "gintigayon": 6105,
      "bugtong": 6106,
      "desays": 6107,
      "ginadum": 6108,
      "peoples": 6109,
      "kumprehensibo": 6110,
      "utak": 6111,
      "##alupangdan": 6112,
      "kulba": 6113,
      "liog": 6114,
      "tumuluo": 6115,
      "antipyudal": 6116,
      "igtalupangod": 6117,
      "iskwad": 6118,
      "her": 6119,
      "sona": 6120,
      "##atas": 6121,
      "##ader": 6122,
      "pagpabilin": 6123,
      "##uhaduha": 6124,
      "manl": 6125,
      "##ganyat": 6126,
      "maab": 6127,
      "pasidungog": 6128,
      "negat": 6129,
      "nagapah": 6130,
      "ginapab": 6131,
      "##agar": 6132,
      "pagbagsak": 6133,
      "nagapangl": 6134,
      "##alapitan": 6135,
      "pagkatawo": 6136,
      "tiglik": 6137,
      "buksan": 6138,
      "agraryong": 6139,
      "magpauli": 6140,
      "maniobra": 6141,
      "agricult": 6142,
      "tiglikom": 6143,
      "dya": 6144,
      "hos": 6145,
      "jos": 6146,
      "##nam": 6147,
      "##he": 6148,
      "##tur": 6149,
      "##poy": 6150,
      "##alb": 6151,
      "##alaka": 6152,
      "##amangkot": 6153,
      "nagabato": 6154,
      "##usta": 6155,
      "##ikada": 6156,
      "##olar": 6157,
      "anses": 6158,
      "isn": 6159,
      "##uki": 6160,
      "##tral": 6161,
      "pangl": 6162,
      "pamangk": 6163,
      "nagapab": 6164,
      "##igado": 6165,
      "mahilway": 6166,
      "##alian": 6167,
      "##sihan": 6168,
      "obh": 6169,
      "iii": 6170,
      "numer": 6171,
      "senador": 6172,
      "##abakod": 6173,
      "valley": 6174,
      "ginamos": 6175,
      "daddy": 6176,
      "ansestral": 6177,
      "ac": 6178,
      "aer": 6179,
      "fern": 6180,
      "mic": 6181,
      "##uanan": 6182,
      "naigo": 6183,
      "kawal": 6184,
      "pagr": 6185,
      "##umala": 6186,
      "##ungtong": 6187,
      "manda": 6188,
      "##ugahon": 6189,
      "prangk": 6190,
      "eskwela": 6191,
      "banog": 6192,
      "nagpakita": 6193,
      "nagasunod": 6194,
      "lapas": 6195,
      "pagpanalakay": 6196,
      "build": 6197,
      "##umdoman": 6198,
      "seguro": 6199,
      "magapadayon": 6200,
      "magalab": 6201,
      "bungkagon": 6202,
      "talapuanan": 6203,
      "network": 6204,
      "47th": 6205,
      "bah": 6206,
      "do": 6207,
      "nations": 6208,
      "vir": 6209,
      "##nal": 6210,
      "##der": 6211,
      "##uay": 6212,
      "##ahalaan": 6213,
      "##aragway": 6214,
      "##erba": 6215,
      "ginabatyag": 6216,
      "##ugs": 6217,
      "pangalan": 6218,
      "pamahalaan": 6219,
      "katatagan": 6220,
      "paliwat": 6221,
      "kooper": 6222,
      "traysik": 6223,
      "pabalik": 6224,
      "salsalon": 6225,
      "##ress": 6226,
      "saklaw": 6227,
      "hinimo": 6228,
      "maghalin": 6229,
      "benepisyaryo": 6230,
      "pribadong": 6231,
      "tribunal": 6232,
      "aksyong": 6233,
      "literatura": 6234,
      "##akhak": 6235,
      "kagarukan": 6236,
      "fat": 6237,
      "park": 6238,
      "makakita": 6239,
      "maalam": 6240,
      "katig": 6241,
      "##etnam": 6242,
      "##eder": 6243,
      "ilim": 6244,
      "nagakadto": 6245,
      "malapnagon": 6246,
      "##abayaan": 6247,
      "pagak": 6248,
      "pormasyon": 6249,
      "tumuron": 6250,
      "itib": 6251,
      "puya": 6252,
      "maisip": 6253,
      "silay": 6254,
      "ginapasibangdan": 6255,
      "narek": 6256,
      "##likasyon": 6257,
      "alyansang": 6258,
      "agriculture": 6259,
      "90": 6260,
      "bayo": 6261,
      "pla": 6262,
      "##hig": 6263,
      "##pos": 6264,
      "##pet": 6265,
      "##our": 6266,
      "##sud": 6267,
      "nagauy": 6268,
      "##ukat": 6269,
      "market": 6270,
      "##oke": 6271,
      "kahibalo": 6272,
      "nagapungko": 6273,
      "uniporm": 6274,
      "kontrolon": 6275,
      "president": 6276,
      "pagdukot": 6277,
      "kinaad": 6278,
      "##ustuhan": 6279,
      "serbisyong": 6280,
      "##cao": 6281,
      "ginapaabot": 6282,
      "bolunt": 6283,
      "##itatibo": 6284,
      "mamamatay": 6285,
      "mut": 6286,
      "##danay": 6287,
      "##bolusyon": 6288,
      "##lip": 6289,
      "##ahap": 6290,
      "masolbar": 6291,
      "##diya": 6292,
      "##andog": 6293,
      "agyan": 6294,
      "mangayo": 6295,
      "##etso": 6296,
      "abus": 6297,
      "natl": 6298,
      "paghambal": 6299,
      "nagapangita": 6300,
      "##istro": 6301,
      "ponso": 6302,
      "nakapokus": 6303,
      "klas": 6304,
      "henerasyon": 6305,
      "₱20": 6306,
      "love": 6307,
      "dumal": 6308,
      "pagpamatok": 6309,
      "cabadb": 6310,
      "francisco": 6311,
      "desaysibo": 6312,
      "prangkisa": 6313,
      "cabadbaran": 6314,
      "wuting": 6315,
      "##hang": 6316,
      "##ares": 6317,
      "##imate": 6318,
      "##utikan": 6319,
      "paul": 6320,
      "##ire": 6321,
      "mahimuslanon": 6322,
      "albay": 6323,
      "patrol": 6324,
      "ipah": 6325,
      "restr": 6326,
      "ginkastigo": 6327,
      "##loke": 6328,
      "commander": 6329,
      "puv": 6330,
      "##alupad": 6331,
      "back": 6332,
      "julie": 6333,
      "nagpadulong": 6334,
      "arroyo": 6335,
      "400": 6336,
      "kg": 6337,
      "yadtong": 6338,
      "##riso": 6339,
      "##anto": 6340,
      "pagres": 6341,
      "nagaatubang": 6342,
      "makina": 6343,
      "ginpilit": 6344,
      "kaluwasan": 6345,
      "kalayuon": 6346,
      "##agang": 6347,
      "##ops": 6348,
      "ilog": 6349,
      "lamh": 6350,
      "nasyunal": 6351,
      "ginhing": 6352,
      "tinuga": 6353,
      "magsabat": 6354,
      "magbulig": 6355,
      "monte": 6356,
      "board": 6357,
      "pinakaulihi": 6358,
      "progresibong": 6359,
      "magahatag": 6360,
      "vietnam": 6361,
      "blo": 6362,
      "bir": 6363,
      "tudlo": 6364,
      "##win": 6365,
      "##wiran": 6366,
      "##ete": 6367,
      "##ency": 6368,
      "##uhinan": 6369,
      "##ganan": 6370,
      "mangita": 6371,
      "kahit": 6372,
      "prop": 6373,
      "usoy": 6374,
      "matam": 6375,
      "pagbuhin": 6376,
      "amn": 6377,
      "ald": 6378,
      "iko": 6379,
      "suluguon": 6380,
      "##acan": 6381,
      "salap": 6382,
      "ginsundan": 6383,
      "hilamon": 6384,
      "osmundo": 6385,
      "##iston": 6386,
      "produksiyon": 6387,
      "indones": 6388,
      "##erbisyo": 6389,
      "tigpamaba": 6390,
      "ginluthang": 6391,
      "##alikod": 6392,
      "mission": 6393,
      "pispis": 6394,
      "cristina": 6395,
      "rosa": 6396,
      "##alupangdon": 6397,
      "melba": 6398,
      "dinastiya": 6399,
      "kinaadman": 6400,
      "civ": 6401,
      "huw": 6402,
      "##hing": 6403,
      "##ralin": 6404,
      "##akip": 6405,
      "##umbalik": 6406,
      "##tot": 6407,
      "##uhos": 6408,
      "ugsaran": 6409,
      "pangita": 6410,
      "##ugayan": 6411,
      "##irit": 6412,
      "ginpapanaog": 6413,
      "##obo": 6414,
      "kalig": 6415,
      "pagtungod": 6416,
      "palawan": 6417,
      "natingala": 6418,
      "mahadlok": 6419,
      "tagu": 6420,
      "edralin": 6421,
      "nagabulig": 6422,
      "seksyon": 6423,
      "rehiyong": 6424,
      "1990": 6425,
      "temprano": 6426,
      "relihi": 6427,
      "ginmasaker": 6428,
      "hitsura": 6429,
      "bilanggong": 6430,
      "engkuwentro": 6431,
      "pagtamod": 6432,
      "toboso": 6433,
      "53": 6434,
      "85": 6435,
      "fidel": 6436,
      "kid": 6437,
      "norm": 6438,
      "##iting": 6439,
      "##erdi": 6440,
      "nagapanag": 6441,
      "pagbulig": 6442,
      "##ics": 6443,
      "##ahangawa": 6444,
      "kamal": 6445,
      "mineral": 6446,
      "##ebook": 6447,
      "ginhiwat": 6448,
      "komunikasyon": 6449,
      "##istika": 6450,
      "pahipuson": 6451,
      "##ulagan": 6452,
      "razon": 6453,
      "gabriela": 6454,
      "plga": 6455,
      "lasang": 6456,
      "pundasyon": 6457,
      "facebook": 6458,
      "kooperatiba": 6459,
      "37": 6460,
      "bro": 6461,
      "fel": 6462,
      "gulang": 6463,
      "hubl": 6464,
      "##ii": 6465,
      "##yod": 6466,
      "##sak": 6467,
      "##gam": 6468,
      "##adsad": 6469,
      "##ikbit": 6470,
      "##essi": 6471,
      "##ute": 6472,
      "##urso": 6473,
      "##asyonal": 6474,
      "pangb": 6475,
      "pamahug": 6476,
      "madata": 6477,
      "##emonya": 6478,
      "pagtililipon": 6479,
      "impay": 6480,
      "##tanom": 6481,
      "ginsaway": 6482,
      "nasak": 6483,
      "pagad": 6484,
      "team": 6485,
      "lakat": 6486,
      "ginadudahan": 6487,
      "ekspan": 6488,
      "dole": 6489,
      "nahamtangan": 6490,
      "batayan": 6491,
      "nagakatulog": 6492,
      "cooperation": 6493,
      "##essie": 6494,
      "bod": 6495,
      "hu": 6496,
      "lan": 6497,
      "suga": 6498,
      "##guro": 6499,
      "##mel": 6500,
      "##asal": 6501,
      "pagsaulog": 6502,
      "##ugmok": 6503,
      "pauli": 6504,
      "##ukay": 6505,
      "##mpo": 6506,
      "kasangga": 6507,
      "matutom": 6508,
      "unang": 6509,
      "nagpiket": 6510,
      "mama": 6511,
      "nagakinahanglan": 6512,
      "##ember": 6513,
      "lampas": 6514,
      "ginsabat": 6515,
      "##insar": 6516,
      "binulan": 6517,
      "magsalig": 6518,
      "pagpanalawsaw": 6519,
      "##alaybay": 6520,
      "handom": 6521,
      "manugp": 6522,
      "istrateh": 6523,
      "istrikto": 6524,
      "##losibo": 6525,
      "##ahamtang": 6526,
      "driver": 6527,
      "states": 6528,
      "eksplosibo": 6529,
      "panibagong": 6530,
      "##ulubanta": 6531,
      "graci": 6532,
      "suportang": 6533,
      "villan": 6534,
      "aerial": 6535,
      "salapid": 6536,
      "jud": 6537,
      "nol": 6538,
      "pob": 6539,
      "ty": 6540,
      "##wi": 6541,
      "##phon": 6542,
      "##yuhom": 6543,
      "##cip": 6544,
      "##vers": 6545,
      "##20": 6546,
      "##ikap": 6547,
      "mass": 6548,
      "##uda": 6549,
      "makin": 6550,
      "pangan": 6551,
      "pangas": 6552,
      "pangpang": 6553,
      "##konsolida": 6554,
      "##emanda": 6555,
      "kadasig": 6556,
      "kalinga": 6557,
      "unong": 6558,
      "mahim": 6559,
      "implement": 6560,
      "alalangay": 6561,
      "paglupok": 6562,
      "comelec": 6563,
      "magpah": 6564,
      "##pinansya": 6565,
      "##aligban": 6566,
      "solar": 6567,
      "druga": 6568,
      "lebanon": 6569,
      "magapabilin": 6570,
      "canada": 6571,
      "nagmadinalag": 6572,
      "##igayunon": 6573,
      "pagpatalang": 6574,
      "cell": 6575,
      "pangulohan": 6576,
      "kalawasan": 6577,
      "camp": 6578,
      "tis": 6579,
      "##hot": 6580,
      "##yari": 6581,
      "##cre": 6582,
      "##ulunod": 6583,
      "##abtanan": 6584,
      "nagatrabaho": 6585,
      "masyado": 6586,
      "##diola": 6587,
      "itom": 6588,
      "pamban": 6589,
      "kata": 6590,
      "panugod": 6591,
      "panugyan": 6592,
      "ginapilit": 6593,
      "##ican": 6594,
      "one": 6595,
      "sakay": 6596,
      "##uyog": 6597,
      "##untay": 6598,
      "leyte": 6599,
      "kahilabtanan": 6600,
      "agawon": 6601,
      "mendiola": 6602,
      "sipil": 6603,
      "sosyalismo": 6604,
      "lucas": 6605,
      "hunahunaon": 6606,
      "food": 6607,
      "modernisasyon": 6608,
      "northeastern": 6609,
      "mensahe": 6610,
      "yuhum": 6611,
      "##walisasyon": 6612,
      "##oto": 6613,
      "##lim": 6614,
      "##aning": 6615,
      "##adem": 6616,
      "##amin": 6617,
      "manag": 6618,
      "maan": 6619,
      "katampad": 6620,
      "militansya": 6621,
      "atensyon": 6622,
      "tuigan": 6623,
      "mapin": 6624,
      "##ensiyang": 6625,
      "ilusyon": 6626,
      "gintumod": 6627,
      "resour": 6628,
      "ginatudlo": 6629,
      "bayol": 6630,
      "handur": 6631,
      "handumanan": 6632,
      "sumahon": 6633,
      "pagpahalin": 6634,
      "hagdan": 6635,
      "makahalalit": 6636,
      "kontraktwalisasyon": 6637,
      "treaty": 6638,
      "knight": 6639,
      "pakamala": 6640,
      "villanueva": 6641,
      "48": 6642,
      "600": 6643,
      "dila": 6644,
      "hardin": 6645,
      "##uyong": 6646,
      "##wak": 6647,
      "##inay": 6648,
      "##arado": 6649,
      "##eri": 6650,
      "##ison": 6651,
      "##enep": 6652,
      "##ubid": 6653,
      "##igu": 6654,
      "isganan": 6655,
      "masabat": 6656,
      "kasangk": 6657,
      "pasahero": 6658,
      "matig": 6659,
      "kalang": 6660,
      "pungsud": 6661,
      "##etisyon": 6662,
      "pagbaylo": 6663,
      "mabal": 6664,
      "nagpahayag": 6665,
      "gintamnan": 6666,
      "commit": 6667,
      "nagalakat": 6668,
      "nagatiner": 6669,
      "ginakangil": 6670,
      "indep": 6671,
      "kababaihan": 6672,
      "istruk": 6673,
      "##egur": 6674,
      "nagpauli": 6675,
      "subsidyo": 6676,
      "graciana": 6677,
      "tamp": 6678,
      "tigayunon": 6679,
      "##hatag": 6680,
      "##mm": 6681,
      "##lion": 6682,
      "##saka": 6683,
      "##vention": 6684,
      "ginbaton": 6685,
      "rekrut": 6686,
      "##ipiko": 6687,
      "malubha": 6688,
      "akun": 6689,
      "ginpap": 6690,
      "palihim": 6691,
      "motor": 6692,
      "kritiko": 6693,
      "sekw": 6694,
      "sundin": 6695,
      "ginapasidunggan": 6696,
      "tulay": 6697,
      "julian": 6698,
      "##iyog": 6699,
      "lutuson": 6700,
      "palayason": 6701,
      "pangasinan": 6702,
      "67": 6703,
      "blac": 6704,
      "bloke": 6705,
      "cu": 6706,
      "ipang": 6707,
      "ping": 6708,
      "##gie": 6709,
      "##ias": 6710,
      "##rahan": 6711,
      "##ler": 6712,
      "##silyo": 6713,
      "##vac": 6714,
      "##inp": 6715,
      "##ilig": 6716,
      "kaayo": 6717,
      "pagwa": 6718,
      "##akud": 6719,
      "##ulum": 6720,
      "##apu": 6721,
      "##apnag": 6722,
      "kasaysay": 6723,
      "kasikbit": 6724,
      "magamit": 6725,
      "##ampot": 6726,
      "oktob": 6727,
      "magbayad": 6728,
      "##ibaloan": 6729,
      "dululungan": 6730,
      "nakatapos": 6731,
      "nabaton": 6732,
      "panghitabo": 6733,
      "france": 6734,
      "kahanginan": 6735,
      "##wardya": 6736,
      "tindahan": 6737,
      "muslim": 6738,
      "industriyalisasyon": 6739,
      "propesyunal": 6740,
      "kasaysayang": 6741,
      "lina": 6742,
      "mental": 6743,
      "pili": 6744,
      "kagutom": 6745,
      "##akr": 6746,
      "##uplay": 6747,
      "maip": 6748,
      "##inaiyahan": 6749,
      "katub": 6750,
      "ginapatay": 6751,
      "pagsira": 6752,
      "mahapos": 6753,
      "charter": 6754,
      "gerry": 6755,
      "pabug": 6756,
      "phil": 6757,
      "nagsabat": 6758,
      "pagdakop": 6759,
      "guard": 6760,
      "tino": 6761,
      "product": 6762,
      "paksyon": 6763,
      "##riel": 6764,
      "2015": 6765,
      "sekreto": 6766,
      "silutan": 6767,
      "confl": 6768,
      "nagaguba": 6769,
      "petiburgesya": 6770,
      "aprub": 6771,
      "kristi": 6772,
      "kapangyari": 6773,
      "##poynt": 6774,
      "obhetibo": 6775,
      "kapangyarihan": 6776,
      "dikta": 6777,
      "ihi": 6778,
      "tulo": 6779,
      "##uob": 6780,
      "##aki": 6781,
      "siyudad": 6782,
      "pagpugong": 6783,
      "pagpalupok": 6784,
      "ginpatigayon": 6785,
      "##yunaryo": 6786,
      "nagasin": 6787,
      "tago": 6788,
      "saksi": 6789,
      "magserbi": 6790,
      "2014": 6791,
      "silak": 6792,
      "baklan": 6793,
      "pekeng": 6794,
      "serv": 6795,
      "crim": 6796,
      "igs": 6797,
      "pagpanglugos": 6798,
      "mrs": 6799,
      "nagabalor": 6800,
      "lantawon": 6801,
      "afr": 6802,
      "promisa": 6803,
      "traydor": 6804,
      "montilla": 6805,
      "indonesia": 6806,
      "pungsudnon": 6807,
      "kristiyano": 6808,
      "byahe": 6809,
      "gay": 6810,
      "nuk": 6811,
      "roc": 6812,
      "top": 6813,
      "##say": 6814,
      "##gaan": 6815,
      "##atnan": 6816,
      "##ilis": 6817,
      "ginakas": 6818,
      "##abd": 6819,
      "##abut": 6820,
      "paandam": 6821,
      "masin": 6822,
      "##lek": 6823,
      "nagapatuman": 6824,
      "##agahay": 6825,
      "estoryahanay": 6826,
      "pagtapna": 6827,
      "opin": 6828,
      "kinatuhay": 6829,
      "maham": 6830,
      "ikog": 6831,
      "##undon": 6832,
      "politikal": 6833,
      "makapila": 6834,
      "perwisyo": 6835,
      "##bayad": 6836,
      "liberation": 6837,
      "punta": 6838,
      "dunay": 6839,
      "house": 6840,
      "macagahay": 6841,
      "european": 6842,
      "isnayp": 6843,
      "committe": 6844,
      "baha": 6845,
      "hab": 6846,
      "pc": 6847,
      "sukot": 6848,
      "##buhay": 6849,
      "##pekto": 6850,
      "##yista": 6851,
      "##inda": 6852,
      "##iti": 6853,
      "##apbuhay": 6854,
      "##eskwela": 6855,
      "niyang": 6856,
      "##urang": 6857,
      "##upot": 6858,
      "panub": 6859,
      "amuntay": 6860,
      "mahambal": 6861,
      "alibang": 6862,
      "##ortun": 6863,
      "pinakab": 6864,
      "ginatun": 6865,
      "sister": 6866,
      "nagadala": 6867,
      "##endensya": 6868,
      "##adluk": 6869,
      "##ighter": 6870,
      "ginpaandaman": 6871,
      "opisyales": 6872,
      "ramon": 6873,
      "1970": 6874,
      "##iplatan": 6875,
      "pangkabilogan": 6876,
      "akusasyon": 6877,
      "arkila": 6878,
      "tirano": 6879,
      "pakamalauton": 6880,
      "istruktura": 6881,
      "sekwensiyang": 6882,
      "oktobre": 6883,
      "alibangbang": 6884,
      "piston": 6885,
      "tuhay": 6886,
      "yap": 6887,
      "##alahon": 6888,
      "##ahoy": 6889,
      "##asiya": 6890,
      "napang": 6891,
      "ginag": 6892,
      "nagbato": 6893,
      "ibutang": 6894,
      "ibagsak": 6895,
      "katindihan": 6896,
      "ginpakamalaut": 6897,
      "nagapak": 6898,
      "kalibre": 6899,
      "palan": 6900,
      "palaligban": 6901,
      "mapatuman": 6902,
      "##ensi": 6903,
      "##aliz": 6904,
      "ikatlo": 6905,
      "##antay": 6906,
      "binukid": 6907,
      "##ende": 6908,
      "aktibistang": 6909,
      "eleksiyon": 6910,
      "magdugay": 6911,
      "makigbahin": 6912,
      "inform": 6913,
      "energy": 6914,
      "silotan": 6915,
      "konsentrasyon": 6916,
      "tsekpoynt": 6917,
      "amnest": 6918,
      "ekspansyon": 6919,
      "bot": 6920,
      "bimb": 6921,
      "dang": 6922,
      "hari": 6923,
      "nalak": 6924,
      "nyora": 6925,
      "##dle": 6926,
      "##deng": 6927,
      "##iel": 6928,
      "##rant": 6929,
      "##can": 6930,
      "##alayo": 6931,
      "naabtan": 6932,
      "##isano": 6933,
      "ginbat": 6934,
      "##usi": 6935,
      "##omp": 6936,
      "marc": 6937,
      "batan": 6938,
      "pagsunod": 6939,
      "nagpah": 6940,
      "nagaserbe": 6941,
      "coast": 6942,
      "##arote": 6943,
      "##pect": 6944,
      "tsapter": 6945,
      "buhaton": 6946,
      "##inguhaan": 6947,
      "japanese": 6948,
      "ukay": 6949,
      "clip": 6950,
      "middle": 6951,
      "bumalik": 6952,
      "philipine": 6953,
      "areglo": 6954,
      "public": 6955,
      "propyedad": 6956,
      "igsuon": 6957,
      "capital": 6958,
      "gwapo": 6959,
      "hipos": 6960,
      "laga": 6961,
      "memor": 6962,
      "son": 6963,
      "##ghan": 6964,
      "##rus": 6965,
      "##rato": 6966,
      "##str": 6967,
      "##aland": 6968,
      "##ahom": 6969,
      "##atong": 6970,
      "##arl": 6971,
      "##umalang": 6972,
      "##idali": 6973,
      "##ikad": 6974,
      "masaku": 6975,
      "masunson": 6976,
      "##trasyon": 6977,
      "kabudlay": 6978,
      "nakabatyag": 6979,
      "madulaan": 6980,
      "mapam": 6981,
      "mabaton": 6982,
      "bisita": 6983,
      "kontribusyon": 6984,
      "bulacan": 6985,
      "patimaan": 6986,
      "nagakab": 6987,
      "pagpanilag": 6988,
      "maghiliusa": 6989,
      "pagagamit": 6990,
      "nagbakwit": 6991,
      "hunta": 6992,
      "internasyonal": 6993,
      "commanding": 6994,
      "sugid": 6995,
      "likuran": 6996,
      "puer": 6997,
      "nakapa": 6998,
      "₱10": 6999,
      "dalayon": 7000,
      "nakabalik": 7001,
      "magasin": 7002,
      "juaning": 7003,
      "empleyo": 7004,
      "##gency": 7005,
      "kumbento": 7006,
      "kudarat": 7007,
      "teknolohiya": 7008,
      "restriksyon": 7009,
      "conflict": 7010,
      "emb": 7011,
      "pana": 7012,
      "sw": 7013,
      "##hambal": 7014,
      "##agugma": 7015,
      "##erwisyo": 7016,
      "##ungol": 7017,
      "##alaon": 7018,
      "pangg": 7019,
      "kabalo": 7020,
      "rebisyun": 7021,
      "panal": 7022,
      "kasab": 7023,
      "haligi": 7024,
      "palayo": 7025,
      "naglala": 7026,
      "tinang": 7027,
      "sho": 7028,
      "makahas": 7029,
      "##eklamo": 7030,
      "brutalidad": 7031,
      "punong": 7032,
      "suhet": 7033,
      "desperasyon": 7034,
      "ginsugdan": 7035,
      "busay": 7036,
      "tipunon": 7037,
      "afghan": 7038,
      "hitabu": 7039,
      "nagakatabo": 7040,
      "lamharon": 7041,
      "cuenta": 7042,
      "aven": 7043,
      "biga": 7044,
      "bern": 7045,
      "tib": 7046,
      "tulog": 7047,
      "uriel": 7048,
      "wil": 7049,
      "##iam": 7050,
      "##iot": 7051,
      "##ielo": 7052,
      "##lid": 7053,
      "##esita": 7054,
      "naguba": 7055,
      "pagpabaya": 7056,
      "magu": 7057,
      "panglant": 7058,
      "##okan": 7059,
      "pinili": 7060,
      "impos": 7061,
      "division": 7062,
      "site": 7063,
      "organisado": 7064,
      "katapoan": 7065,
      "troops": 7066,
      "ginaagyan": 7067,
      "ginatib": 7068,
      "tha": 7069,
      "pagah": 7070,
      "sundon": 7071,
      "##adlukan": 7072,
      "##umbinar": 7073,
      "ginpaulanan": 7074,
      "kagamitang": 7075,
      "imbestigar": 7076,
      "dingding": 7077,
      "talakayon": 7078,
      "hanapbuhay": 7079,
      "junior": 7080,
      "nagahiliugyong": 7081,
      "tribu": 7082,
      "dahilan": 7083,
      "pagpangbomba": 7084,
      "undas": 7085,
      "utanon": 7086,
      "ginbansagan": 7087,
      "aurora": 7088,
      "pagkakautang": 7089,
      "negatibo": 7090,
      "boluntaryo": 7091,
      "##phone": 7092,
      "panglantawan": 7093,
      "bad": 7094,
      "misyon": 7095,
      "renta": 7096,
      "suya": 7097,
      "tv": 7098,
      "##rom": 7099,
      "##vol": 7100,
      "pagtr": 7101,
      "##unita": 7102,
      "nagare": 7103,
      "pangako": 7104,
      "aboga": 7105,
      "natipon": 7106,
      "alf": 7107,
      "adela": 7108,
      "##ehon": 7109,
      "namum": 7110,
      "kame": 7111,
      "nagahandum": 7112,
      "ulub": 7113,
      "pagdin": 7114,
      "##uyok": 7115,
      "elec": 7116,
      "nabuyagyag": 7117,
      "demon": 7118,
      "cav": 7119,
      "paggunita": 7120,
      "rebeldeng": 7121,
      "datus": 7122,
      "smart": 7123,
      "batiis": 7124,
      "istratehiya": 7125,
      "##enepisyo": 7126,
      "git": 7127,
      "lup": 7128,
      "mu": 7129,
      "ol": 7130,
      "##liya": 7131,
      "##ales": 7132,
      "kagina": 7133,
      "naabot": 7134,
      "##ition": 7135,
      "##tola": 7136,
      "nagang": 7137,
      "naggwa": 7138,
      "pagpahayag": 7139,
      "reh": 7140,
      "rem": 7141,
      "##ted": 7142,
      "##uluya": 7143,
      "mayang": 7144,
      "pagkawasak": 7145,
      "ginpamatukan": 7146,
      "matadlong": 7147,
      "pinalangga": 7148,
      "namat": 7149,
      "gintiro": 7150,
      "interoga": 7151,
      "linaw": 7152,
      "nagdesisyon": 7153,
      "tiago": 7154,
      "okay": 7155,
      "konsultant": 7156,
      "##ektarya": 7157,
      "engine": 7158,
      "leader": 7159,
      "makapam": 7160,
      "kumpara": 7161,
      "nobyo": 7162,
      "nov": 7163,
      "climate": 7164,
      "hamung": 7165,
      "pangkalinong": 7166,
      "guerilla": 7167,
      "depensahan": 7168,
      "numerong": 7169,
      "makinaryas": 7170,
      "pagagamiton": 7171,
      "engineer": 7172,
      "buw": 7173,
      "gol": 7174,
      "mot": 7175,
      "rit": 7176,
      "##day": 7177,
      "##uaw": 7178,
      "##10": 7179,
      "##isidyo": 7180,
      "##abah": 7181,
      "##osyo": 7182,
      "manoy": 7183,
      "##elda": 7184,
      "pamahaw": 7185,
      "ginpaggwa": 7186,
      "##itaan": 7187,
      "kini": 7188,
      "##ensyal": 7189,
      "grab": 7190,
      "nagakabuhi": 7191,
      "nagsaka": 7192,
      "hilwayon": 7193,
      "pagkatukod": 7194,
      "nagaduso": 7195,
      "ginasunod": 7196,
      "pors": 7197,
      "##ival": 7198,
      "##traidor": 7199,
      "talalupangdon": 7200,
      "sabado": 7201,
      "monopolyong": 7202,
      "pesase": 7203,
      "republika": 7204,
      "kaalyado": 7205,
      "kalangitan": 7206,
      "aalas": 7207,
      "cielo": 7208,
      "liw": 7209,
      "mol": 7210,
      "nation": 7211,
      "ncr": 7212,
      "##out": 7213,
      "##asol": 7214,
      "##asog": 7215,
      "##uni": 7216,
      "##ungat": 7217,
      "nagre": 7218,
      "##ibion": 7219,
      "##urismo": 7220,
      "##uluoy": 7221,
      "nakomiter": 7222,
      "oportun": 7223,
      "partisip": 7224,
      "ikalab": 7225,
      "pagpamati": 7226,
      "gran": 7227,
      "phase": 7228,
      "ipas": 7229,
      "taon": 7230,
      "ginkas": 7231,
      "elect": 7232,
      "okan": 7233,
      "ginabulubanta": 7234,
      "makasaysayan": 7235,
      "kandila": 7236,
      "##urse": 7237,
      "maoista": 7238,
      "##witz": 7239,
      "pagkabalaka": 7240,
      "panghuna": 7241,
      "mabugnaw": 7242,
      "consultant": 7243,
      "ordinaryong": 7244,
      "1969": 7245,
      "philipines": 7246,
      "avenue": 7247,
      "suyaon": 7248,
      "ikalabing": 7249,
      "8th": 7250,
      "fu": 7251,
      "gugma": 7252,
      "laan": 7253,
      "ruta": 7254,
      "women": 7255,
      "##baryo": 7256,
      "##ewala": 7257,
      "##ij": 7258,
      "##par": 7259,
      "##list": 7260,
      "##agk": 7261,
      "##ayolar": 7262,
      "##ith": 7263,
      "##unto": 7264,
      "##untod": 7265,
      "makabay": 7266,
      "pamatian": 7267,
      "mangga": 7268,
      "priso": 7269,
      "unhan": 7270,
      "masaaki": 7271,
      "asinan": 7272,
      "paghalad": 7273,
      "aduas": 7274,
      "magpati": 7275,
      "nagsiling": 7276,
      "disp": 7277,
      "pahayagan": 7278,
      "magtuon": 7279,
      "card": 7280,
      "kolehiyo": 7281,
      "surender": 7282,
      "posisyon": 7283,
      "mayoriya": 7284,
      "sumayang": 7285,
      "export": 7286,
      "exec": 7287,
      "warrant": 7288,
      "tulisan": 7289,
      "makalab": 7290,
      "imbestiga": 7291,
      "pwersahon": 7292,
      "takna": 7293,
      "talaksan": 7294,
      "materyales": 7295,
      "justice": 7296,
      "konsolidahon": 7297,
      "plaza": 7298,
      "bimbim": 7299,
      "cavite": 7300,
      "execut": 7301,
      "gwardya": 7302,
      "husga": 7303,
      "jay": 7304,
      "mur": 7305,
      "myan": 7306,
      "not": 7307,
      "riple": 7308,
      "kaalam": 7309,
      "sikw": 7310,
      "##imba": 7311,
      "pagpungko": 7312,
      "kahagugma": 7313,
      "nakabaton": 7314,
      "aksiyon": 7315,
      "kasosyo": 7316,
      "##ahanugot": 7317,
      "kadakuon": 7318,
      "mapuslan": 7319,
      "##tansya": 7320,
      "grad": 7321,
      "ginahing": 7322,
      "tex": 7323,
      "southwest": 7324,
      "##dez": 7325,
      "normal": 7326,
      "committee": 7327,
      "myanmar": 7328,
      "aar": 7329,
      "luthang": 7330,
      "ral": 7331,
      "##hal": 7332,
      "##ise": 7333,
      "##ings": 7334,
      "maikit": 7335,
      "kabul": 7336,
      "panel": 7337,
      "kasumpong": 7338,
      "pasulod": 7339,
      "balkon": 7340,
      "pagbungkag": 7341,
      "##ehang": 7342,
      "basehang": 7343,
      "dies": 7344,
      "nagakabalaka": 7345,
      "##ilio": 7346,
      "karo": 7347,
      "ginsugata": 7348,
      "bugtot": 7349,
      "nagadalagan": 7350,
      "##aligo": 7351,
      "##erna": 7352,
      "convention": 7353,
      "papa": 7354,
      "##iderar": 7355,
      "dulunggan": 7356,
      "rekurso": 7357,
      "chain": 7358,
      "waskon": 7359,
      "ligwa": 7360,
      "##rodyus": 7361,
      "metriko": 7362,
      "gasolina": 7363,
      "nagauyat": 7364,
      "cya": 7365,
      "eci": 7366,
      "gis": 7367,
      "gik": 7368,
      "ps": 7369,
      "pen": 7370,
      "##mer": 7371,
      "##lom": 7372,
      "##ayunan": 7373,
      "##iland": 7374,
      "##ubun": 7375,
      "nian": 7376,
      "pagpro": 7377,
      "##ugg": 7378,
      "antos": 7379,
      "##oturismo": 7380,
      "maagum": 7381,
      "pask": 7382,
      "pagbasa": 7383,
      "nagpagwa": 7384,
      "##usoon": 7385,
      "ekoturismo": 7386,
      "magsasaka": 7387,
      "##indangan": 7388,
      "solbaron": 7389,
      "##isipar": 7390,
      "nanindugan": 7391,
      "udto": 7392,
      "direksyon": 7393,
      "camindangan": 7394,
      "petsa": 7395,
      "proletaryo": 7396,
      "thailand": 7397,
      "ecija": 7398,
      "62": 7399,
      "big": 7400,
      "mos": 7401,
      "pokus": 7402,
      "sugo": 7403,
      "##gid": 7404,
      "##inom": 7405,
      "##aralisa": 7406,
      "##abuan": 7407,
      "##unahuna": 7408,
      "##enyo": 7409,
      "nagabaton": 7410,
      "##ipit": 7411,
      "##uhanay": 7412,
      "##ell": 7413,
      "##anduan": 7414,
      "ibaligya": 7415,
      "malisyo": 7416,
      "ginpadayon": 7417,
      "ginpahug": 7418,
      "nagapalala": 7419,
      "##iha": 7420,
      "palibutan": 7421,
      "##akasal": 7422,
      "adv": 7423,
      "namangkot": 7424,
      "buluth": 7425,
      "##acio": 7426,
      "##tanay": 7427,
      "mount": 7428,
      "pabak": 7429,
      "nagtul": 7430,
      "karumal": 7431,
      "nagserbi": 7432,
      "nagatib": 7433,
      "ginbakal": 7434,
      "seks": 7435,
      "rehiyunal": 7436,
      "nakapang": 7437,
      "demons": 7438,
      "sumugod": 7439,
      "taytay": 7440,
      "estratehiko": 7441,
      "ramos": 7442,
      "pagdumala": 7443,
      "nonoy": 7444,
      "zionista": 7445,
      "quintin": 7446,
      "opinyon": 7447,
      "bom": 7448,
      "cla": 7449,
      "hep": 7450,
      "hibal": 7451,
      "iv": 7452,
      "misa": 7453,
      "nubo": 7454,
      "puw": 7455,
      "van": 7456,
      "##got": 7457,
      "##kob": 7458,
      "##agro": 7459,
      "##inl": 7460,
      "##apaw": 7461,
      "siyent": 7462,
      "arn": 7463,
      "kabub": 7464,
      "##inaan": 7465,
      "kalalak": 7466,
      "palat": 7467,
      "nagpatay": 7468,
      "labina": 7469,
      "trade": 7470,
      "##ahangop": 7471,
      "nagahiliusa": 7472,
      "##atago": 7473,
      "respect": 7474,
      "hilaw": 7475,
      "suport": 7476,
      "ginbayaan": 7477,
      "##ampig": 7478,
      "##riend": 7479,
      "milagro": 7480,
      "##ustin": 7481,
      "nabudlayan": 7482,
      "##alumon": 7483,
      "##ernador": 7484,
      "##erde": 7485,
      "ihamulag": 7486,
      "pistola": 7487,
      "dagmay": 7488,
      "##hael": 7489,
      "amerika": 7490,
      "##tage": 7491,
      "nakasandig": 7492,
      "goons": 7493,
      "hampang": 7494,
      "komersyante": 7495,
      "ginareklamo": 7496,
      "migranteng": 7497,
      "michael": 7498,
      "pagdinaya": 7499,
      "acc": 7500,
      "iwag": 7501,
      "nasyon": 7502,
      "oro": 7503,
      "##danon": 7504,
      "##ogar": 7505,
      "##sal": 7506,
      "##ink": 7507,
      "##angop": 7508,
      "##ayup": 7509,
      "##apul": 7510,
      "##ungdanon": 7511,
      "ugsad": 7512,
      "mari": 7513,
      "##ambungan": 7514,
      "pagtipon": 7515,
      "open": 7516,
      "mabalik": 7517,
      "mabakal": 7518,
      "nagpab": 7519,
      "paghimulos": 7520,
      "estilo": 7521,
      "interogar": 7522,
      "apo": 7523,
      "imelda": 7524,
      "naghulag": 7525,
      "instit": 7526,
      "nadakop": 7527,
      "##alamatay": 7528,
      "pinakamalala": 7529,
      "america": 7530,
      "puwersang": 7531,
      "secret": 7532,
      "nahamulag": 7533,
      "bituon": 7534,
      "district": 7535,
      "pagkamatay": 7536,
      "dakpon": 7537,
      "bilangguan": 7538,
      "##ilateral": 7539,
      "makapauli": 7540,
      "pagtulun": 7541,
      "pambansang": 7542,
      "##akripisyo": 7543,
      "34": 7544,
      "coke": 7545,
      "tandu": 7546,
      "waning": 7547,
      "₱8": 7548,
      "##cion": 7549,
      "##agp": 7550,
      "##agsa": 7551,
      "##inas": 7552,
      "##amgo": 7553,
      "##ikot": 7554,
      "##ibubun": 7555,
      "ibasura": 7556,
      "##ambot": 7557,
      "ginapatihan": 7558,
      "asso": 7559,
      "banglid": 7560,
      "karabaw": 7561,
      "pangkom": 7562,
      "##alakaya": 7563,
      "2012": 7564,
      "magtuga": 7565,
      "sarbeylans": 7566,
      "##ciation": 7567,
      "##enez": 7568,
      "nakatalana": 7569,
      "sapatos": 7570,
      "turk": 7571,
      "##arters": 7572,
      "william": 7573,
      "gintingub": 7574,
      "kundenahon": 7575,
      "nukle": 7576,
      "namumunga": 7577,
      "demonyo": 7578,
      "61st": 7579,
      "99": 7580,
      "dima": 7581,
      "ml": 7582,
      "tana": 7583,
      "##tungan": 7584,
      "##render": 7585,
      "##lando": 7586,
      "##sw": 7587,
      "##inta": 7588,
      "kaugot": 7589,
      "indo": 7590,
      "revol": 7591,
      "##ukad": 7592,
      "##rogan": 7593,
      "arch": 7594,
      "marag": 7595,
      "katuyo": 7596,
      "panug": 7597,
      "kadlaw": 7598,
      "##tera": 7599,
      "mapataas": 7600,
      "##edya": 7601,
      "pinsar": 7602,
      "alvin": 7603,
      "dire": 7604,
      "karsada": 7605,
      "nagatalana": 7606,
      "soltero": 7607,
      "##umpok": 7608,
      "dalanon": 7609,
      "##akaton": 7610,
      "cpi": 7611,
      "corp": 7612,
      "marxista": 7613,
      "stud": 7614,
      "baby": 7615,
      "pelikula": 7616,
      "hawak": 7617,
      "mahibaluan": 7618,
      "pagpangsumpo": 7619,
      "tindog": 7620,
      "embah": 7621,
      "abogado": 7622,
      "dimauntod": 7623,
      "beb": 7624,
      "ever": 7625,
      "fighter": 7626,
      "hektarya": 7627,
      "jim": 7628,
      "stra": 7629,
      "##ier": 7630,
      "##sto": 7631,
      "naagyan": 7632,
      "##isar": 7633,
      "##yawan": 7634,
      "##endi": 7635,
      "naggamit": 7636,
      "##ibon": 7637,
      "##uho": 7638,
      "katahum": 7639,
      "bantayan": 7640,
      "##akaan": 7641,
      "nagtulok": 7642,
      "resesyon": 7643,
      "maglakat": 7644,
      "antique": 7645,
      "ayudang": 7646,
      "humayan": 7647,
      "domest": 7648,
      "nakahanda": 7649,
      "taksi": 7650,
      "pagpangdakop": 7651,
      "bandera": 7652,
      "rolando": 7653,
      "nagahilapit": 7654,
      "office": 7655,
      "noli": 7656,
      "criminal": 7657,
      "panubuon": 7658,
      "sikwayon": 7659,
      "72": 7660,
      "garo": 7661,
      "sunggod": 7662,
      "##ning": 7663,
      "##alahan": 7664,
      "kapa": 7665,
      "##ulatan": 7666,
      "##erahan": 7667,
      "ginbilanggo": 7668,
      "##unang": 7669,
      "##usisyon": 7670,
      "nagr": 7671,
      "##ibod": 7672,
      "##ukiban": 7673,
      "agu": 7674,
      "##reo": 7675,
      "mangh": 7676,
      "mangang": 7677,
      "kahinaan": 7678,
      "proces": 7679,
      "ginapro": 7680,
      "kapan": 7681,
      "##eth": 7682,
      "palawigon": 7683,
      "koalis": 7684,
      "pagsabwag": 7685,
      "alb": 7686,
      "napun": 7687,
      "nagahambal": 7688,
      "tawag": 7689,
      "nagasabat": 7690,
      "##eph": 7691,
      "ginkulong": 7692,
      "pisikal": 7693,
      "butigon": 7694,
      "makaligad": 7695,
      "##likar": 7696,
      "mahinungdanon": 7697,
      "strike": 7698,
      "##anggaw": 7699,
      "diliman": 7700,
      "kuwarto": 7701,
      "sustenido": 7702,
      "joseph": 7703,
      "resources": 7704,
      "suhetib": 7705,
      "tut": 7706,
      "##baw": 7707,
      "##car": 7708,
      "##arakhak": 7709,
      "##ayod": 7710,
      "##ery": 7711,
      "ginalap": 7712,
      "##abas": 7713,
      "##odoro": 7714,
      "nagbal": 7715,
      "##uhaton": 7716,
      "anda": 7717,
      "paqu": 7718,
      "##ganar": 7719,
      "##tric": 7720,
      "malam": 7721,
      "##mpre": 7722,
      "atiman": 7723,
      "kadulom": 7724,
      "esensya": 7725,
      "orlando": 7726,
      "asaw": 7727,
      "##aliw": 7728,
      "ipadayon": 7729,
      "##uwal": 7730,
      "gindukot": 7731,
      "gindakup": 7732,
      "binalaybay": 7733,
      "ginlusob": 7734,
      "nagbunga": 7735,
      "teodoro": 7736,
      "makatiling": 7737,
      "ginabaligya": 7738,
      "pilak": 7739,
      "nagapamahug": 7740,
      "bese": 7741,
      "litrato": 7742,
      "tulad": 7743,
      "ramil": 7744,
      "makakali": 7745,
      "angeles": 7746,
      "napaidalom": 7747,
      "konserbatibo": 7748,
      "pleks": 7749,
      "pinakamadamo": 7750,
      "investment": 7751,
      "kingdom": 7752,
      "filipino": 7753,
      "mandaon": 7754,
      "executive": 7755,
      "association": 7756,
      "turkey": 7757,
      "tas": 7758,
      "₱9": 7759,
      "##bak": 7760,
      "##iwa": 7761,
      "##yanan": 7762,
      "##song": 7763,
      "##atapan": 7764,
      "##asmin": 7765,
      "naubos": 7766,
      "kaundan": 7767,
      "nagayuhum": 7768,
      "pagpup": 7769,
      "ugyon": 7770,
      "ibon": 7771,
      "puloy": 7772,
      "paghulat": 7773,
      "nagpatigayon": 7774,
      "diyos": 7775,
      "nagtigayon": 7776,
      "karbon": 7777,
      "agrarian": 7778,
      "12th": 7779,
      "demand": 7780,
      "kabalaka": 7781,
      "##akamalaot": 7782,
      "paghangop": 7783,
      "hakson": 7784,
      "nalakip": 7785,
      "phaseout": 7786,
      "pabakuron": 7787,
      "hepe": 7788,
      "nukleyar": 7789,
      "embahada": 7790,
      "año": 7791,
      "lih": 7792,
      "pug": 7793,
      "pep": 7794,
      "sent": 7795,
      "wb": 7796,
      "##hayan": 7797,
      "##buligay": 7798,
      "##ean": 7799,
      "##kos": 7800,
      "nagakon": 7801,
      "##igeno": 7802,
      "##andem": 7803,
      "ded": 7804,
      "iba": 7805,
      "katama": 7806,
      "##oks": 7807,
      "madin": 7808,
      "balikan": 7809,
      "ginapal": 7810,
      "##ope": 7811,
      "##costa": 7812,
      "mabuot": 7813,
      "patas": 7814,
      "dislokasyon": 7815,
      "lapta": 7816,
      "##ocan": 7817,
      "produkt": 7818,
      "indigeno": 7819,
      "nagdeklarar": 7820,
      "##ayaon": 7821,
      "sekund": 7822,
      "makaangkon": 7823,
      "pisi": 7824,
      "baklon": 7825,
      "gain": 7826,
      "romual": 7827,
      "hagna": 7828,
      "fire": 7829,
      "raliyista": 7830,
      "siklo": 7831,
      "asembliya": 7832,
      "randall": 7833,
      "chanik": 7834,
      "suportado": 7835,
      "indigenous": 7836,
      "romualdez": 7837,
      "bre": 7838,
      "boss": 7839,
      "his": 7840,
      "lans": 7841,
      "ncip": 7842,
      "oy": 7843,
      "pest": 7844,
      "yanggaw": 7845,
      "##east": 7846,
      "##kil": 7847,
      "##ulam": 7848,
      "into": 7849,
      "##enya": 7850,
      "##inaas": 7851,
      "paso": 7852,
      "pagsaylo": 7853,
      "aman": 7854,
      "##arant": 7855,
      "grabi": 7856,
      "minutos": 7857,
      "nahatagan": 7858,
      "pabalay": 7859,
      "nagsunod": 7860,
      "ginbuyagyag": 7861,
      "ginakuha": 7862,
      "nagadulot": 7863,
      "ginasa": 7864,
      "nagbaskog": 7865,
      "nadumdoman": 7866,
      "sugpon": 7867,
      "miss": 7868,
      "pisok": 7869,
      "##iance": 7870,
      "mapangwasak": 7871,
      "pagpangharas": 7872,
      "##uction": 7873,
      "kapalaran": 7874,
      "kaswalidad": 7875,
      "istasyon": 7876,
      "roger": 7877,
      "handurawan": 7878,
      "pestisidyo": 7879,
      "94": 7880,
      "best": 7881,
      "doris": 7882,
      "gn": 7883,
      "if": 7884,
      "kalis": 7885,
      "tanda": 7886,
      "tessie": 7887,
      "uya": 7888,
      "##rit": 7889,
      "##itud": 7890,
      "##apus": 7891,
      "int": 7892,
      "pac": 7893,
      "pauna": 7894,
      "masiling": 7895,
      "nakik": 7896,
      "nakumpiska": 7897,
      "ginpahayag": 7898,
      "aso": 7899,
      "mamahayag": 7900,
      "pagpamilit": 7901,
      "moham": 7902,
      "nagakahangawa": 7903,
      "nahuman": 7904,
      "phar": 7905,
      "ipad": 7906,
      "resolusyon": 7907,
      "nanguna": 7908,
      "karne": 7909,
      "lauman": 7910,
      "ginahim": 7911,
      "ginatalana": 7912,
      "pagdula": 7913,
      "naghiwat": 7914,
      "ginkawat": 7915,
      "kilalahon": 7916,
      "kagamay": 7917,
      "sandayao": 7918,
      "##artisipar": 7919,
      "ginpasidunggan": 7920,
      "martsa": 7921,
      "mapanghimulos": 7922,
      "makitid": 7923,
      "dolores": 7924,
      "piang": 7925,
      "pagkontrol": 7926,
      "pagkonsolida": 7927,
      "kmu": 7928,
      "##hamong": 7929,
      "kuar": 7930,
      "##ology": 7931,
      "cellphone": 7932,
      "##inpuslan": 7933,
      "baklanay": 7934,
      "marcelo": 7935,
      "hamunghamong": 7936,
      "demonstrasyon": 7937,
      "49": 7938,
      "58": 7939,
      "jan": 7940,
      "nalang": 7941,
      "sto": 7942,
      "##nah": 7943,
      "##kada": 7944,
      "##iyong": 7945,
      "##atro": 7946,
      "##araka": 7947,
      "##ipar": 7948,
      "area": 7949,
      "agtang": 7950,
      "kataw": 7951,
      "kataraka": 7952,
      "panaw": 7953,
      "unom": 7954,
      "amlig": 7955,
      "mabaskug": 7956,
      "paghanduraw": 7957,
      "naglupok": 7958,
      "napunggan": 7959,
      "kumper": 7960,
      "##undayag": 7961,
      "tawong": 7962,
      "antis": 7963,
      "ginatulod": 7964,
      "pagdepensa": 7965,
      "taong": 7966,
      "##rique": 7967,
      "##ingkod": 7968,
      "##chn": 7969,
      "despot": 7970,
      "surrender": 7971,
      "kurap": 7972,
      "tanang": 7973,
      "caloy": 7974,
      "genaro": 7975,
      "hingalitan": 7976,
      "kontrolado": 7977,
      "selpon": 7978,
      "terminal": 7979,
      "artista": 7980,
      "pangdagat": 7981,
      "pagtatapos": 7982,
      "kasangkapan": 7983,
      "africa": 7984,
      "interogasyon": 7985,
      "kabubut": 7986,
      "88": 7987,
      "acosta": 7988,
      "duna": 7989,
      "jm": 7990,
      "nayon": 7991,
      "ragar": 7992,
      "##bos": 7993,
      "##eon": 7994,
      "##vo": 7995,
      "sauron": 7996,
      "##illo": 7997,
      "naapektuhan": 7998,
      "##abilit": 7999,
      "inh": 8000,
      "##ubu": 8001,
      "##esus": 8002,
      "pagpaantus": 8003,
      "pamam": 8004,
      "nakakita": 8005,
      "pasangk": 8006,
      "pagbisita": 8007,
      "natak": 8008,
      "pinam": 8009,
      "nagpalang": 8010,
      "bagyong": 8011,
      "namutikan": 8012,
      "tres": 8013,
      "operational": 8014,
      "gintago": 8015,
      "nagahalin": 8016,
      "minimit": 8017,
      "##balahap": 8018,
      "##ilia": 8019,
      "nahulog": 8020,
      "ginsugo": 8021,
      "ginahigugma": 8022,
      "ginatukod": 8023,
      "binangon": 8024,
      "binayaan": 8025,
      "pagpanakop": 8026,
      "hukbalahap": 8027,
      "siglo": 8028,
      "ginasuportahan": 8029,
      "permit": 8030,
      "donya": 8031,
      "eric": 8032,
      "mapait": 8033,
      "pesos": 8034,
      "ilimnon": 8035,
      "nasaksihan": 8036,
      "golez": 8037,
      "porsyento": 8038,
      "ragaraga": 8039,
      "pasangkaron": 8040,
      "bent": 8041,
      "gene": 8042,
      "pok": 8043,
      "##gun": 8044,
      "##rta": 8045,
      "##ves": 8046,
      "##inalupok": 8047,
      "##areh": 8048,
      "##ilutan": 8049,
      "##ulto": 8050,
      "##ikid": 8051,
      "##imalos": 8052,
      "pagpagwa": 8053,
      "##ipas": 8054,
      "masig": 8055,
      "##uds": 8056,
      "makam": 8057,
      "agency": 8058,
      "pampang": 8059,
      "akadem": 8060,
      "pagkay": 8061,
      "ginpalayas": 8062,
      "atipan": 8063,
      "pagtuki": 8064,
      "pagbuyagyag": 8065,
      "banyo": 8066,
      "estasyon": 8067,
      "pwertahan": 8068,
      "gintambungan": 8069,
      "magpursiger": 8070,
      "ginsunod": 8071,
      "ginhambalan": 8072,
      "ginhalad": 8073,
      "nagatuyo": 8074,
      "nagatiglawas": 8075,
      "guro": 8076,
      "nagapangibabaw": 8077,
      "##welo": 8078,
      "ginbuhi": 8079,
      "pakit": 8080,
      "magtindog": 8081,
      "magbakwit": 8082,
      "southeast": 8083,
      "pandemic": 8084,
      "nanta": 8085,
      "##eck": 8086,
      "rekisito": 8087,
      "strate": 8088,
      "berto": 8089,
      "tamawo": 8090,
      "nakigbahin": 8091,
      "kwrta": 8092,
      "found": 8093,
      "global": 8094,
      "college": 8095,
      "black": 8096,
      "minimithi": 8097,
      "700": 8098,
      "ahan": 8099,
      "cad": 8100,
      "huyop": 8101,
      "ren": 8102,
      "##gis": 8103,
      "##sh": 8104,
      "kaadlawan": 8105,
      "##amyaw": 8106,
      "##orma": 8107,
      "##olitika": 8108,
      "##utas": 8109,
      "##ugpon": 8110,
      "isang": 8111,
      "mach": 8112,
      "panawag": 8113,
      "provin": 8114,
      "kalub": 8115,
      "pagbutang": 8116,
      "##yansa": 8117,
      "mapisan": 8118,
      "paghandum": 8119,
      "diw": 8120,
      "tax": 8121,
      "sakahan": 8122,
      "pagpaslaw": 8123,
      "probisyon": 8124,
      "ginpaslaw": 8125,
      "tanod": 8126,
      "giit": 8127,
      "komprehensibo": 8128,
      "partylist": 8129,
      "makaluluoy": 8130,
      "bonif": 8131,
      "bunghay": 8132,
      "tagipusoon": 8133,
      "napanahon": 8134,
      "napansin": 8135,
      "mersenaryong": 8136,
      "matinugahon": 8137,
      "batanes": 8138,
      "mohamed": 8139,
      "bonifacio": 8140,
      "damb": 8141,
      "dli": 8142,
      "feder": 8143,
      "moder": 8144,
      "p1": 8145,
      "shi": 8146,
      "##hed": 8147,
      "##bol": 8148,
      "##tasan": 8149,
      "##mad": 8150,
      "##ance": 8151,
      "##ates": 8152,
      "##atwa": 8153,
      "ginabaton": 8154,
      "##igur": 8155,
      "manan": 8156,
      "isugid": 8157,
      "maestra": 8158,
      "paminaw": 8159,
      "kasadya": 8160,
      "balah": 8161,
      "pagtalakay": 8162,
      "updan": 8163,
      "idin": 8164,
      "bully": 8165,
      "estatwa": 8166,
      "paglapad": 8167,
      "edward": 8168,
      "kahimtang": 8169,
      "nabuhi": 8170,
      "pagahim": 8171,
      "benj": 8172,
      "makahuluya": 8173,
      "bakwit": 8174,
      "kongresista": 8175,
      "pagkaputo": 8176,
      "pagpapanaog": 8177,
      "bombing": 8178,
      "zionistang": 8179,
      "green": 8180,
      "alliance": 8181,
      "pambu": 8182,
      "espiya": 8183,
      "father": 8184,
      "bodega": 8185,
      "text": 8186,
      "panawagang": 8187,
      "moderno": 8188,
      "44": 8189,
      "43": 8190,
      "goma": 8191,
      "hyd": 8192,
      "jawo": 8193,
      "matigayon": 8194,
      "peb": 8195,
      "puod": 8196,
      "plast": 8197,
      "tik": 8198,
      "tuna": 8199,
      "yang": 8200,
      "year": 8201,
      "##nap": 8202,
      "##dang": 8203,
      "nagala": 8204,
      "##ipa": 8205,
      "anano": 8206,
      "pangil": 8207,
      "##igation": 8208,
      "##icy": 8209,
      "parts": 8210,
      "2025": 8211,
      "nagakuha": 8212,
      "nagakurog": 8213,
      "saling": 8214,
      "ginsaka": 8215,
      "nasiplatan": 8216,
      "ginharas": 8217,
      "otso": 8218,
      "gindulot": 8219,
      "naghibi": 8220,
      "##ampok": 8221,
      "sigue": 8222,
      "lokasyon": 8223,
      "probins": 8224,
      "nalipay": 8225,
      "ubod": 8226,
      "pamatyagan": 8227,
      "unyonista": 8228,
      "litur": 8229,
      "constr": 8230,
      "ginbalita": 8231,
      "record": 8232,
      "navy": 8233,
      "eksperto": 8234,
      "authority": 8235,
      "##eguridad": 8236,
      "granada": 8237,
      "65": 8238,
      "dula": 8239,
      "hoy": 8240,
      "##twal": 8241,
      "##plas": 8242,
      "##ria": 8243,
      "##iles": 8244,
      "##ubak": 8245,
      "##unggo": 8246,
      "##ipag": 8247,
      "mask": 8248,
      "##andag": 8249,
      "##pao": 8250,
      "katum": 8251,
      "##lanog": 8252,
      "maluoy": 8253,
      "##iho": 8254,
      "kinalain": 8255,
      "basket": 8256,
      "gintuyo": 8257,
      "krus": 8258,
      "nahibaloan": 8259,
      "nagalupad": 8260,
      "disk": 8261,
      "##istur": 8262,
      "pakpak": 8263,
      "nagbulig": 8264,
      "huni": 8265,
      "magbag": 8266,
      "ubayan": 8267,
      "benito": 8268,
      "dalhon": 8269,
      "puts": 8270,
      "talatapan": 8271,
      "raa": 8272,
      "damlag": 8273,
      "cris": 8274,
      "##yempre": 8275,
      "narc": 8276,
      "makitang": 8277,
      "papeles": 8278,
      "dolpo": 8279,
      "danny": 8280,
      "hugna": 8281,
      "turismo": 8282,
      "ginapadayaw": 8283,
      "villar": 8284,
      "panganod": 8285,
      "implementasyon": 8286,
      "ginasaulog": 8287,
      "pampanga": 8288,
      "hed": 8289,
      "hibubun": 8290,
      "ire": 8291,
      "wh": 8292,
      "##wo": 8293,
      "##yad": 8294,
      "##sam": 8295,
      "##zo": 8296,
      "##alhas": 8297,
      "##ilid": 8298,
      "##ubuan": 8299,
      "##idhon": 8300,
      "##iks": 8301,
      "magbal": 8302,
      "makawat": 8303,
      "dec": 8304,
      "marlon": 8305,
      "pamant": 8306,
      "ginpamatud": 8307,
      "ginpresentar": 8308,
      "pasya": 8309,
      "atak": 8310,
      "atong": 8311,
      "usik": 8312,
      "balo": 8313,
      "matalom": 8314,
      "ginapunggan": 8315,
      "abuga": 8316,
      "alv": 8317,
      "alice": 8318,
      "##werte": 8319,
      "ape": 8320,
      "ginakinaiyahan": 8321,
      "##ingkion": 8322,
      "##alikaw": 8323,
      "##poner": 8324,
      "itum": 8325,
      "mismong": 8326,
      "makasarang": 8327,
      "maisan": 8328,
      "manugb": 8329,
      "separado": 8330,
      "exer": 8331,
      "##tiro": 8332,
      "##alabag": 8333,
      "pagpapagsik": 8334,
      "kuweb": 8335,
      "mapaniplang": 8336,
      "##inbabawan": 8337,
      "interbyu": 8338,
      "malisyoso": 8339,
      "buluthuan": 8340,
      "domestic": 8341,
      "##iparahan": 8342,
      "diwata": 8343,
      "46": 8344,
      "hana": 8345,
      "harian": 8346,
      "nata": 8347,
      "nalan": 8348,
      "snip": 8349,
      "##bes": 8350,
      "##pok": 8351,
      "##lima": 8352,
      "sawayon": 8353,
      "##aguman": 8354,
      "##ontrol": 8355,
      "pagnubo": 8356,
      "##ities": 8357,
      "##ugto": 8358,
      "magtan": 8359,
      "##udlan": 8360,
      "##elebr": 8361,
      "proses": 8362,
      "pano": 8363,
      "ath": 8364,
      "nagapal": 8365,
      "ginapabaskog": 8366,
      "abs": 8367,
      "mapatihan": 8368,
      "pinang": 8369,
      "##uanay": 8370,
      "alahas": 8371,
      "sanag": 8372,
      "basahon": 8373,
      "paglikaw": 8374,
      "nahalitan": 8375,
      "nasayran": 8376,
      "binata": 8377,
      "kakibot": 8378,
      "tumal": 8379,
      "nagbag": 8380,
      "depisito": 8381,
      "magkatuhay": 8382,
      "obed": 8383,
      "wargam": 8384,
      "point": 8385,
      "larga": 8386,
      "radio": 8387,
      "ginpanawagan": 8388,
      "ginhimuslan": 8389,
      "makagawas": 8390,
      "mahamuok": 8391,
      "katuyoan": 8392,
      "processing": 8393,
      "koalisyon": 8394,
      "wargames": 8395,
      "awa": 8396,
      "beng": 8397,
      "calo": 8398,
      "karan": 8399,
      "nimo": 8400,
      "##kp": 8401,
      "##ply": 8402,
      "##rabaho": 8403,
      "##lu": 8404,
      "saakon": 8405,
      "##inian": 8406,
      "##inelas": 8407,
      "##atuan": 8408,
      "##ilawan": 8409,
      "##isismo": 8410,
      "nagais": 8411,
      "paryente": 8412,
      "ret": 8413,
      "masubo": 8414,
      "sind": 8415,
      "##division": 8416,
      "maichard": 8417,
      "pamulong": 8418,
      "akaw": 8419,
      "neth": 8420,
      "##alisado": 8421,
      "nagapabaskog": 8422,
      "nagapamatuod": 8423,
      "##uylog": 8424,
      "subdivision": 8425,
      "pagtiro": 8426,
      "mapad": 8427,
      "pagsalakay": 8428,
      "paghil": 8429,
      "##unsad": 8430,
      "##alagko": 8431,
      "bulkan": 8432,
      "paglapta": 8433,
      "presensiya": 8434,
      "##estro": 8435,
      "ginahandum": 8436,
      "##angkan": 8437,
      "pinakat": 8438,
      "that": 8439,
      "magserbe": 8440,
      "##indanao": 8441,
      "hindi": 8442,
      "nagadalom": 8443,
      "drama": 8444,
      "##asiguro": 8445,
      "tsinelas": 8446,
      "ihaw": 8447,
      "korapsiyon": 8448,
      "ginapangabay": 8449,
      "clark": 8450,
      "hamulag": 8451,
      "persona": 8452,
      "##negos": 8453,
      "gahibi": 8454,
      "##iskar": 8455,
      "paglalagay": 8456,
      "republic": 8457,
      "##lamation": 8458,
      "##erlands": 8459,
      "traysikol": 8460,
      "aldub": 8461,
      "pangitaon": 8462,
      "aprubahan": 8463,
      "maguindanao": 8464,
      "siyentipiko": 8465,
      "secretary": 8466,
      "sekundaryo": 8467,
      "liturhiya": 8468,
      "caloocan": 8469,
      "netherlands": 8470,
      "900": 8471,
      "alan": 8472,
      "stor": 8473,
      "sump": 8474,
      "tapas": 8475,
      "tendensya": 8476,
      "##wing": 8477,
      "##ef": 8478,
      "##rakt": 8479,
      "##luoy": 8480,
      "##asoy": 8481,
      "pagtortyur": 8482,
      "pagtraidor": 8483,
      "##ument": 8484,
      "sid": 8485,
      "##uban": 8486,
      "##ubod": 8487,
      "##utkot": 8488,
      "isid": 8489,
      "isikway": 8490,
      "maapektuhan": 8491,
      "##lansang": 8492,
      "malays": 8493,
      "##itao": 8494,
      "##ahanumdom": 8495,
      "matindi": 8496,
      "pagtadlong": 8497,
      "kinaw": 8498,
      "pinya": 8499,
      "mamag": 8500,
      "##unao": 8501,
      "##aniobra": 8502,
      "##angkarote": 8503,
      "nagalubha": 8504,
      "nagatulok": 8505,
      "titulo": 8506,
      "naghipos": 8507,
      "ginkabig": 8508,
      "ella": 8509,
      "hinab": 8510,
      "pahuway": 8511,
      "ginasugid": 8512,
      "tagapamaba": 8513,
      "nagbulos": 8514,
      "##umpat": 8515,
      "desap": 8516,
      "nakaangkon": 8517,
      "##ungkahoy": 8518,
      "punungkahoy": 8519,
      "umpisahan": 8520,
      "leninista": 8521,
      "agumon": 8522,
      "gipang": 8523,
      "pangmasang": 8524,
      "banderahan": 8525,
      "subsid": 8526,
      "intelek": 8527,
      "lambunao": 8528,
      "kulbaa": 8529,
      "malamig": 8530,
      "intelektwal": 8531,
      "64": 8532,
      "hong": 8533,
      "kiban": 8534,
      "meral": 8535,
      "nong": 8536,
      "tug": 8537,
      "yabe": 8538,
      "##nat": 8539,
      "##fe": 8540,
      "##inot": 8541,
      "##ilkil": 8542,
      "inp": 8543,
      "##igno": 8544,
      "##ingutan": 8545,
      "##inggitan": 8546,
      "##ibidad": 8547,
      "##andez": 8548,
      "prin": 8549,
      "ginpunggan": 8550,
      "kasund": 8551,
      "2000": 8552,
      "baloy": 8553,
      "kadena": 8554,
      "ginapondohan": 8555,
      "pagtulok": 8556,
      "pagtilipon": 8557,
      "pagbahin": 8558,
      "pagsugod": 8559,
      "nagpalupok": 8560,
      "nagahin": 8561,
      "singko": 8562,
      "nahilway": 8563,
      "nagtigana": 8564,
      "ipamangkot": 8565,
      "ther": 8566,
      "enrique": 8567,
      "tinapay": 8568,
      "binutig": 8569,
      "magsugod": 8570,
      "awtoridad": 8571,
      "ikaapat": 8572,
      "maghalong": 8573,
      "##aysayon": 8574,
      "lea": 8575,
      "magkat": 8576,
      "ginpangita": 8577,
      "mons": 8578,
      "donato": 8579,
      "##bert": 8580,
      "##iyahe": 8581,
      "dayalogo": 8582,
      "##akamahal": 8583,
      "redtag": 8584,
      "hugpong": 8585,
      "airport": 8586,
      "pagrebolusyon": 8587,
      "viol": 8588,
      "##itatibong": 8589,
      "araneta": 8590,
      "manipis": 8591,
      "quinten": 8592,
      "concep": 8593,
      "jav": 8594,
      "hulaton": 8595,
      "giingong": 8596,
      "##albar": 8597,
      "hublasan": 8598,
      "pagpupulong": 8599,
      "abugado": 8600,
      "kibanil": 8601,
      "meralco": 8602,
      "budlay": 8603,
      "gaway": 8604,
      "hol": 8605,
      "kuha": 8606,
      "kuhaan": 8607,
      "otoridad": 8608,
      "tadlong": 8609,
      "vip": 8610,
      "##mag": 8611,
      "##cra": 8612,
      "##gawa": 8613,
      "##anggi": 8614,
      "##asista": 8615,
      "##ilas": 8616,
      "kaab": 8617,
      "##itiz": 8618,
      "ginalik": 8619,
      "##apik": 8620,
      "##esh": 8621,
      "pagpalapnag": 8622,
      "relat": 8623,
      "masangkad": 8624,
      "##urungan": 8625,
      "pangpinansya": 8626,
      "##rey": 8627,
      "pagkaba": 8628,
      "ginpabay": 8629,
      "matambok": 8630,
      "pader": 8631,
      "banago": 8632,
      "aspekto": 8633,
      "##alihan": 8634,
      "napuno": 8635,
      "ginbutong": 8636,
      "konsult": 8637,
      "ahensiya": 8638,
      "conta": 8639,
      "naluoy": 8640,
      "likum": 8641,
      "daina": 8642,
      "kanta": 8643,
      "##rasya": 8644,
      "burukrasya": 8645,
      "exc": 8646,
      "masakitan": 8647,
      "good": 8648,
      "beter": 8649,
      "administrasyon": 8650,
      "lantaran": 8651,
      "nagpanawagan": 8652,
      "kontraktwal": 8653,
      "konserbatismo": 8654,
      "elementong": 8655,
      "kasamahan": 8656,
      "ruben": 8657,
      "puvmp": 8658,
      "##alization": 8659,
      "diesel": 8660,
      "59th": 8661,
      "63": 8662,
      "800": 8663,
      "der": 8664,
      "ere": 8665,
      "port": 8666,
      "##uet": 8667,
      "##pal": 8668,
      "##cle": 8669,
      "##line": 8670,
      "##16": 8671,
      "##agtag": 8672,
      "##ahedya": 8673,
      "naan": 8674,
      "naagaw": 8675,
      "##ister": 8676,
      "##amu": 8677,
      "##ampanya": 8678,
      "##unos": 8679,
      "##imonya": 8680,
      "pagplastar": 8681,
      "##ibut": 8682,
      "real": 8683,
      "masako": 8684,
      "maambong": 8685,
      "kabigon": 8686,
      "prime": 8687,
      "##alisahon": 8688,
      "nagapalapad": 8689,
      "ginapahug": 8690,
      "natukiban": 8691,
      "pagsadsad": 8692,
      "##aliya": 8693,
      "paghibalo": 8694,
      "##unsabo": 8695,
      "trahedya": 8696,
      "char": 8697,
      "nahuya": 8698,
      "nagasandig": 8699,
      "ginbuy": 8700,
      "tigs": 8701,
      "pagab": 8702,
      "andam": 8703,
      "const": 8704,
      "ital": 8705,
      "tinguhaon": 8706,
      "₱13": 8707,
      "shorts": 8708,
      "pilar": 8709,
      "american": 8710,
      "targets": 8711,
      "ginpalala": 8712,
      "humalin": 8713,
      "dominasyon": 8714,
      "##akupon": 8715,
      "larawan": 8716,
      "ecq": 8717,
      "aksidente": 8718,
      "lambat": 8719,
      "kutsilyo": 8720,
      "authoritarian": 8721,
      "ginhalukan": 8722,
      "tantya": 8723,
      "ginadumilian": 8724,
      "taguangkan": 8725,
      "management": 8726,
      "amnestiya": 8727,
      "##elebrar": 8728,
      "athagon": 8729,
      "benguet": 8730,
      "sindik": 8731,
      "51": 8732,
      "78": 8733,
      "ao": 8734,
      "camb": 8735,
      "evel": 8736,
      "gir": 8737,
      "let": 8738,
      "loh": 8739,
      "oc": 8740,
      "pugos": 8741,
      "rober": 8742,
      "sor": 8743,
      "sco": 8744,
      "tita": 8745,
      "##ligan": 8746,
      "saulugon": 8747,
      "##gahum": 8748,
      "naasoy": 8749,
      "##isdaan": 8750,
      "##amang": 8751,
      "##amuon": 8752,
      "ginabat": 8753,
      "inisyal": 8754,
      "##import": 8755,
      "##utaran": 8756,
      "maj": 8757,
      "pangt": 8758,
      "agta": 8759,
      "malag": 8760,
      "pagkampo": 8761,
      "panaysayon": 8762,
      "padamuon": 8763,
      "optim": 8764,
      "natumod": 8765,
      "mapaslawan": 8766,
      "minang": 8767,
      "nagkadlaw": 8768,
      "ginahulagan": 8769,
      "##iao": 8770,
      "##abagan": 8771,
      "tinut": 8772,
      "magkas": 8773,
      "magbukas": 8774,
      "carbon": 8775,
      "berde": 8776,
      "montero": 8777,
      "sarplas": 8778,
      "##hagan": 8779,
      "magdala": 8780,
      "##udluan": 8781,
      "2008": 8782,
      "pagpangluthang": 8783,
      "manggaran": 8784,
      "kutob": 8785,
      "ginawakal": 8786,
      "##damlag": 8787,
      "hinimoan": 8788,
      "bayolasyon": 8789,
      "service": 8790,
      "panalgan": 8791,
      "paskwa": 8792,
      "makatilingala": 8793,
      "masigla": 8794,
      "##raktika": 8795,
      "isidro": 8796,
      "scout": 8797,
      "naasoyng": 8798,
      "arogan": 8799,
      "clo": 8800,
      "dred": 8801,
      "ear": 8802,
      "jaro": 8803,
      "lp": 8804,
      "lagaw": 8805,
      "tot": 8806,
      "tulod": 8807,
      "yari": 8808,
      "##con": 8809,
      "##angut": 8810,
      "##ilak": 8811,
      "##akwat": 8812,
      "##umon": 8813,
      "nagabantay": 8814,
      "parang": 8815,
      "##ingi": 8816,
      "anhon": 8817,
      "##logan": 8818,
      "##inao": 8819,
      "pagkadto": 8820,
      "##ekta": 8821,
      "##alisay": 8822,
      "madakpan": 8823,
      "padya": 8824,
      "kooperasyon": 8825,
      "mapula": 8826,
      "partisano": 8827,
      "alib": 8828,
      "nagluntad": 8829,
      "gintugutan": 8830,
      "nagkuha": 8831,
      "nagatin": 8832,
      "pagdamo": 8833,
      "taguon": 8834,
      "##antidad": 8835,
      "##abilidad": 8836,
      "##ingkang": 8837,
      "##lokar": 8838,
      "ginadayaw": 8839,
      "ginadayunan": 8840,
      "barikada": 8841,
      "itik": 8842,
      "ubra": 8843,
      "##asigon": 8844,
      "kawani": 8845,
      "liderato": 8846,
      "benigno": 8847,
      "pagpakigbahin": 8848,
      "lalake": 8849,
      "1981": 8850,
      "notor": 8851,
      "edukasyong": 8852,
      "diplom": 8853,
      "utas": 8854,
      "dayang": 8855,
      "ginpamangkot": 8856,
      "##aluduhan": 8857,
      "celiz": 8858,
      "reklamong": 8859,
      "plasa": 8860,
      "##yuter": 8861,
      "torres": 8862,
      "elektroniko": 8863,
      "aaral": 8864,
      "strait": 8865,
      "kumperensya": 8866,
      "ericson": 8867,
      "foundation": 8868,
      "balahibo": 8869,
      "dulaon": 8870,
      "dredging": 8871,
      "aya": 8872,
      "bob": 8873,
      "ker": 8874,
      "kans": 8875,
      "kugmat": 8876,
      "mp": 8877,
      "rang": 8878,
      "##hh": 8879,
      "##viron": 8880,
      "##anubo": 8881,
      "##asyun": 8882,
      "##ulagay": 8883,
      "##ubsan": 8884,
      "pagproseso": 8885,
      "##ibaran": 8886,
      "##ugpa": 8887,
      "isahon": 8888,
      "##andro": 8889,
      "##leto": 8890,
      "##atigana": 8891,
      "agda": 8892,
      "pros": 8893,
      "prusisyon": 8894,
      "ginpanag": 8895,
      "##eks": 8896,
      "##anaug": 8897,
      "neok": 8898,
      "##sau": 8899,
      "balanse": 8900,
      "matukod": 8901,
      "pagpangt": 8902,
      "ginapatigayon": 8903,
      "subic": 8904,
      "##icia": 8905,
      "bissau": 8906,
      "nagakampo": 8907,
      "gerang": 8908,
      "nahurot": 8909,
      "##akigbahin": 8910,
      "##reserba": 8911,
      "environ": 8912,
      "##ustohan": 8913,
      "ginbuksan": 8914,
      "insent": 8915,
      "nagadali": 8916,
      "maghibi": 8917,
      "internet": 8918,
      "ginadala": 8919,
      "ginabuhat": 8920,
      "##klusyon": 8921,
      "news": 8922,
      "delos": 8923,
      "kongklusyon": 8924,
      "pamatokan": 8925,
      "ektaryang": 8926,
      "tunog": 8927,
      "##ursige": 8928,
      "paborito": 8929,
      "assistan": 8930,
      "pagtanum": 8931,
      "##impalad": 8932,
      "ginreklamo": 8933,
      "pagginhawa": 8934,
      "peste": 8935,
      "chair": 8936,
      "daray": 8937,
      "turista": 8938,
      "##siklo": 8939,
      "urban": 8940,
      "makipot": 8941,
      "maabtik": 8942,
      "afghanistan": 8943,
      "november": 8944,
      "panugiron": 8945,
      "tumalambong": 8946,
      "pagkabaganihan": 8947,
      "konsultasyon": 8948,
      "beterano": 8949,
      "42": 8950,
      "habal": 8951,
      "rivers": 8952,
      "##ao": 8953,
      "##rib": 8954,
      "##anat": 8955,
      "##ahuyan": 8956,
      "##astos": 8957,
      "##ulak": 8958,
      "##ampa": 8959,
      "ginahang": 8960,
      "##unta": 8961,
      "##ubag": 8962,
      "##idya": 8963,
      "rega": 8964,
      "magel": 8965,
      "##otas": 8966,
      "margie": 8967,
      "kabulig": 8968,
      "nakam": 8969,
      "##enter": 8970,
      "kasigur": 8971,
      "prote": 8972,
      "balos": 8973,
      "##agal": 8974,
      "padalumon": 8975,
      "##ensasyon": 8976,
      "asunto": 8977,
      "ilis": 8978,
      "##undin": 8979,
      "brt": 8980,
      "grand": 8981,
      "##estasyon": 8982,
      "imf": 8983,
      "kakahuyan": 8984,
      "ginkanyon": 8985,
      "ginkalipay": 8986,
      "pahugon": 8987,
      "bataon": 8988,
      "nakapwesto": 8989,
      "kawatan": 8990,
      "##ighot": 8991,
      "head": 8992,
      "tanum": 8993,
      "dautan": 8994,
      "##umbag": 8995,
      "##inalayo": 8996,
      "dulfo": 8997,
      "nagapanindugan": 8998,
      "indibidw": 8999,
      "nareport": 9000,
      "nakahimo": 9001,
      "sirum": 9002,
      "galast": 9003,
      "emilio": 9004,
      "tony": 9005,
      "ginpadala": 9006,
      "##igtingon": 9007,
      "refug": 9008,
      "pagtibusok": 9009,
      "randy": 9010,
      "pagpangkastigo": 9011,
[...]
