{
  "version": "1.0",
  "truncation": null,
  "padding": null,
  "added_tokens": [
    {
      "id": 0,
      "content": "[PAD]",
      "single_word": false,
      "lstrip": false,
      "rstrip": false,
      "normalized": false,
      "special": true
    },
    {
      "id": 1,
      "content": "[UNK]",
      "single_word": false,
      "lstrip": false,
      "rstrip": false,
      "normalized": false,
      "special": true
    },
    {
      "id": 2,
      "content": "[CLS]",
      "single_word": false,
      "lstrip": false,
      "rstrip": false,
      "normalized": false,
      "special": true
    },
    {
      "id": 3,
      "content": "[SEP]",
      "single_word": false,
      "lstrip": false,
      "rstrip": false,
      "normalized": false,
      "special": true
    },
    {
      "id": 4,
      "content": "[MASK]",
      "single_word": false,
      "lstrip": false,
      "rstrip": false,
      "normalized": false,
      "special": true
    }
  ],
  "normalizer": {
    "type": "BertNormalizer",
    "clean_text": true,
    "handle_chinese_chars": false,
    "strip_accents": false,
    "lowercase": false
  },
  "pre_tokenizer": {
    "type": "BertPreTokenizer"
  },
  "post_processor": null,
  "decoder": {
    "type": "WordPiece",
    "prefix": "##",
    "cleanup": true
  },
  "model": {
    "type": "WordPiece",
    "unk_token": "[UNK]",
    "continuing_subword_prefix": "##",
    "max_input_chars_per_word": 100,
    "vocab": {
      "[PAD]": 0,
      "[UNK]": 1,
      "[CLS]": 2,
      "[SEP]": 3,
      "[MASK]": 4,
      "!": 5,
      "\"": 6,
      "#": 7,
      "$": 8,
      "%": 9,
      "&": 10,
      "'": 11,
      "(": 12,
      ")": 13,
      "*": 14,
      "+": 15,
      ",": 16,
      "-": 17,
      ".": 18,
      "/": 19,
      "0": 20,
      "1": 21,
      "2": 22,
      "3": 23,
      "4": 24,
      "5": 25,
      "6": 26,
      "7": 27,
      "8": 28,
      "9": 29,
      ":": 30,
      ";": 31,
      "=": 32,
      ">": 33,
      "?": 34,
      "@": 35,
      "A": 36,
      "B": 37,
      "C": 38,
      "D": 39,
      "E": 40,
      "F": 41,
      "G": 42,
      "H": 43,
      "I": 44,
      "J": 45,
      "K": 46,
      "L": 47,
      "M": 48,
      "N": 49,
      "O": 50,
      "P": 51,
      "Q": 52,
      "R": 53,
      "S": 54,
      "T": 55,
      "U": 56,
      "V": 57,
      "W": 58,
      "X": 59,
      "Y": 60,
      "Z": 61,
      "[": 62,
      "\\": 63,
      "]": 64,
      "^": 65,
      "_": 66,
      "`": 67,
      "a": 68,
      "b": 69,
      "c": 70,
      "d": 71,
      "e": 72,
      "f": 73,
      "g": 74,
      "h": 75,
      "i": 76,
      "j": 77,
      "k": 78,
      "l": 79,
      "m": 80,
      "n": 81,
      "o": 82,
      "p": 83,
      "q": 84,
      "r": 85,
      "s": 86,
      "t": 87,
      "u": 88,
      "v": 89,
      "w": 90,
      "x": 91,
      "y": 92,
      "z": 93,
      "{": 94,
      "|": 95,
      "}": 96,
      "~": 97,
      "£": 98,
      "¥": 99,
      "«": 100,
      "®": 101,
      "°": 102,
      "±": 103,
      "²": 104,
      "³": 105,
      "µ": 106,
      "·": 107,
      "¹": 108,
      "½": 109,
      "À": 110,
      "Á": 111,
      "Â": 112,
      "Ã": 113,
      "Å": 114,
      "Ç": 115,
      "É": 116,
      "Í": 117,
      "Î": 118,
      "Ð": 119,
      "Ñ": 120,
      "Ò": 121,
      "Ó": 122,
      "Ö": 123,
      "×": 124,
      "Ø": 125,
      "Ú": 126,
      "Ü": 127,
      "Þ": 128,
      "ß": 129,
      "à": 130,
      "á": 131,
      "â": 132,
      "ã": 133,
      "ä": 134,
      "å": 135,
      "æ": 136,
      "ç": 137,
      "è": 138,
      "é": 139,
      "ê": 140,
      "ë": 141,
      "ì": 142,
      "í": 143,
      "î": 144,
      "ï": 145,
      "ð": 146,
      "ñ": 147,
      "ò": 148,
      "ó": 149,
      "ô": 150,
      "ö": 151,
      "ø": 152,
      "ù": 153,
      "ú": 154,
      "û": 155,
      "ü": 156,
      "ý": 157,
      "Ā": 158,
      "ā": 159,
      "ă": 160,
      "ć": 161,
      "Č": 162,
      "č": 163,
      "Đ": 164,
      "đ": 165,
      "Ē": 166,
      "ē": 167,
      "ė": 168,
      "ě": 169,
      "ğ": 170,
      "Ġ": 171,
      "ġ": 172,
      "ħ": 173,
      "ī": 174,
      "İ": 175,
      "ı": 176,
      "Ł": 177,
      "ł": 178,
      "ň": 179,
      "ŋ": 180,
      "Ō": 181,
      "ō": 182,
      "ŏ": 183,
      "ő": 184,
      "œ": 185,
      "Ř": 186,
      "ř": 187,
      "Ś": 188,
      "ś": 189,
      "Ş": 190,
      "ş": 191,
      "Š": 192,
      "š": 193,
      "ū": 194,
      "ŭ": 195,
      "Ž": 196,
      "ž": 197,
      "ơ": 198,
      "ǎ": 199,
      "ǐ": 200,
      "ǔ": 201,
      "ǰ": 202,
      "ɐ": 203,
      "ɑ": 204,
      "ɔ": 205,
      "ə": 206,
      "ɛ": 207,
      "ɜ": 208,
      "ɡ": 209,
      "ɪ": 210,
      "ɫ": 211,
      "ɱ": 212,
      "ɾ": 213,
      "ʁ": 214,
      "ʃ": 215,
      "ʊ": 216,
      "ʎ": 217,
      "ʒ": 218,
      "ʨ": 219,
      "ʰ": 220,
      "ʲ": 221,
      "ʷ": 222,
      "ʻ": 223,
      "ʾ": 224,
      "ʿ": 225,
      "ˁ": 226,
      "ˈ": 227,
      "ˌ": 228,
      "ː": 229,
      "˨": 230,
      "˩": 231,
      "́": 232,
      "̃": 233,
      "̄": 234,
      "̞": 235,
      "̱": 236,
      "͡": 237,
      "΄": 238,
      "Ά": 239,
      "Ό": 240,
      "Α": 241,
      "Β": 242,
      "Γ": 243,
      "Δ": 244,
      "Ε": 245,
      "Ζ": 246,
      "Θ": 247,
      "Κ": 248,
      "Λ": 249,
      "Μ": 250,
      "Ν": 251,
      "Π": 252,
      "Σ": 253,
      "Τ": 254,
      "Φ": 255,
      "Ψ": 256,
      "Ω": 257,
      "ά": 258,
      "έ": 259,
      "ή": 260,
      "ί": 261,
      "α": 262,
      "β": 263,
      "γ": 264,
      "δ": 265,
      "ε": 266,
      "ζ": 267,
      "η": 268,
      "θ": 269,
      "ι": 270,
      "κ": 271,
      "λ": 272,
      "μ": 273,
      "ν": 274,
      "ξ": 275,
      "ο": 276,
      "π": 277,
      "ρ": 278,
      "ς": 279,
      "σ": 280,
      "τ": 281,
      "υ": 282,
      "φ": 283,
      "χ": 284,
      "ω": 285,
      "ό": 286,
      "ύ": 287,
      "ώ": 288,
      "Ђ": 289,
      "Ј": 290,
      "А": 291,
      "Б": 292,
      "В": 293,
      "Д": 294,
      "Ж": 295,
      "З": 296,
      "М": 297,
      "Н": 298,
      "О": 299,
      "Р": 300,
      "С": 301,
      "У": 302,
      "Ф": 303,
      "Ш": 304,
      "а": 305,
      "б": 306,
      "в": 307,
      "г": 308,
      "д": 309,
      "е": 310,
      "ж": 311,
      "з": 312,
      "и": 313,
      "й": 314,
      "к": 315,
      "л": 316,
      "м": 317,
      "н": 318,
      "о": 319,
      "п": 320,
      "р": 321,
      "с": 322,
      "т": 323,
      "у": 324,
      "х": 325,
      "ч": 326,
      "ш": 327,
      "ь": 328,
      "ю": 329,
      "я": 330,
      "ё": 331,
      "ђ": 332,
      "ј": 333,
      "ү": 334,
      "ӧ": 335,
      "ӯ": 336,
      "ի": 337,
      "յ": 338,
      "ն": 339,
      "ո": 340,
      "ռ": 341,
      "ւ": 342,
      "֫": 343,
      "ְ": 344,
      "ִ": 345,
      "ֵ": 346,
      "ָ": 347,
      "ֹ": 348,
      "ּ": 349,
      "א": 350,
      "ב": 351,
      "ד": 352,
      "ה": 353,
      "ו": 354,
      "ז": 355,
      "ח": 356,
      "ט": 357,
      "י": 358,
      "כ": 359,
      "ל": 360,
      "ם": 361,
      "ן": 362,
      "נ": 363,
      "ס": 364,
      "ע": 365,
      "ף": 366,
      "ק": 367,
      "ר": 368,
      "ש": 369,
      "ء": 370,
      "أ": 371,
      "إ": 372,
      "ا": 373,
      "ب": 374,
      "ة": 375,
      "ت": 376,
      "ج": 377,
      "ح": 378,
      "خ": 379,
      "د": 380,
      "ذ": 381,
      "ر": 382,
      "ز": 383,
      "س": 384,
      "ش": 385,
      "ط": 386,
      "ع": 387,
      "ف": 388,
      "ق": 389,
      "ك": 390,
      "ل": 391,
      "م": 392,
      "ن": 393,
      "ه": 394,
      "و": 395,
      "ي": 396,
      "َ": 397,
      "ُ": 398,
      "ِ": 399,
      "ّ": 400,
      "ْ": 401,
      "ٱ": 402,
      "ک": 403,
      "گ": 404,
      "ی": 405,
      "ە": 406,
      "ग": 407,
      "च": 408,
      "न": 409,
      "प": 410,
      "म": 411,
      "र": 412,
      "ा": 413,
      "ु": 414,
      "्": 415,
      "ম": 416,
      "য": 417,
      "র": 418,
      "্": 419,
      "ં": 420,
      "ક": 421,
      "ગ": 422,
      "ચ": 423,
      "દ": 424,
      "ધ": 425,
      "ન": 426,
      "મ": 427,
      "ર": 428,
      "સ": 429,
      "હ": 430,
      "ા": 431,
      "ો": 432,
      "ச": 433,
      "ட": 434,
      "ப": 435,
      "ய": 436,
      "ர": 437,
      "ஷ": 438,
      "ா": 439,
      "ி": 440,
      "ீ": 441,
      "ಬ": 442,
      "ಯ": 443,
      "ಸ": 444,
      "ಾ": 445,
      "ಿ": 446,
      "ക": 447,
      "ട": 448,
      "പ": 449,
      "ള": 450,
      "ി": 451,
      "േ": 452,
      "ോ": 453,
      "്": 454,
      "ก": 455,
      "ข": 456,
      "ค": 457,
      "ง": 458,
      "จ": 459,
      "ช": 460,
      "ด": 461,
      "ธ": 462,
      "ป": 463,
      "พ": 464,
      "ภ": 465,
      "ม": 466,
      "ย": 467,
      "ร": 468,
      "ล": 469,
      "ว": 470,
      "ศ": 471,
      "อ": 472,
      "ะ": 473,
      "า": 474,
      "ิ": 475,
      "เ": 476,
      "้": 477,
      "์": 478,
      "ງ": 479,
      "ບ": 480,
      "ພ": 481,
      "ຣ": 482,
      "ວ": 483,
      "ະ": 484,
      "າ": 485,
      "ຼ": 486,
      "་": 487,
      "ག": 488,
      "ཆ": 489,
      "ད": 490,
      "ན": 491,
      "པ": 492,
      "བ": 493,
      "མ": 494,
      "འ": 495,
      "ར": 496,
      "ས": 497,
      "ཧ": 498,
      "ི": 499,
      "ེ": 500,
      "ོ": 501,
      "ྲ": 502,
      "ቡ": 503,
      "አ": 504,
      "ዳ": 505,
      "ᜀ": 506,
      "ᜁ": 507,
      "ᜃ": 508,
      "ᜄ": 509,
      "ᜅ": 510,
      "ᜆ": 511,
      "ᜇ": 512,
      "ᜈ": 513,
      "ᜉ": 514,
      "ᜊ": 515,
      "ᜋ": 516,
      "ᜌ": 517,
      "ᜏ": 518,
      "ᜐ": 519,
      "ᜒ": 520,
      "ᜓ": 521,
      "᜔": 522,
      "ក": 523,
      "ខ": 524,
      "គ": 525,
      "ង": 526,
      "ច": 527,
      "ណ": 528,
      "ព": 529,
      "ភ": 530,
      "ម": 531,
      "រ": 532,
      "អ": 533,
      "ា": 534,
      "ិ": 535,
      "ែ": 536,
      "្": 537,
      "ḍ": 538,
      "ḏ": 539,
      "Ḥ": 540,
      "ḥ": 541,
      "ḫ": 542,
      "ḳ": 543,
      "ṇ": 544,
      "Ṣ": 545,
      "ṣ": 546,
      "Ṭ": 547,
      "ṭ": 548,
      "ẖ": 549,
      "ạ": 550,
      "ắ": 551,
      "ằ": 552,
      "ế": 553,
      "ễ": 554,
      "ệ": 555,
      "ỉ": 556,
      "ị": 557,
      "ố": 558,
      "ồ": 559,
      "ộ": 560,
      "ụ": 561,
      "ữ": 562,
      "ἀ": 563,
      "ἄ": 564,
      "Ἀ": 565,
      "ἑ": 566,
      "Ἐ": 567,
      "Ἑ": 568,
      "Ἔ": 569,
      "Ἡ": 570,
      "ἰ": 571,
      "ἱ": 572,
      "Ἱ": 573,
      "ὀ": 574,
      "ὄ": 575,
      "ὶ": 576,
      "ᾶ": 577,
      "ῆ": 578,
      "ῖ": 579,
      "ῦ": 580,
      "ῴ": 581,
      "‐": 582,
      "‑": 583,
      "‒": 584,
      "–": 585,
      "—": 586,
      "‘": 587,
      "’": 588,
      "“": 589,
      "”": 590,
      "„": 591,
      "†": 592,
      "•": 593,
      "…": 594,
      "′": 595,
      "€": 596,
      "₱": 597,
      "ℓ": 598,
      "→": 599,
      "∂": 600,
      "∇": 601,
      "−": 602,
      "∗": 603,
      "∞": 604,
      "≤": 605,
      "≥": 606,
      "☉": 607,
      "♂": 608,
      "♎": 609,
      "⟨": 610,
      "⟩": 611,
      "⠃": 612,
      "⠇": 613,
      "⠗": 614,
      "Ᵽ": 615,
      "い": 616,
      "お": 617,
      "じ": 618,
      "っ": 619,
      "の": 620,
      "は": 621,
      "ば": 622,
      "ぱ": 623,
      "み": 624,
      "゛": 625,
      "ァ": 626,
      "ア": 627,
      "ィ": 628,
      "イ": 629,
      "ウ": 630,
      "エ": 631,
      "ガ": 632,
      "キ": 633,
      "ゴ": 634,
      "シ": 635,
      "ジ": 636,
      "ス": 637,
      "ズ": 638,
      "ソ": 639,
      "タ": 640,
      "ダ": 641,
      "チ": 642,
      "ッ": 643,
      "テ": 644,
      "デ": 645,
      "ト": 646,
      "ド": 647,
      "ニ": 648,
      "バ": 649,
      "パ": 650,
      "ピ": 651,
      "フ": 652,
      "ポ": 653,
      "メ": 654,
      "モ": 655,
      "ャ": 656,
      "ュ": 657,
      "ラ": 658,
      "リ": 659,
      "ル": 660,
      "レ": 661,
      "ロ": 662,
      "ワ": 663,
      "ン": 664,
      "ヴ": 665,
      "ヶ": 666,
      "・": 667,
      "ー": 668,
      "一": 669,
      "七": 670,
      "万": 671,
      "三": 672,
      "上": 673,
      "下": 674,
      "世": 675,
      "东": 676,
      "中": 677,
      "主": 678,
      "乃": 679,
      "之": 680,
      "争": 681,
      "二": 682,
      "井": 683,
      "产": 684,
      "京": 685,
      "人": 686,
      "代": 687,
      "伊": 688,
      "会": 689,
      "伪": 690,
      "備": 691,
      "儿": 692,
      "克": 693,
      "八": 694,
      "共": 695,
      "军": 696,
      "分": 697,
      "初": 698,
      "副": 699,
      "動": 700,
      "勞": 701,
      "化": 702,
      "千": 703,
      "協": 704,
      "南": 705,
      "卷": 706,
      "压": 707,
      "原": 708,
      "友": 709,
      "反": 710,
      "古": 711,
      "只": 712,
      "号": 713,
      "向": 714,
      "呼": 715,
      "命": 716,
      "和": 717,
      "哪": 718,
      "哲": 719,
      "嚴": 720,
      "四": 721,
      "国": 722,
      "國": 723,
      "圖": 724,
      "地": 725,
      "堂": 726,
      "塊": 727,
      "塔": 728,
      "壓": 729,
      "夏": 730,
      "夜": 731,
      "大": 732,
      "天": 733,
      "夫": 734,
      "奏": 735,
      "好": 736,
      "妓": 737,
      "媽": 738,
      "子": 739,
      "字": 740,
      "学": 741,
      "宇": 742,
      "宗": 743,
      "実": 744,
      "宣": 745,
      "岐": 746,
      "峰": 747,
      "島": 748,
      "川": 749,
      "巣": 750,
      "巴": 751,
      "布": 752,
      "希": 753,
      "師": 754,
      "帳": 755,
      "常": 756,
      "应": 757,
      "弁": 758,
      "張": 759,
      "御": 760,
      "心": 761,
      "志": 762,
      "思": 763,
      "意": 764,
      "愛": 765,
      "戊": 766,
      "拜": 767,
      "指": 768,
      "摩": 769,
      "改": 770,
      "放": 771,
      "敬": 772,
      "文": 773,
      "斗": 774,
      "斯": 775,
      "新": 776,
      "於": 777,
      "无": 778,
      "日": 779,
      "普": 780,
      "智": 781,
      "書": 782,
      "有": 783,
      "木": 784,
      "本": 785,
      "杙": 786,
      "東": 787,
      "架": 788,
      "楽": 789,
      "歌": 790,
      "武": 791,
      "死": 792,
      "殷": 793,
      "母": 794,
      "比": 795,
      "毛": 796,
      "民": 797,
      "氣": 798,
      "汉": 799,
      "沙": 800,
      "河": 801,
      "治": 802,
      "泥": 803,
      "泽": 804,
      "活": 805,
      "流": 806,
      "海": 807,
      "满": 808,
      "漢": 809,
      "澤": 810,
      "瀑": 811,
      "火": 812,
      "点": 813,
      "無": 814,
      "牧": 815,
      "獣": 816,
      "王": 817,
      "玩": 818,
      "珠": 819,
      "瑪": 820,
      "生": 821,
      "産": 822,
      "町": 823,
      "白": 824,
      "盧": 825,
      "目": 826,
      "相": 827,
      "真": 828,
      "着": 829,
      "砂": 830,
      "示": 831,
      "礼": 832,
      "神": 833,
      "禊": 834,
      "穆": 835,
      "立": 836,
      "第": 837,
      "糸": 838,
      "級": 839,
      "經": 840,
      "線": 841,
      "级": 842,
      "纲": 843,
      "美": 844,
      "義": 845,
      "者": 846,
      "耳": 847,
      "聖": 848,
      "能": 849,
      "至": 850,
      "芝": 851,
      "芸": 852,
      "草": 853,
      "荠": 854,
      "荸": 855,
      "菱": 856,
      "行": 857,
      "術": 858,
      "裕": 859,
      "西": 860,
      "觀": 861,
      "角": 862,
      "解": 863,
      "言": 864,
      "訶": 865,
      "話": 866,
      "語": 867,
      "論": 868,
      "话": 869,
      "语": 870,
      "豊": 871,
      "貞": 872,
      "賢": 873,
      "贞": 874,
      "辰": 875,
      "通": 876,
      "造": 877,
      "道": 878,
      "邇": 879,
      "那": 880,
      "邪": 881,
      "都": 882,
      "里": 883,
      "重": 884,
      "野": 885,
      "金": 886,
      "鉉": 887,
      "鋼": 888,
      "錫": 889,
      "錬": 890,
      "鎖": 891,
      "鎮": 892,
      "钦": 893,
      "镇": 894,
      "開": 895,
      "關": 896,
      "门": 897,
      "阶": 898,
      "阿": 899,
      "陀": 900,
      "陈": 901,
      "院": 902,
      "階": 903,
      "雲": 904,
      "霊": 905,
      "青": 906,
      "革": 907,
      "須": 908,
      "颜": 909,
      "馬": 910,
      "高": 911,
      "魂": 912,
      "魔": 913,
      "鮮": 914,
      "龍": 915,
      "龙": 916,
      "ꜣ": 917,
      "ꜥ": 918,
      "가": 919,
      "고": 920,
      "구": 921,
      "국": 922,
      "군": 923,
      "규": 924,
      "기": 925,
      "녀": 926,
      "년": 927,
      "노": 928,
      "단": 929,
      "띄": 930,
      "말": 931,
      "무": 932,
      "미": 933,
      "민": 934,
      "방": 935,
      "범": 936,
      "법": 937,
      "불": 938,
      "비": 939,
      "삼": 940,
      "생": 941,
      "선": 942,
      "세": 943,
      "소": 944,
      "숯": 945,
      "스": 946,
      "실": 947,
      "쓰": 948,
      "애": 949,
      "어": 950,
      "여": 951,
      "엽": 952,
      "위": 953,
      "의": 954,
      "이": 955,
      "인": 956,
      "임": 957,
      "정": 958,
      "조": 959,
      "주": 960,
      "준": 961,
      "지": 962,
      "천": 963,
      "총": 964,
      "춤": 965,
      "트": 966,
      "표": 967,
      "하": 968,
      "학": 969,
      "한": 970,
      "현": 971,
      "홈": 972,
      "𐎰": 973,
      "𐎱": 974,
      "𐎺": 975,
      "𐎼": 976,
      "𐭅": 977,
      "𐭐": 978,
      "𐭓": 979,
      "𐭕": 980,
      "𐭡": 981,
      "𐭥": 982,
      "𐭫": 983,
      "𐭮": 984,
      "𐭯": 985,
      "𒂊": 986,
      "𒄩": 987,
      "𒆥": 988,
      "𒆪": 989,
      "𒇺": 990,
      "𒈠": 991,
      "𒉡": 992,
      "𒋀": 993,
      "𒌑": 994,
      "𒍝": 995,
      "𞤁": 996,
      "𞤂": 997,
      "𞤉": 998,
      "𞤋": 999,
      "𞤐": 1000,
      "𞤑": 1001,
      "𞤓": 1002,
      "𞤔": 1003,
      "𞥅": 1004,
      "##i": 1005,
      "##a": 1006,
      "##n": 1007,
      "##g": 1008,
      "##k": 1009,
      "##t": 1010,
      "##b": 1011,
      "##p": 1012,
      "##l": 1013,
      "##u": 1014,
      "##o": 1015,
      "##w": 1016,
      "##m": 1017,
      "##v": 1018,
      "##e": 1019,
      "##s": 1020,
      "##r": 1021,
      "##h": 1022,
      "##c": 1023,
      "##y": 1024,
      "##x": 1025,
      "##d": 1026,
      "##f": 1027,
      "##7": 1028,
      "##3": 1029,
      "##8": 1030,
      "##4": 1031,
      "##N": 1032,
      "##P": 1033,
      "##z": 1034,
      "##T": 1035,
      "##O": 1036,
      "##M": 1037,
      "##ན": 1038,
      "##5": 1039,
      "##á": 1040,
      "##°": 1041,
      "##ä": 1042,
      "##q": 1043,
      "##ñ": 1044,
      "##0": 1045,
      "##2": 1046,
      "##6": 1047,
      "##1": 1048,
      "##I": 1049,
      "##L": 1050,
      "##A": 1051,
      "##R": 1052,
      "##Y": 1053,
      "##9": 1054,
      "##B": 1055,
      "##S": 1056,
      "##K": 1057,
      "##G": 1058,
      "##j": 1059,
      "##ü": 1060,
      "##F": 1061,
      "##E": 1062,
      "##C": 1063,
      "##ó": 1064,
      "##邪": 1065,
      "##那": 1066,
      "##美": 1067,
      "##神": 1068,
      "##ø": 1069,
      "##D": 1070,
      "##è": 1071,
      "##U": 1072,
      "##í": 1073,
      "##±": 1074,
      "##ā": 1075,
      "##ا": 1076,
      "##ف": 1077,
      "##ر": 1078,
      "##é": 1079,
      "##ヴ": 1080,
      "##ァ": 1081,
      "##ー": 1082,
      "##ガ": 1083,
      "##デ": 1084,
      "##ン": 1085,
      "##H": 1086,
      "##â": 1087,
      "##W": 1088,
      "##−": 1089,
      "##V": 1090,
      "##ŋ": 1091,
      "##ˈ": 1092,
      "##ɡ": 1093,
      "##ɾ": 1094,
      "##ý": 1095,
      "##ಿ": 1096,
      "##ê": 1097,
      "##希": 1098,
      "##ö": 1099,
      "##ú": 1100,
      "##国": 1101,
      "##母": 1102,
      "##陀": 1103,
      "##流": 1104,
      "##ū": 1105,
      "##×": 1106,
      "##έ": 1107,
      "##κ": 1108,
      "##α": 1109,
      "##ο": 1110,
      "##ῦ": 1111,
      "##ς": 1112,
      "##à": 1113,
      "##ɪ": 1114,
      "##ʃ": 1115,
      "##ː": 1116,
      "##ز": 1117,
      "##گ": 1118,
      "##ō": 1119,
      "##宗": 1120,
      "##م": 1121,
      "##ל": 1122,
      "##ו": 1123,
      "##י": 1124,
      "##ה": 1125,
      "##Z": 1126,
      "##ő": 1127,
      "##八": 1128,
      "##世": 1129,
      "##哲": 1130,
      "##布": 1131,
      "##巴": 1132,
      "##呼": 1133,
      "##圖": 1134,
      "##克": 1135,
      "##ỉ": 1136,
      "##ś": 1137,
      "##J": 1138,
      "##ه": 1139,
      "##ي": 1140,
      "##ة": 1141,
      "##ེ": 1142,
      "##¹": 1143,
      "##ŭ": 1144,
      "##յ": 1145,
      "##ո": 1146,
      "##ւ": 1147,
      "##ռ": 1148,
      "##ն": 1149,
      "##ի": 1150,
      "##ồ": 1151,
      "##ι": 1152,
      "##λ": 1153,
      "##ί": 1154,
      "##ζ": 1155,
      "##ω": 1156,
      "##г": 1157,
      "##в": 1158,
      "##а": 1159,
      "##н": 1160,
      "##л": 1161,
      "##у": 1162,
      "##с": 1163,
      "##ч": 1164,
      "##о": 1165,
      "##й": 1166,
      "##ж": 1167,
      "##и": 1168,
      "##я": 1169,
      "##м": 1170,
      "##д": 1171,
      "##з": 1172,
      "##ү": 1173,
      "##ı": 1174,
      "##د": 1175,
      "##大": 1176,
      "##민": 1177,
      "##μ": 1178,
      "##ν": 1179,
      "##π": 1180,
      "##ρ": 1181,
      "##ά": 1182,
      "##τ": 1183,
      "##η": 1184,
      "##ḫ": 1185,
      "##X": 1186,
      "##و": 1187,
      "##ش": 1188,
      "##ό": 1189,
      "##ジ": 1190,
      "##ラ": 1191,
      "##ë": 1192,
      "##ε": 1193,
      "##ξ": 1194,
      "##δ": 1195,
      "##國": 1196,
      "##人": 1197,
      "##民": 1198,
      "##解": 1199,
      "##放": 1200,
      "##霊": 1201,
      "##四": 1202,
      "##魂": 1203,
      "##ʰ": 1204,
      "##˨": 1205,
      "##ô": 1206,
      "##ř": 1207,
      "##선": 1208,
      "##말": 1209,
      "##ḳ": 1210,
      "##²": 1211,
      "##ǎ": 1212,
      "##ل": 1213,
      "##ق": 1214,
      "##َ": 1215,
      "##ذ": 1216,
      "##ّ": 1217,
      "##ِ": 1218,
      "##γ": 1219,
      "##ύ": 1220,
      "##υ": 1221,
      "##ŏ": 1222,
      "##压": 1223,
      "##反": 1224,
      "##革": 1225,
      "##命": 1226,
      "##ã": 1227,
      "##ə": 1228,
      "##ָ": 1229,
      "##ּ": 1230,
      "##נ": 1231,
      "##ִ": 1232,
      "##א": 1233,
      "##ֵ": 1234,
      "##כ": 1235,
      "##於": 1236,
      "##嚴": 1237,
      "##鎮": 1238,
      "##壓": 1239,
      "##分": 1240,
      "##子": 1241,
      "##活": 1242,
      "##動": 1243,
      "##指": 1244,
      "##示": 1245,
      "##س": 1246,
      "##̞": 1247,
      "##通": 1248,
      "##话": 1249,
      "##위": 1250,
      "##트": 1251,
      "##홈": 1252,
      "##č": 1253,
      "##Q": 1254,
      "##纲": 1255,
      "##ь": 1256,
      "##ю": 1257,
      "##ب": 1258,
      "##ن": 1259,
      "##주": 1260,
      "##의": 1261,
      "##인": 1262,
      "##Ó": 1263,
      "##σ": 1264,
      "##𒍝": 1265,
      "##𒆥": 1266,
      "##𒌑": 1267,
      "##里": 1268,
      "##の": 1269,
      "##奏": 1270,
      "##者": 1271,
      "##エ": 1272,
      "##リ": 1273,
      "##ή": 1274,
      "##ῆ": 1275,
      "##ώ": 1276,
      "##р": 1277,
      "##к": 1278,
      "##т": 1279,
      "##æ": 1280,
      "##ù": 1281,
      "##š": 1282,
      "##ु": 1283,
      "##र": 1284,
      "##之": 1285,
      "##治": 1286,
      "##ī": 1287,
      "##ב": 1288,
      "##ר": 1289,
      "##ӧ": 1290,
      "##魔": 1291,
      "##実": 1292,
      "##ơ": 1293,
      "##х": 1294,
      "##ʒ": 1295,
      "##ן": 1296,
      "##ോ": 1297,
      "##ട": 1298,
      "##്": 1299,
      "##േ": 1300,
      "##പ": 1301,
      "##ള": 1302,
      "##ി": 1303,
      "##ž": 1304,
      "##б": 1305,
      "##ʲ": 1306,
      "##́": 1307,
      "##е": 1308,
      "##ē": 1309,
      "##ǔ": 1310,
      "##ា": 1311,
      "##ណ": 1312,
      "##ច": 1313,
      "##ក": 1314,
      "##្": 1315,
      "##រ": 1316,
      "##អ": 1317,
      "##ង": 1318,
      "##គ": 1319,
      "##Š": 1320,
      "##û": 1321,
      "##ì": 1322,
      "##θ": 1323,
      "##ộ": 1324,
      "##岐": 1325,
      "##ꜣ": 1326,
      "##ё": 1327,
      "##ò": 1328,
      "##إ": 1329,
      "##歌": 1330,
      "##여": 1331,
      "##쓰": 1332,
      "##기": 1333,
      "##규": 1334,
      "##범": 1335,
      "##常": 1336,
      "##立": 1337,
      "##ط": 1338,
      "##å": 1339,
      "##Ñ": 1340,
      "##ɔ": 1341,
      "##µ": 1342,
      "##ʎ": 1343,
      "##ɛ": 1344,
      "##χ": 1345,
      "##ˌ": 1346,
      "##ł": 1347,
      "##ʻ": 1348,
      "##œ": 1349,
      "##ě": 1350,
      "##王": 1351,
      "##ْ": 1352,
      "##أ": 1353,
      "##ُ": 1354,
      "##テ": 1355,
      "##ド": 1356,
      "##ت": 1357,
      "##論": 1358,
      "##ᜄ": 1359,
      "##᜔": 1360,
      "##ᜒ": 1361,
      "##ᜐ": 1362,
      "##ᜌ": 1363,
      "##字": 1364,
      "##ຣ": 1365,
      "##ະ": 1366,
      "##ಾ": 1367,
      "##ಯ": 1368,
      "##€": 1369,
      "##³": 1370,
      "##춤": 1371,
      "##법": 1372,
      "##ṭ": 1373,
      "##ˁ": 1374,
      "##ར": 1375,
      "##峰": 1376,
      "##語": 1377,
      "##ɱ": 1378,
      "##ć": 1379,
      "##ḥ": 1380,
      "##京": 1381,
      "##メ": 1382,
      "##ト": 1383,
      "##ロ": 1384,
      "##副": 1385,
      "##都": 1386,
      "##心": 1387,
      "##線": 1388,
      "##ᜋ": 1389,
      "##̄": 1390,
      "##͡": 1391,
      "##ш": 1392,
      "##ј": 1393,
      "##錬": 1394,
      "##金": 1395,
      "##術": 1396,
      "##師": 1397,
      "##ß": 1398,
      "##ɑ": 1399,
      "##ạ": 1400,
      "##觀": 1401,
      "##⠗": 1402,
      "##⠇": 1403,
      "##生": 1404,
      "##ệ": 1405,
      "##̃": 1406,
      "##愛": 1407,
      "##ग": 1408,
      "##̱": 1409,
      "##φ": 1410,
      "##ế": 1411,
      "##ḏ": 1412,
      "##î": 1413,
      "##미": 1414,
      "##ṣ": 1415,
      "##ç": 1416,
      "##ד": 1417,
      "##ா": 1418,
      "##ப": 1419,
      "##ז": 1420,
      "##ְ": 1421,
      "##ק": 1422,
      "##֫": 1423,
      "##只": 1424,
      "##有": 1425,
      "##改": 1426,
      "##造": 1427,
      "##比": 1428,
      "##地": 1429,
      "##邇": 1430,
      "##ῖ": 1431,
      "##∞": 1432,
      "##イ": 1433,
      "##ズ": 1434,
      "##ם": 1435,
      "##产": 1436,
      "##阶": 1437,
      "##级": 1438,
      "##文": 1439,
      "##化": 1440,
      "##海": 1441,
      "##代": 1442,
      "##目": 1443,
      "##友": 1444,
      "##帳": 1445,
      "##本": 1446,
      "##協": 1447,
      "##会": 1448,
      "##ṇ": 1449,
      "##어": 1450,
      "##辰": 1451,
      "##争": 1452,
      "##ع": 1453,
      "##ֹ": 1454,
      "##ễ": 1455,
      "##门": 1456,
      "##ゴ": 1457,
      "##ル": 1458,
      "##井": 1459,
      "##고": 1460,
      "##Ü": 1461,
      "##拜": 1462,
      "##堂": 1463,
      "##っ": 1464,
      "##ぱ": 1465,
      "##い": 1466,
      "##ʊ": 1467,
      "##າ": 1468,
      "##ງ": 1469,
      "##𒆪": 1470,
      "##𒋀": 1471,
      "##𒉡": 1472,
      "##𒈠": 1473,
      "##𒂊": 1474,
      "##𒇺": 1475,
      "##西": 1476,
      "##学": 1477,
      "##院": 1478,
      "##ℓ": 1479,
      "##ร": 1480,
      "##ะ": 1481,
      "##เ": 1482,
      "##ข": 1483,
      "##้": 1484,
      "##ح": 1485,
      "##武": 1486,
      "##국": 1487,
      "##가": 1488,
      "##錫": 1489,
      "##བ": 1490,
      "##ྲ": 1491,
      "##ག": 1492,
      "##ס": 1493,
      "##ף": 1494,
      "##ய": 1495,
      "##ி": 1496,
      "##΄": 1497,
      "##ň": 1498,
      "##初": 1499,
      "##ð": 1500,
      "##𐭓": 1501,
      "##𐭕": 1502,
      "##𐭅": 1503,
      "##녀": 1504,
      "##ء": 1505,
      "##ă": 1506,
      "##敬": 1507,
      "##ʿ": 1508,
      "##玩": 1509,
      "##儿": 1510,
      "##ῴ": 1511,
      "##上": 1512,
      "##ི": 1513,
      "##ད": 1514,
      "##비": 1515,
      "##ş": 1516,
      "##ụ": 1517,
      "##タ": 1518,
      "##ア": 1519,
      "##書": 1520,
      "##架": 1521,
      "##đ": 1522,
      "##み": 1523,
      "##じ": 1524,
      "##ğ": 1525,
      "##ಬ": 1526,
      "##ダ": 1527,
      "##フ": 1528,
      "##ો": 1529,
      "##હ": 1530,
      "##ન": 1531,
      "##દ": 1532,
      "##ા": 1533,
      "##સ": 1534,
      "##七": 1535,
      "##ắ": 1536,
      "##相": 1537,
      "##应": 1538,
      "##ป": 1539,
      "##ิ": 1540,
      "##話": 1541,
      "##ʷ": 1542,
      "##ש": 1543,
      "##𞤓": 1544,
      "##𞥅": 1545,
      "##𞤂": 1546,
      "##𞤁": 1547,
      "##𞤉": 1548,
      "##ភ": 1549,
      "##ព": 1550,
      "##ខ": 1551,
      "##ម": 1552,
      "##ែ": 1553,
      "##ӯ": 1554,
      "##瀑": 1555,
      "##草": 1556,
      "##ǰ": 1557,
      "##ὶ": 1558,
      "##준": 1559,
      "##ǐ": 1560,
      "##木": 1561,
      "##媽": 1562,
      "##御": 1563,
      "##中": 1564,
      "##主": 1565,
      "##ં": 1566,
      "##ધ": 1567,
      "##妓": 1568,
      "##ע": 1569,
      "##Ã": 1570,
      "##角": 1571,
      "##和": 1572,
      "##소": 1573,
      "##년": 1574,
      "##단": 1575,
      "##지": 1576,
      "##荠": 1577,
      "##杙": 1578,
      "##Ω": 1579,
      "##摩": 1580,
      "##志": 1581,
      "##阿": 1582,
      "##斯": 1583,
      "##訶": 1584,
      "##備": 1585,
      "##古": 1586,
      "##ຼ": 1587,
      "##ວ": 1588,
      "##ર": 1589,
      "##મ": 1590,
      "##ચ": 1591,
      "##ố": 1592,
      "##ė": 1593,
      "##Ø": 1594,
      "##ீ": 1595,
      "##ர": 1596,
      "##ட": 1597,
      "##斗": 1598,
      "##能": 1599,
      "##義": 1600,
      "##賢": 1601,
      "##ቡ": 1602,
      "##ዳ": 1603,
      "##ἰ": 1604,
      "##ᜃ": 1605,
      "##ᜉ": 1606,
      "##ᜆ": 1607,
      "##ᜓ": 1608,
      "##ᜅ": 1609,
      "##무": 1610,
      "##현": 1611,
      "##ウ": 1612,
      "##シ": 1613,
      "##バ": 1614,
      "##ằ": 1615,
      "##ï": 1616,
      "##ュ": 1617,
      "##産": 1618,
      "##巣": 1619,
      "##日": 1620,
      "##楽": 1621,
      "##町": 1622,
      "##新": 1623,
      "##澤": 1624,
      "##裕": 1625,
      "##☉": 1626,
      "##ɫ": 1627,
      "##南": 1628,
      "##𞤐": 1629,
      "##𞤑": 1630,
      "##𞤋": 1631,
      "##レ": 1632,
      "##ッ": 1633,
      "##泽": 1634,
      "##东": 1635,
      "##思": 1636,
      "##經": 1637,
      "##ị": 1638,
      "##军": 1639,
      "##ח": 1640,
      "##芝": 1641,
      "##म": 1642,
      "##्": 1643,
      "##प": 1644,
      "##ɐ": 1645,
      "##ិ": 1646,
      "##ว": 1647,
      "##ง": 1648,
      "##ศ": 1649,
      "##์": 1650,
      "##ธ": 1651,
      "##อ": 1652,
      "##ᾶ": 1653,
      "##道": 1654,
      "##階": 1655,
      "##級": 1656,
      "##智": 1657,
      "##島": 1658,
      "##총": 1659,
      "##½": 1660,
      "##ی": 1661,
      "##ा": 1662,
      "##न": 1663,
      "##满": 1664,
      "##Σ": 1665,
      "##ە": 1666,
      "##ʁ": 1667,
      "##군": 1668,
      "##구": 1669,
      "##₱": 1670,
      "##𐭫": 1671,
      "##𐭮": 1672,
      "##𐭥": 1673,
      "##𐭡": 1674,
      "##向": 1675,
      "##ィ": 1676,
      "##ピ": 1677,
      "##共": 1678,
      "##ɜ": 1679,
      "##千": 1680,
      "##천": 1681,
      "##정": 1682,
      "##ོ": 1683,
      "##夜": 1684,
      "##泥": 1685,
      "##𐎼": 1686,
      "##𐎰": 1687,
      "##𐎺": 1688,
      "##˩": 1689,
      "##ম": 1690,
      "##র": 1691,
      "##্": 1692,
      "##য": 1693,
      "##п": 1694,
      "##β": 1695,
      "##至": 1696,
      "##ט": 1697,
      "##雲": 1698,
      "##野": 1699,
      "##乃": 1700,
      "##弁": 1701,
      "##语": 1702,
      "##モ": 1703,
      "##ス": 1704,
      "##생": 1705,
      "##鉉": 1706,
      "##Ε": 1707,
      "##ḍ": 1708,
      "##開": 1709,
      "##خ": 1710,
      "##点": 1711,
      "##天": 1712,
      "##原": 1713,
      "##ᜇ": 1714,
      "##ᜏ": 1715,
      "##ữ": 1716,
      "##학": 1717,
      "##穆": 1718,
      "##瑪": 1719,
      "##沙": 1720,
      "##河": 1721,
      "##ᜊ": 1722,
      "##ᜈ": 1723,
      "##ђ": 1724,
      "##氣": 1725,
      "##ค": 1726,
      "##จ": 1727,
      "##า": 1728,
      "##ภ": 1729,
      "##ม": 1730,
      "##พ": 1731,
      "##ล": 1732,
      "##ด": 1733,
      "##ย": 1734,
      "##ช": 1735,
      "##ẖ": 1736,
      "##ャ": 1737,
      "##ng": 1738,
      "##ang": 1739,
      "##ga": 1740,
      "##an": 1741,
      "##ag": 1742,
      "sa": 1743,
      "##al": 1744,
      "##in": 1745,
      "na": 1746,
      "##on": 1747,
      "##at": 1748,
      "ang": 1749,
      "nga": 1750,
      "##as": 1751,
      "ng": 1752,
      "##ar": 1753,
      "mga": 1754,
      "sang": 1755,
      "##ay": 1756,
      "##il": 1757,
      "##it": 1758,
      "##am": 1759,
      "##ak": 1760,
      "##ong": 1761,
      "##ul": 1762,
      "pag": 1763,
      "##er": 1764,
      "##ah": 1765,
      "##is": 1766,
      "##ad": 1767,
      "##ap": 1768,
      "##ab": 1769,
      "##ya": 1770,
      "##um": 1771,
      "##un": 1772,
      "kag": 1773,
      "##ing": 1774,
      "##aw": 1775,
      "##ik": 1776,
      "at": 1777,
      "##en": 1778,
      "ay": 1779,
      "##to": 1780,
      "##yon": 1781,
      "##os": 1782,
      "is": 1783,
      "##es": 1784,
      "si": 1785,
      "##or": 1786,
      "##us": 1787,
      "##aga": 1788,
      "##im": 1789,
      "##ig": 1790,
      "##id": 1791,
      "ni": 1792,
      "nag": 1793,
      "##ol": 1794,
      "##od": 1795,
      "##ung": 1796,
      "in": 1797,
      "gin": 1798,
      "##yo": 1799,
      "##ip": 1800,
      "##ub": 1801,
      "ka": 1802,
      "##ib": 1803,
      "##ala": 1804,
      "Ang": 1805,
      "##ur": 1806,
      "##om": 1807,
      "##ut": 1808,
      "isang": 1809,
      "##el": 1810,
      "##uk": 1811,
      "pang": 1812,
      "par": 1813,
      "##ilang": 1814,
      "##ug": 1815,
      "##ro": 1816,
      "##uh": 1817,
      "##di": 1818,
      "##em": 1819,
      "##yang": 1820,
      "##ta": 1821,
      "mag": 1822,
      "naga": 1823,
      "pagp": 1824,
      "kan": 1825,
      "an": 1826,
      "il": 1827,
      "##and": 1828,
      "para": 1829,
      "##ir": 1830,
      "##ent": 1831,
      "##ot": 1832,
      "##ek": 1833,
      "##ok": 1834,
      "##ila": 1835,
      "##asyon": 1836,
      "pam": 1837,
      "pa": 1838,
      "##og": 1839,
      "##oong": 1840,
      "re": 1841,
      "may": 1842,
      "##tr": 1843,
      "pin": 1844,
      "mas": 1845,
      "##le": 1846,
      "sin": 1847,
      "Sa": 1848,
      "pan": 1849,
      "man": 1850,
      "##up": 1851,
      "##ula": 1852,
      "##ih": 1853,
      "##ud": 1854,
      "pagk": 1855,
      "nak": 1856,
      "##et": 1857,
      "ib": 1858,
      "##gan": 1859,
      "##yong": 1860,
      "kas": 1861,
      "kat": 1862,
      "##sa": 1863,
      "##re": 1864,
      "##op": 1865,
      "##ic": 1866,
      "mal": 1867,
      "iya": 1868,
      "19": 1869,
      "bilang": 1870,
      "20": 1871,
      "##iya": 1872,
      "noong": 1873,
      "mak": 1874,
      "ito": 1875,
      "##ob": 1876,
      "##pang": 1877,
      "##mo": 1878,
      "##ado": 1879,
      "##ayan": 1880,
      "##ist": 1881,
      "##iw": 1882,
      "niya": 1883,
      "mat": 1884,
      "kon": 1885,
      "##ahan": 1886,
      "isa": 1887,
      "ar": 1888,
      "##ant": 1889,
      "ma": 1890,
      "##ion": 1891,
      "kab": 1892,
      "##ilip": 1893,
      "##ulu": 1894,
      "ak": 1895,
      "##st": 1896,
      "siya": 1897,
      "ila": 1898,
      "##ed": 1899,
      "kanyang": 1900,
      "##ita": 1901,
      "Mar": 1902,
      "ini": 1903,
      "##ito": 1904,
      "##ina": 1905,
      "pr": 1906,
      "ta": 1907,
      "Gin": 1908,
      "kap": 1909,
      "##mp": 1910,
      "##ilit": 1911,
      "##iy": 1912,
      "hin": 1913,
      "kal": 1914,
      "##anan": 1915,
      "##uga": 1916,
      "##iga": 1917,
      "kah": 1918,
      "un": 1919,
      "##ian": 1920,
      "##agan": 1921,
      "##aan": 1922,
      "In": 1923,
      "##atay": 1924,
      "##wa": 1925,
      "##lo": 1926,
      "kay": 1927,
      "##iko": 1928,
      "##itan": 1929,
      "##eg": 1930,
      "sini": 1931,
      "##him": 1932,
      "##uw": 1933,
      "##ac": 1934,
      "hal": 1935,
      "##oy": 1936,
      "##umulu": 1937,
      "##alang": 1938,
      "##lan": 1939,
      "##han": 1940,
      "##ika": 1941,
      "al": 1942,
      "##ens": 1943,
      "##ter": 1944,
      "##ilipin": 1945,
      "wala": 1946,
      "Nag": 1947,
      "##usyon": 1948,
      "##alan": 1949,
      "##pan": 1950,
      "pags": 1951,
      "##apat": 1952,
      "mang": 1953,
      "pagt": 1954,
      "##bol": 1955,
      "Pilipin": 1956,
      "mula": 1957,
      "ik": 1958,
      "##awa": 1959,
      "##tong": 1960,
      "##amb": 1961,
      "pagb": 1962,
      "##uan": 1963,
      "##idad": 1964,
      "##ia": 1965,
      "##und": 1966,
      "##ista": 1967,
      "kar": 1968,
      "##ers": 1969,
      "kin": 1970,
      "pro": 1971,
      "lang": 1972,
      "##ilitar": 1973,
      "##alak": 1974,
      "bat": 1975,
      "##kon": 1976,
      "##yal": 1977,
      "hindi": 1978,
      "##sod": 1979,
      "pumulu": 1980,
      "##tang": 1981,
      "##uha": 1982,
      "##apos": 1983,
      "##man": 1984,
      "##ma": 1985,
      "nang": 1986,
      "##ungsod": 1987,
      "kam": 1988,
      "##ans": 1989,
      "##ep": 1990,
      "##eh": 1991,
      "##ama": 1992,
      "militar": 1993,
      "ag": 1994,
      "##ahon": 1995,
      "##agi": 1996,
      "##pin": 1997,
      "kung": 1998,
      "##alaw": 1999,
      "nat": 2000,
      "##te": 2001,
      "##bolusyon": 2002,
      "tin": 2003,
      "##ra": 2004,
      "pinak": 2005,
      "##ismo": 2006,
      "##yan": 2007,
      "##amang": 2008,
      "sila": 2009,
      "##he": 2010,
      "hang": 2011,
      "##alay": 2012,
      "indi": 2013,
      "##ero": 2014,
      "##arang": 2015,
      "##art": 2016,
      "##aryo": 2017,
      "pagl": 2018,
      "or": 2019,
      "bah": 2020,
      "##ulong": 2021,
      "ban": 2022,
      "##uno": 2023,
      "##ayon": 2024,
      "rebolusyon": 2025,
      "pat": 2026,
      "##ulang": 2027,
      "mah": 2028,
      "##akas": 2029,
      "pumuluyo": 2030,
      "Tit": 2031,
      "Title": 2032,
      "##eb": 2033,
      "op": 2034,
      "nito": 2035,
      "##syon": 2036,
      "##abas": 2037,
      "##tor": 2038,
      "##ili": 2039,
      "##hi": 2040,
      "##atag": 2041,
      "kom": 2042,
      "mad": 2043,
      "upang": 2044,
      "nagp": 2045,
      "##ation": 2046,
      "##aka": 2047,
      "##la": 2048,
      "nila": 2049,
      "##aba": 2050,
      "##tin": 2051,
      "tr": 2052,
      "kad": 2053,
      "pas": 2054,
      "##00": 2055,
      "##awan": 2056,
      "##away": 2057,
      "##ahil": 2058,
      "##ari": 2059,
      "##ano": 2060,
      "##isyon": 2061,
      "map": 2062,
      "##mit": 2063,
      "pangk": 2064,
      "##eng": 2065,
      "pagh": 2066,
      "of": 2067,
      "##alik": 2068,
      "##amat": 2069,
      "kum": 2070,
      "est": 2071,
      "sia": 2072,
      "Ar": 2073,
      "imp": 2074,
      "##uman": 2075,
      "May": 2076,
      "Un": 2077,
      "nap": 2078,
      "##ubl": 2079,
      "##do": 2080,
      "Pilipinas": 2081,
      "ginp": 2082,
      "##ern": 2083,
      "##alag": 2084,
      "sub": 2085,
      "##unit": 2086,
      "##ort": 2087,
      "##ihan": 2088,
      "##uma": 2089,
      "as": 2090,
      "bag": 2091,
      "pagpang": 2092,
      "##ri": 2093,
      "##aran": 2094,
      "sad": 2095,
      "Si": 2096,
      "US": 2097,
      "##ikal": 2098,
      "nags": 2099,
      "##ch": 2100,
      "##emb": 2101,
      "##law": 2102,
      "##ros": 2103,
      "##ahang": 2104,
      "din": 2105,
      "##atapos": 2106,
      "##ilala": 2107,
      "##unan": 2108,
      "nagl": 2109,
      "Pag": 2110,
      "##cos": 2111,
      "lab": 2112,
      "tung": 2113,
      "201": 2114,
      "##angk": 2115,
      "##aring": 2116,
      "iba": 2117,
      "##ata": 2118,
      "##ido": 2119,
      "##oh": 2120,
      "pungsod": 2121,
      "panahon": 2122,
      "##unod": 2123,
      "An": 2124,
      "##asan": 2125,
      "bin": 2126,
      "ko": 2127,
      "##ali": 2128,
      "##res": 2129,
      "##PA": 2130,
      "##amit": 2131,
      "##ahat": 2132,
      "lamang": 2133,
      "##ara": 2134,
      "Marcos": 2135,
      "pamam": 2136,
      "##da": 2137,
      "##ha": 2138,
      "##ura": 2139,
      "##ulad": 2140,
      "masa": 2141,
      "##ente": 2142,
      "##alo": 2143,
      "##ilya": 2144,
      "##abang": 2145,
      "##ikong": 2146,
      "id": 2147,
      "pal": 2148,
      "##ast": 2149,
      "##pat": 2150,
      "ika": 2151,
      "Al": 2152,
      "##ibo": 2153,
      "##alawang": 2154,
      "mab": 2155,
      "Noong": 2156,
      "##iling": 2157,
      "Is": 2158,
      "##ins": 2159,
      "tub": 2160,
      "tu": 2161,
      "##ulat": 2162,
      "sal": 2163,
      "ab": 2164,
      "##io": 2165,
      "##iyang": 2166,
      "##aman": 2167,
      "mam": 2168,
      "tum": 2169,
      "##uns": 2170,
      "##ity": 2171,
      "Ch": 2172,
      "NPA": 2173,
      "##imb": 2174,
      "Ka": 2175,
      "gid": 2176,
      "kanilang": 2177,
      "##era": 2178,
      "##uy": 2179,
      "tao": 2180,
      "##unguma": 2181,
      "dahil": 2182,
      "##awag": 2183,
      "mar": 2184,
      "##est": 2185,
      "##anda": 2186,
      "##sp": 2187,
      "##bat": 2188,
      "lum": 2189,
      "iban": 2190,
      "mangunguma": 2191,
      "##aro": 2192,
      "##amp": 2193,
      "##isa": 2194,
      "##una": 2195,
      "##aryong": 2196,
      "naging": 2197,
      "##ugon": 2198,
      "##th": 2199,
      "taga": 2200,
      "Part": 2201,
      "##mb": 2202,
      "##ulo": 2203,
      "pak": 2204,
      "Neg": 2205,
      "##ayo": 2206,
      "##uo": 2207,
      "unang": 2208,
      "ibang": 2209,
      "##ays": 2210,
      "##gang": 2211,
      "##oc": 2212,
      "arm": 2213,
      "halin": 2214,
      "##iv": 2215,
      "ad": 2216,
      "kontr": 2217,
      "Negros": 2218,
      "##uhay": 2219,
      "##yemb": 2220,
      "ginap": 2221,
      "200": 2222,
      "on": 2223,
      "##ada": 2224,
      "sadtong": 2225,
      "##adong": 2226,
      "sul": 2227,
      "18": 2228,
      "dir": 2229,
      "202": 2230,
      "nagt": 2231,
      "nagap": 2232,
      "tanan": 2233,
      "maga": 2234,
      "rin": 2235,
      "sum": 2236,
      "##ento": 2237,
      "##agitan": 2238,
      "di": 2239,
      "##arangay": 2240,
      "##ec": 2241,
      "saan": 2242,
      "ako": 2243,
      "##uon": 2244,
      "Indi": 2245,
      "gr": 2246,
      "##ikang": 2247,
      "##unt": 2248,
      "hanggang": 2249,
      "organ": 2250,
      "amo": 2251,
      "pamamagitan": 2252,
      "##uter": 2253,
      "##ana": 2254,
      "##FP": 2255,
      "pw": 2256,
      "##panya": 2257,
      "##yembre": 2258,
      "Am": 2259,
      "kr": 2260,
      "##ling": 2261,
      "nagk": 2262,
      "##ain": 2263,
      "##orm": 2264,
      "inter": 2265,
      "maa": 2266,
      "##isasyon": 2267,
      "dem": 2268,
      "##ema": 2269,
      "the": 2270,
      "##uta": 2271,
      "##ima": 2272,
      "##abi": 2273,
      "##ungan": 2274,
      "##si": 2275,
      "##les": 2276,
      "##ult": 2277,
      "Wala": 2278,
      "##ard": 2279,
      "nagb": 2280,
      "##rat": 2281,
      "rehim": 2282,
      "##asak": 2283,
      "ipin": 2284,
      "naman": 2285,
      "aw": 2286,
      "##lat": 2287,
      "Naga": 2288,
      "##ump": 2289,
      "bil": 2290,
      "##ugar": 2291,
      "BH": 2292,
      "pad": 2293,
      "ukon": 2294,
      "BHB": 2295,
      "##utan": 2296,
      "malap": 2297,
      "##igay": 2298,
      "IB": 2299,
      "anak": 2300,
      "##alin": 2301,
      "agud": 2302,
      "tuig": 2303,
      "##ey": 2304,
      "##alim": 2305,
      "##apon": 2306,
      "Br": 2307,
      "##isan": 2308,
      "estado": 2309,
      "sing": 2310,
      "##uto": 2311,
      "##aya": 2312,
      "lugar": 2313,
      "##aas": 2314,
      "##agay": 2315,
      "##igan": 2316,
      "ant": 2317,
      "##abah": 2318,
      "##pa": 2319,
      "magk": 2320,
      "Ag": 2321,
      "bul": 2322,
      "Partido": 2323,
      "bas": 2324,
      "pareh": 2325,
      "##ayag": 2326,
      "sak": 2327,
      "San": 2328,
      "##aming": 2329,
      "##ino": 2330,
      "nas": 2331,
      "ek": 2332,
      "bahagi": 2333,
      "res": 2334,
      "##ador": 2335,
      "pagpam": 2336,
      "am": 2337,
      "tat": 2338,
      "bal": 2339,
      "subong": 2340,
      "##istang": 2341,
      "banwa": 2342,
      "##agamit": 2343,
      "##uhan": 2344,
      "##ante": 2345,
      "##int": 2346,
      "nab": 2347,
      "Ma": 2348,
      "taon": 2349,
      "Duter": 2350,
      "ilang": 2351,
      "oper": 2352,
      "Ph": 2353,
      "AFP": 2354,
      "Duterte": 2355,
      "##amo": 2356,
      "pagpap": 2357,
      "Pilipino": 2358,
      "sig": 2359,
      "##ags": 2360,
      "##unang": 2361,
      "paghim": 2362,
      "As": 2363,
      "##aku": 2364,
      "Com": 2365,
      "##ago": 2366,
      "sam": 2367,
      "ter": 2368,
      "##long": 2369,
      "de": 2370,
      "##so": 2371,
      "nam": 2372,
      "##uhi": 2373,
      "##ani": 2374,
      "maaaring": 2375,
      "pagd": 2376,
      "itin": 2377,
      "##ugang": 2378,
      "##agang": 2379,
      "sist": 2380,
      "##oloh": 2381,
      "up": 2382,
      "bu": 2383,
      "##ce": 2384,
      "##ahing": 2385,
      "##ind": 2386,
      "##alig": 2387,
      "##ersa": 2388,
      "##ue": 2389,
      "##ko": 2390,
      "Ab": 2391,
      "##erb": 2392,
      "##alit": 2393,
      "hil": 2394,
      "pul": 2395,
      "##las": 2396,
      "##uling": 2397,
      "##ilangan": 2398,
      "pagkak": 2399,
      "Man": 2400,
      "bang": 2401,
      "##inal": 2402,
      "ip": 2403,
      "##atan": 2404,
      "tag": 2405,
      "##ikt": 2406,
      "nasa": 2407,
      "##eral": 2408,
      "##eo": 2409,
      "##asa": 2410,
      "pres": 2411,
      "lo": 2412,
      "##ral": 2413,
      "##umugon": 2414,
      "dis": 2415,
      "##ating": 2416,
      "pagkatapos": 2417,
      "dalawang": 2418,
      "ngunit": 2419,
      "Barangay": 2420,
      "##angga": 2421,
      "##ital": 2422,
      "##konom": 2423,
      "##angan": 2424,
      "paghimakas": 2425,
      "City": 2426,
      "##yun": 2427,
      "pamilya": 2428,
      "mamumugon": 2429,
      "##end": 2430,
      "pinakam": 2431,
      "##iwang": 2432,
      "demok": 2433,
      "##apan": 2434,
      "ekonom": 2435,
      "##anay": 2436,
      "##ato": 2437,
      "magp": 2438,
      "pangun": 2439,
      "Pr": 2440,
      "##unsar": 2441,
      "##av": 2442,
      "##ton": 2443,
      "15": 2444,
      "##ons": 2445,
      "##akita": 2446,
      "##agat": 2447,
      "##eryal": 2448,
      "adlaw": 2449,
      "el": 2450,
      "mo": 2451,
      "duha": 2452,
      "mil": 2453,
      "##ew": 2454,
      "##iwan": 2455,
      "Amer": 2456,
      "ul": 2457,
      "kasama": 2458,
      "199": 2459,
      "##ulag": 2460,
      "ed": 2461,
      "pamp": 2462,
      "##ubo": 2463,
      "##iba": 2464,
      "um": 2465,
      "pagga": 2466,
      "lahat": 2467,
      "Ito": 2468,
      "prod": 2469,
      "sup": 2470,
      "##uli": 2471,
      "Ing": 2472,
      "kak": 2473,
      "##ahala": 2474,
      "##uso": 2475,
      "rebolusyonaryong": 2476,
      "##ka": 2477,
      "##imo": 2478,
      "pap": 2479,
      "##aysayan": 2480,
      "##obra": 2481,
      "nagah": 2482,
      "##ekt": 2483,
      "##arung": 2484,
      "nah": 2485,
      "sek": 2486,
      "##tat": 2487,
      "sar": 2488,
      "##isyal": 2489,
      "##ord": 2490,
      "000": 2491,
      "##alap": 2492,
      "##ular": 2493,
      "##gr": 2494,
      "rehimen": 2495,
      "ind": 2496,
      "##abaho": 2497,
      "and": 2498,
      "##wal": 2499,
      "Kat": 2500,
      "##bay": 2501,
      "loob": 2502,
      "##igad": 2503,
      "Rom": 2504,
      "##na": 2505,
      "##atawag": 2506,
      "part": 2507,
      "##undo": 2508,
      "##ukod": 2509,
      "##ental": 2510,
      "##ine": 2511,
      "##uc": 2512,
      "##yag": 2513,
      "taw": 2514,
      "##uro": 2515,
      "pwersa": 2516,
      "Pin": 2517,
      "##uod": 2518,
      "duta": 2519,
      "baba": 2520,
      "Philip": 2521,
      "##itika": 2522,
      "maraming": 2523,
      "##asyong": 2524,
      "katap": 2525,
      "taong": 2526,
      "Est": 2527,
      "##ubang": 2528,
      "##yud": 2529,
      "##iwat": 2530,
      "bahin": 2531,
      "En": 2532,
      "kons": 2533,
      "##tob": 2534,
      "##ami": 2535,
      "grup": 2536,
      "kinamat": 2537,
      "##erno": 2538,
      "Philippin": 2539,
      "##ite": 2540,
      "##usto": 2541,
      "198": 2542,
      "##bo": 2543,
      "##ekto": 2544,
      "dapat": 2545,
      "tulad": 2546,
      "##abay": 2547,
      "gum": 2548,
      "min": 2549,
      "##ran": 2550,
      "##agong": 2551,
      "##akt": 2552,
      "diri": 2553,
      "##ational": 2554,
      "produk": 2555,
      "10": 2556,
      "lok": 2557,
      "##elik": 2558,
      "##ensya": 2559,
      "kil": 2560,
      "##iran": 2561,
      "##ras": 2562,
      "Mas": 2563,
      "Sam": 2564,
      "kinamatarung": 2565,
      "pangunahing": 2566,
      "mags": 2567,
      "##alas": 2568,
      "##isyo": 2569,
      "komun": 2570,
      "##li": 2571,
      "##iyos": 2572,
      "##po": 2573,
      "##ityo": 2574,
      "Ts": 2575,
      "##aroon": 2576,
      "tro": 2577,
      "gamit": 2578,
      "walang": 2579,
      "##olohiya": 2580,
      "##ev": 2581,
      "akon": 2582,
      "##mper": 2583,
      "##ment": 2584,
      "##ba": 2585,
      "##abat": 2586,
      "##ilin": 2587,
      "akt": 2588,
      "Mad": 2589,
      "##wel": 2590,
      "panan": 2591,
      "rebolusyonaryo": 2592,
      "pah": 2593,
      "aga": 2594,
      "##agd": 2595,
      "##arian": 2596,
      "##awak": 2597,
      "sina": 2598,
      "bansa": 2599,
      "gint": 2600,
      "inil": 2601,
      "Ingles": 2602,
      "##igit": 2603,
      "##imp": 2604,
      "lungsod": 2605,
      "16": 2606,
      "##alaga": 2607,
      "pos": 2608,
      "##ust": 2609,
      "##ov": 2610,
      "##yerno": 2611,
      "batuk": 2612,
      "yunit": 2613,
      "nagh": 2614,
      "##alom": 2615,
      "##ibong": 2616,
      "bata": 2617,
      "Pagk": 2618,
      "Dapat": 2619,
      "balay": 2620,
      "sib": 2621,
      "kaniyang": 2622,
      "nan": 2623,
      "kaso": 2624,
      "operasyon": 2625,
      "Kr": 2626,
      "##por": 2627,
      "##agawa": 2628,
      "##alaki": 2629,
      "buong": 2630,
      "##agal": 2631,
      "##ahanglan": 2632,
      "demokrat": 2633,
      "##idente": 2634,
      "##uth": 2635,
      "Kas": 2636,
      "##ambal": 2637,
      "##ustr": 2638,
      "12": 2639,
      "##akat": 2640,
      "##apag": 2641,
      "##ugn": 2642,
      "grupo": 2643,
      "Pang": 2644,
      "##ery": 2645,
      "##apas": 2646,
      "##iging": 2647,
      "nagd": 2648,
      "##yar": 2649,
      "##ulot": 2650,
      "Mga": 2651,
      "tubtob": 2652,
      "diin": 2653,
      "##ida": 2654,
      "nagas": 2655,
      "##igh": 2656,
      "Arm": 2657,
      "samtang": 2658,
      "bay": 2659,
      "##non": 2660,
      "##abaw": 2661,
      "##lay": 2662,
      "karan": 2663,
      "##ial": 2664,
      "paagi": 2665,
      "##akal": 2666,
      "lokal": 2667,
      "ot": 2668,
      "##ayun": 2669,
      "##awat": 2670,
      "##mula": 2671,
      "##arawan": 2672,
      "hum": 2673,
      "pinag": 2674,
      "hangaway": 2675,
      "17": 2676,
      "Kom": 2677,
      "##pag": 2678,
      "kontra": 2679,
      "Siya": 2680,
      "bum": 2681,
      "kilala": 2682,
      "##ako": 2683,
      "dek": 2684,
      "habang": 2685,
      "##ansang": 2686,
      "##per": 2687,
      "##ath": 2688,
      "atubang": 2689,
      "##ahin": 2690,
      "Comm": 2691,
      "The": 2692,
      "##apa": 2693,
      "##uran": 2694,
      "kita": 2695,
      "tunga": 2696,
      "kol": 2697,
      "##nd": 2698,
      "Isa": 2699,
      "rel": 2700,
      "197": 2701,
      "pelik": 2702,
      "##kol": 2703,
      "##aral": 2704,
      "sibil": 2705,
      "esp": 2706,
      "te": 2707,
      "##iz": 2708,
      "Mag": 2709,
      "ap": 2710,
      "daw": 2711,
      "tropa": 2712,
      "Es": 2713,
      "##tan": 2714,
      "##umb": 2715,
      "ginagamit": 2716,
      "##entral": 2717,
      "##uton": 2718,
      "Sang": 2719,
      "##ulan": 2720,
      "##igd": 2721,
      "bilog": 2722,
      "##siyon": 2723,
      "malak": 2724,
      "kaaway": 2725,
      "pareho": 2726,
      "##itong": 2727,
      "pagitan": 2728,
      "naton": 2729,
      "kor": 2730,
      "ina": 2731,
      "El": 2732,
      "mayro": 2733,
      "es": 2734,
      "nakat": 2735,
      "Pan": 2736,
      "##tes": 2737,
      "##ea": 2738,
      "##aluk": 2739,
      "nagal": 2740,
      "organisasyon": 2741,
      "##isip": 2742,
      "pol": 2743,
      "imperyal": 2744,
      "New": 2745,
      "##way": 2746,
      "##ihi": 2747,
      "##ibutan": 2748,
      "mundo": 2749,
      "##imula": 2750,
      "##alis": 2751,
      "##ikan": 2752,
      "Dis": 2753,
      "lik": 2754,
      "##ugan": 2755,
      "##idos": 2756,
      "##ugo": 2757,
      "##itang": 2758,
      "##ados": 2759,
      "nagak": 2760,
      "##dado": 2761,
      "bagay": 2762,
      "aton": 2763,
      "##erm": 2764,
      "Pad": 2765,
      "armadong": 2766,
      "##usan": 2767,
      "ilalim": 2768,
      "tinatawag": 2769,
      "##erd": 2770,
      "Eur": 2771,
      "nil": 2772,
      "##ilo": 2773,
      "kahubl": 2774,
      "pab": 2775,
      "kauga": 2776,
      "##bong": 2777,
      "##amay": 2778,
      "lin": 2779,
      "##aling": 2780,
      "Estados": 2781,
      "bangud": 2782,
      "Unidos": 2783,
      "##akig": 2784,
      "Kon": 2785,
      "bisan": 2786,
      "##pr": 2787,
      "##agon": 2788,
      "rehi": 2789,
      "##igdig": 2790,
      "sistema": 2791,
      "Sh": 2792,
      "pila": 2793,
      "##ulod": 2794,
      "Bat": 2795,
      "##utang": 2796,
      "11": 2797,
      "##esto": 2798,
      "san": 2799,
      "padayon": 2800,
      "it": 2801,
      "##akop": 2802,
      "isin": 2803,
      "dito": 2804,
      "##ill": 2805,
      "prob": 2806,
      "gawa": 2807,
      "apat": 2808,
      "##ake": 2809,
      "##abo": 2810,
      "buhay": 2811,
      "siyang": 2812,
      "##tern": 2813,
      "##uyo": 2814,
      "gina": 2815,
      "14": 2816,
      "ug": 2817,
      "pagka": 2818,
      "katulad": 2819,
      "Tr": 2820,
      "dal": 2821,
      "ginah": 2822,
      "##entro": 2823,
      "##lano": 2824,
      "##ilan": 2825,
      "##go": 2826,
      "##ark": 2827,
      "araw": 2828,
      "##ary": 2829,
      "##ayang": 2830,
      "##abot": 2831,
      "##ipag": 2832,
      "pangalan": 2833,
      "Or": 2834,
      "una": 2835,
      "II": 2836,
      "Europ": 2837,
      "ginh": 2838,
      "##abask": 2839,
      "##ikha": 2840,
      "##iktima": 2841,
      "kahublagan": 2842,
      "matuod": 2843,
      "Gr": 2844,
      "##ate": 2845,
      "gub": 2846,
      "ano": 2847,
      "bagong": 2848,
      "##uyang": 2849,
      "babae": 2850,
      "##bum": 2851,
      "##gy": 2852,
      "pangkat": 2853,
      "##oto": 2854,
      "##ubong": 2855,
      "##alam": 2856,
      "##ason": 2857,
      "lup": 2858,
      "##orta": 2859,
      "##ukoy": 2860,
      "kumpanya": 2861,
      "uri": 2862,
      "##ly": 2863,
      "##ena": 2864,
      "##alaking": 2865,
      "##adto": 2866,
      "##uring": 2867,
      "mataas": 2868,
      "imo": 2869,
      "##ti": 2870,
      "##uloy": 2871,
      "magb": 2872,
      "nagapang": 2873,
      "tubig": 2874,
      "##igo": 2875,
      "kabilang": 2876,
      "Sin": 2877,
      "##olo": 2878,
      "##osto": 2879,
      "##ubos": 2880,
      "62": 2881,
      "##upod": 2882,
      "Nak": 2883,
      "##ism": 2884,
      "##alain": 2885,
      "##ela": 2886,
      "kapital": 2887,
      "en": 2888,
      "os": 2889,
      "##port": 2890,
      "kada": 2891,
      "##ork": 2892,
      "ginb": 2893,
      "##ubuo": 2894,
      "kasaysayan": 2895,
      "So": 2896,
      "Marso": 2897,
      "##ultura": 2898,
      "aaral": 2899,
      "mod": 2900,
      "nagab": 2901,
      "lib": 2902,
      "##aban": 2903,
      "13": 2904,
      "##adl": 2905,
      "panl": 2906,
      "##lingon": 2907,
      "kuno": 2908,
      "##ril": 2909,
      "##ipunan": 2910,
      "itong": 2911,
      "us": 2912,
      "##ron": 2913,
      "##ack": 2914,
      "Hin": 2915,
      "siglo": 2916,
      "Apang": 2917,
      "pis": 2918,
      "##cc": 2919,
      "##ice": 2920,
      "Gu": 2921,
      "biktima": 2922,
      "Kar": 2923,
      "kaga": 2924,
      "Pro": 2925,
      "##ungk": 2926,
      "daku": 2927,
      "pop": 2928,
      "halos": 2929,
      "pun": 2930,
      "apang": 2931,
      "gins": 2932,
      "##imbawa": 2933,
      "##imog": 2934,
      "nal": 2935,
      "album": 2936,
      "rehiyon": 2937,
      "##arangan": 2938,
      "##ibers": 2939,
      "Le": 2940,
      "##ow": 2941,
      "karaniwang": 2942,
      "Nang": 2943,
      "lalaki": 2944,
      "##tub": 2945,
      "maging": 2946,
      "ins": 2947,
      "Pe": 2948,
      "kaw": 2949,
      "##ahalaan": 2950,
      "PN": 2951,
      "##ingk": 2952,
      "ginat": 2953,
      "reak": 2954,
      "30": 2955,
      "##puan": 2956,
      "China": 2957,
      "##anggap": 2958,
      "##land": 2959,
      "progr": 2960,
      "Mat": 2961,
      "pagpan": 2962,
      "##uwal": 2963,
      "pumuluyong": 2964,
      "kaya": 2965,
      "nagligad": 2966,
      "mus": 2967,
      "sand": 2968,
      "##lad": 2969,
      "pil": 2970,
      "##amihan": 2971,
      "kaugalingon": 2972,
      "Ik": 2973,
      "Ad": 2974,
      "National": 2975,
      "im": 2976,
      "##alum": 2977,
      "Mayo": 2978,
      "tatlong": 2979,
      "tig": 2980,
      "##lon": 2981,
      "##qu": 2982,
      "nagat": 2983,
      "asawa": 2984,
      "Huk": 2985,
      "ep": 2986,
      "kun": 2987,
      "##hon": 2988,
      "des": 2989,
      "194": 2990,
      "##angyar": 2991,
      "##angg": 2992,
      "komunidad": 2993,
      "##luw": 2994,
      "PNP": 2995,
      "##hang": 2996,
      "bala": 2997,
      "##eksyon": 2998,
      "196": 2999,
      "lap": 3000,
      "Car": 3001,
      "bug": 3002,
      "##tal": 3003,
      "##ert": 3004,
      "Pal": 3005,
      "pagpas": 3006,
      "bago": 3007,
      "dekada": 3008,
      "##himo": 3009,
      "base": 3010,
      "paggamit": 3011,
      "##urang": 3012,
      "##igos": 3013,
      "##ebr": 3014,
      "##yunal": 3015,
      "Sityo": 3016,
      "##ulta": 3017,
      "Kor": 3018,
      "##ban": 3019,
      "masang": 3020,
      "##ulog": 3021,
      "upod": 3022,
      "proy": 3023,
      "##ham": 3024,
      "62nd": 3025,
      "Ok": 3026,
      "interes": 3027,
      "law": 3028,
      "##oon": 3029,
      "##ulasyon": 3030,
      "##uri": 3031,
      "presyo": 3032,
      "Bagong": 3033,
      "##ahong": 3034,
      "ger": 3035,
      "##ahum": 3036,
      "ob": 3037,
      "niyang": 3038,
      "magt": 3039,
      "##ive": 3040,
      "sibilyan": 3041,
      "por": 3042,
      "pand": 3043,
      "inaway": 3044,
      "Bayan": 3045,
      "liwat": 3046,
      "kinahanglan": 3047,
      "pungsodnon": 3048,
      "Brgy": 3049,
      "##alaman": 3050,
      "##ond": 3051,
      "##awagan": 3052,
      "pakik": 3053,
      "sulod": 3054,
      "Par": 3055,
      "##ess": 3056,
      "Disyembre": 3057,
      "##ulugan": 3058,
      "Ginp": 3059,
      "Enero": 3060,
      "bur": 3061,
      "##ie": 3062,
      "##ugay": 3063,
      "Kan": 3064,
      "Pulang": 3065,
      "isla": 3066,
      "##ira": 3067,
      "##ekl": 3068,
      "labi": 3069,
      "##uyag": 3070,
      "Kag": 3071,
      "pagm": 3072,
      "simb": 3073,
      "gind": 3074,
      "##ukan": 3075,
      "##umd": 3076,
      "##eso": 3077,
      "##ement": 3078,
      "naka": 3079,
      "pum": 3080,
      "partik": 3081,
      "makab": 3082,
      "art": 3083,
      "matapos": 3084,
      "kabuhi": 3085,
      "kus": 3086,
      "Philippines": 3087,
      "gani": 3088,
      "##igma": 3089,
      "malapad": 3090,
      "For": 3091,
      "sos": 3092,
      "##ahal": 3093,
      "tun": 3094,
      "##if": 3095,
      "##pe": 3096,
      "sining": 3097,
      "##ensiya": 3098,
      "St": 3099,
      "com": 3100,
      "sol": 3101,
      "##lang": 3102,
      "nagad": 3103,
      "parehong": 3104,
      "##asal": 3105,
      "##ahayag": 3106,
      "##aron": 3107,
      "##ugot": 3108,
      "sadto": 3109,
      "magh": 3110,
      "opisyal": 3111,
      "##insip": 3112,
      "##zon": 3113,
      "##apin": 3114,
      "##ikuton": 3115,
      "Agosto": 3116,
      "Jr": 3117,
      "Min": 3118,
      "trabaho": 3119,
      "Abril": 3120,
      "##iwala": 3121,
      "suldado": 3122,
      "De": 3123,
      "Rep": 3124,
      "Hun": 3125,
      "lay": 3126,
      "makat": 3127,
      "##anganak": 3128,
      "##ibigay": 3129,
      "pelikula": 3130,
      "huk": 3131,
      "pagtat": 3132,
      "tatlo": 3133,
      "Krist": 3134,
      "##atagan": 3135,
      "##isis": 3136,
      "##sik": 3137,
      "##unga": 3138,
      "##tangan": 3139,
      "pulis": 3140,
      "Pagkatapos": 3141,
      "hilikuton": 3142,
      "Na": 3143,
      "Kab": 3144,
      "malapit": 3145,
      "##testa": 3146,
      "La": 3147,
      "him": 3148,
      "bawat": 3149,
      "kina": 3150,
      "##war": 3151,
      "##alagang": 3152,
      "Hapon": 3153,
      "Re": 3154,
      "##uang": 3155,
      "ginak": 3156,
      "##ambit": 3157,
      "nangin": 3158,
      "oras": 3159,
      "##ikano": 3160,
      "gerilya": 3161,
      "##emang": 3162,
      "pangkal": 3163,
      "##itor": 3164,
      "##ell": 3165,
      "##akip": 3166,
      "kahim": 3167,
      "kamat": 3168,
      "Hunyo": 3169,
      "##usa": 3170,
      "##omba": 3171,
      "##nan": 3172,
      "lain": 3173,
      "##ish": 3174,
      "##abing": 3175,
      "bar": 3176,
      "sery": 3177,
      "muling": 3178,
      "pagiging": 3179,
      "kanya": 3180,
      "teror": 3181,
      "Ban": 3182,
      "##ega": 3183,
      "##ilangang": 3184,
      "ah": 3185,
      "##abuh": 3186,
      "higit": 3187,
      "kasaluk": 3188,
      "##stit": 3189,
      "wikang": 3190,
      "atake": 3191,
      "ayon": 3192,
      "Con": 3193,
      "Nob": 3194,
      "Pas": 3195,
      "untat": 3196,
      "mangga": 3197,
      "aktib": 3198,
      "##hin": 3199,
      "pamb": 3200,
      "##ebrero": 3201,
      "Kristiy": 3202,
      "Hal": 3203,
      "##etro": 3204,
      "pagbab": 3205,
      "Tsina": 3206,
      "Bilang": 3207,
      "gih": 3208,
      "krim": 3209,
      "Pebrero": 3210,
      "dalag": 3211,
      "##yat": 3212,
      "panahong": 3213,
      "pasistang": 3214,
      "Hul": 3215,
      "##iyo": 3216,
      "##lunsar": 3217,
      "##ilidad": 3218,
      "##eks": 3219,
      "21": 3220,
      "##ff": 3221,
      "##angh": 3222,
      "laban": 3223,
      "teor": 3224,
      "Ta": 3225,
      "da": 3226,
      "##ondo": 3227,
      "bayan": 3228,
      "Ak": 3229,
      "gan": 3230,
      "##abilin": 3231,
      "nagpap": 3232,
      "dum": 3233,
      "##ipon": 3234,
      "##andaigdig": 3235,
      "mayroong": 3236,
      "tan": 3237,
      "tal": 3238,
      "Mal": 3239,
      "kapangyar": 3240,
      "karamihan": 3241,
      "pangm": 3242,
      "##ight": 3243,
      "eng": 3244,
      "hay": 3245,
      "##dan": 3246,
      "##ihak": 3247,
      "malaking": 3248,
      "probl": 3249,
      "##agaman": 3250,
      "##egos": 3251,
      "tungod": 3252,
      "dep": 3253,
      "##aagi": 3254,
      "##ge": 3255,
      "katapo": 3256,
      "At": 3257,
      "tuman": 3258,
      "nakap": 3259,
      "##irang": 3260,
      "##eho": 3261,
      "##alitan": 3262,
      "idalom": 3263,
      "dating": 3264,
      "##tion": 3265,
      "##weldo": 3266,
      "##tubre": 3267,
      "sik": 3268,
      "eduk": 3269,
      "ara": 3270,
      "tagapag": 3271,
      "Kap": 3272,
      "trad": 3273,
      "programa": 3274,
      "Pam": 3275,
      "Samtang": 3276,
      "Oktubre": 3277,
      "##ou": 3278,
      "##itn": 3279,
      "ide": 3280,
      "##umpay": 3281,
      "bulan": 3282,
      "South": 3283,
      "Jos": 3284,
      "dat": 3285,
      "krisis": 3286,
      "tawhan": 3287,
      "##ahi": 3288,
      "nakak": 3289,
      "195": 3290,
      "pinaka": 3291,
      "Mak": 3292,
      "##son": 3293,
      "##anta": 3294,
      "##ahe": 3295,
      "pihak": 3296,
      "residente": 3297,
      "larangan": 3298,
      "##ibal": 3299,
      "ch": 3300,
      "huling": 3301,
      "##ook": 3302,
      "milyon": 3303,
      "gubyerno": 3304,
      "proyekto": 3305,
      "pamahalaan": 3306,
      "Ed": 3307,
      "dugang": 3308,
      "##ugnay": 3309,
      "lim": 3310,
      "##ward": 3311,
      "##ez": 3312,
      "makap": 3313,
      "##inasyon": 3314,
      "pasista": 3315,
      "tawo": 3316,
      "daan": 3317,
      "##ber": 3318,
      "##wag": 3319,
      "gihapon": 3320,
      "pros": 3321,
      "Occ": 3322,
      "hen": 3323,
      "sweldo": 3324,
      "##yudad": 3325,
      "##edi": 3326,
      "ilabi": 3327,
      "kababa": 3328,
      "intern": 3329,
      "pl": 3330,
      "##akit": 3331,
      "Nobyembre": 3332,
      "##ono": 3333,
      "lawas": 3334,
      "##isyong": 3335,
      "##umhan": 3336,
      "Nagp": 3337,
      "Ale": 3338,
      "Dahil": 3339,
      "##lam": 3340,
      "##co": 3341,
      "##idental": 3342,
      "##atagpuan": 3343,
      "serb": 3344,
      "##amatay": 3345,
      "Il": 3346,
      "to": 3347,
      "nad": 3348,
      "##abaskog": 3349,
      "##abuhian": 3350,
      "gink": 3351,
      "Mus": 3352,
      "dumulu": 3353,
      "25": 3354,
      "del": 3355,
      "##ulay": 3356,
      "##ikasyon": 3357,
      "salitang": 3358,
      "Occidental": 3359,
      "pero": 3360,
      "##unggan": 3361,
      "dr": 3362,
      "st": 3363,
      "##ider": 3364,
      "##taas": 3365,
      "kapag": 3366,
      "nagkalain": 3367,
      "##unuan": 3368,
      "Prans": 3369,
      "Hulyo": 3370,
      "##danan": 3371,
      "armas": 3372,
      "kundi": 3373,
      "##hip": 3374,
      "##igal": 3375,
      "kahimtangan": 3376,
      "Tin": 3377,
      "iyon": 3378,
      "##luran": 3379,
      "mangin": 3380,
      "##arya": 3381,
      "##ople": 3382,
      "##ces": 3383,
      "madamo": 3384,
      "ekonomiya": 3385,
      "simbahan": 3386,
      "partikular": 3387,
      "buh": 3388,
      "##api": 3389,
      "sem": 3390,
      "ngayon": 3391,
      "dumuluong": 3392,
      "mon": 3393,
      "nina": 3394,
      "negos": 3395,
      "##ao": 3396,
      "##umang": 3397,
      "##enta": 3398,
      "batas": 3399,
      "barangay": 3400,
      "kur": 3401,
      "##isang": 3402,
      "pangang": 3403,
      "pagsas": 3404,
      "Col": 3405,
      "Imper": 3406,
      "##ry": 3407,
      "##tra": 3408,
      "komp": 3409,
      "for": 3410,
      "buk": 3411,
      "##atili": 3412,
      "lubos": 3413,
      "plano": 3414,
      "det": 3415,
      "##nagon": 3416,
      "##uturing": 3417,
      "Co": 3418,
      "##ibot": 3419,
      "Ini": 3420,
      "prop": 3421,
      "Ac": 3422,
      "##yer": 3423,
      "##akan": 3424,
      "uma": 3425,
      "##bal": 3426,
      "##able": 3427,
      "##san": 3428,
      "##ayong": 3429,
      "##isya": 3430,
      "##tod": 3431,
      "halimbawa": 3432,
      "##igmaang": 3433,
      "tel": 3434,
      "##ulitika": 3435,
      "##ural": 3436,
      "nasambit": 3437,
      "industr": 3438,
      "demokratiko": 3439,
      "problema": 3440,
      "Kah": 3441,
      "##kw": 3442,
      "pagpatay": 3443,
      "##iwa": 3444,
      "Ayon": 3445,
      "Mab": 3446,
      "##abe": 3447,
      "##ibid": 3448,
      "##utukoy": 3449,
      "##ensiba": 3450,
      "##yet": 3451,
      "##agaw": 3452,
      "##uti": 3453,
      "##ugod": 3454,
      "Philippine": 3455,
      "##awang": 3456,
      "##idto": 3457,
      "kuw": 3458,
      "katang": 3459,
      "rehimeng": 3460,
      "edad": 3461,
      "demokratikong": 3462,
      "##tas": 3463,
      "##ical": 3464,
      "##along": 3465,
      "##erson": 3466,
      "Ano": 3467,
      "klas": 3468,
      "##atid": 3469,
      "##araan": 3470,
      "##enyo": 3471,
      "##uson": 3472,
      "nakik": 3473,
      "##inong": 3474,
      "makas": 3475,
      "seks": 3476,
      "##adala": 3477,
      "agr": 3478,
      "Amerikano": 3479,
      "hand": 3480,
      "##truk": 3481,
      "Nags": 3482,
      "##ungod": 3483,
      "pagpat": 3484,
      "pinam": 3485,
      "masobra": 3486,
      "katawan": 3487,
      "br": 3488,
      "pati": 3489,
      "##ubliko": 3490,
      "Kin": 3491,
      "Ind": 3492,
      "Nagk": 3493,
      "anim": 3494,
      "Army": 3495,
      "gob": 3496,
      "##ebel": 3497,
      "Command": 3498,
      "##adayon": 3499,
      "isip": 3500,
      "malawak": 3501,
      "kusog": 3502,
      "##enteng": 3503,
      "Di": 3504,
      "Para": 3505,
      "Pat": 3506,
      "baryo": 3507,
      "gil": 3508,
      "##ingg": 3509,
      "Hukbong": 3510,
      "eksp": 3511,
      "sarili": 3512,
      "imb": 3513,
      "##uya": 3514,
      "gy": 3515,
      "##iwalay": 3516,
      "##ivers": 3517,
      "##ormal": 3518,
      "sistemang": 3519,
      "##mperador": 3520,
      "kaang": 3521,
      "##eman": 3522,
      "prinsip": 3523,
      "##igayon": 3524,
      "nangang": 3525,
      "tungkol": 3526,
      "Romano": 3527,
      "kump": 3528,
      "Hil": 3529,
      "Nap": 3530,
      "##iit": 3531,
      "##iniwala": 3532,
      "2023": 3533,
      "med": 3534,
      "paraan": 3535,
      "##ender": 3536,
      "populasyon": 3537,
      "lit": 3538,
      "kami": 3539,
      "Daw": 3540,
      "##ric": 3541,
      "##PC": 3542,
      "sabat": 3543,
      "Mon": 3544,
      "BC": 3545,
      "##elo": 3546,
      "##rael": 3547,
      "Bin": 3548,
      "Fran": 3549,
      "bak": 3550,
      "wika": 3551,
      "yara": 3552,
      "##undan": 3553,
      "patak": 3554,
      "Isang": 3555,
      "Israel": 3556,
      "porma": 3557,
      "edukasyon": 3558,
      "##aralan": 3559,
      "##tos": 3560,
      "193": 3561,
      "bilyon": 3562,
      "##ure": 3563,
      "Republ": 3564,
      "sobra": 3565,
      "pangp": 3566,
      "aresto": 3567,
      "##ataas": 3568,
      "ginas": 3569,
      "Intern": 3570,
      "papel": 3571,
      "diyos": 3572,
      "##alip": 3573,
      "Nat": 3574,
      "Simb": 3575,
      "armado": 3576,
      "kapangyarihan": 3577,
      "##ulungan": 3578,
      "eks": 3579,
      "serbisyo": 3580,
      "gaya": 3581,
      "napatay": 3582,
      "Cor": 3583,
      "Central": 3584,
      "##mat": 3585,
      "##syun": 3586,
      "##anging": 3587,
      "anay": 3588,
      "binubuo": 3589,
      "##ock": 3590,
      "##arap": 3591,
      "##trat": 3592,
      "trans": 3593,
      "milyong": 3594,
      "People": 3595,
      "Don": 3596,
      "ong": 3597,
      "tit": 3598,
      "indibid": 3599,
      "tawhanon": 3600,
      "kampanya": 3601,
      "takt": 3602,
      "##alabas": 3603,
      "naw": 3604,
      "##ulos": 3605,
      "##iban": 3606,
      "##andang": 3607,
      "##yante": 3608,
      "anyo": 3609,
      "##intas": 3610,
      "Manila": 3611,
      "Hindi": 3612,
      "gam": 3613,
      "##awo": 3614,
      "Aleman": 3615,
      "direk": 3616,
      "Europa": 3617,
      "gahum": 3618,
      "siy": 3619,
      "pinakamat": 3620,
      "##alarawan": 3621,
      "##se": 3622,
      "puw": 3623,
      "kapitalista": 3624,
      "ring": 3625,
      "##ne": 3626,
      "##uot": 3627,
      "##igm": 3628,
      "##ibang": 3629,
      "##rop": 3630,
      "kahil": 3631,
      "opensiba": 3632,
      "100": 3633,
      "bes": 3634,
      "buw": 3635,
      "babay": 3636,
      "lebel": 3637,
      "kaupod": 3638,
      "##yu": 3639,
      "##unta": 3640,
      "reaksyun": 3641,
      "Bas": 3642,
      "bangk": 3643,
      "##lor": 3644,
      "##ihang": 3645,
      "nakita": 3646,
      "ekonomya": 3647,
      "paga": 3648,
      "##ilb": 3649,
      "gab": 3650,
      "pagkab": 3651,
      "maka": 3652,
      "##iwanag": 3653,
      "Ap": 3654,
      "dugo": 3655,
      "##ungo": 3656,
      "Mac": 3657,
      "2022": 3658,
      "produksyon": 3659,
      "##ret": 3660,
      "##ernong": 3661,
      "kala": 3662,
      "ting": 3663,
      "##her": 3664,
      "##ye": 3665,
      "##upad": 3666,
      "##ismong": 3667,
      "int": 3668,
      "magn": 3669,
      "##yente": 3670,
      "maayo": 3671,
      "gyera": 3672,
      "lima": 3673,
      "##iyeg": 3674,
      "Pol": 3675,
      "##sin": 3676,
      "##de": 3677,
      "kapatid": 3678,
      "subalit": 3679,
      "##ormasyon": 3680,
      "per": 3681,
      "produkto": 3682,
      "berd": 3683,
      "dagat": 3684,
      "sab": 3685,
      "nakas": 3686,
      "##ace": 3687,
      "suporta": 3688,
      "ding": 3689,
      "pinuno": 3690,
      "kahit": 3691,
      "##yudal": 3692,
      "Griyeg": 3693,
      "##asig": 3694,
      "##kwentro": 3695,
      "##udi": 3696,
      "pagkaka": 3697,
      "2020": 3698,
      "Kad": 3699,
      "syudad": 3700,
      "Set": 3701,
      "uga": 3702,
      "##kas": 3703,
      "##asang": 3704,
      "ark": 3705,
      "kabat": 3706,
      "Mayn": 3707,
      "Cal": 3708,
      "Ital": 3709,
      "ND": 3710,
      "##illa": 3711,
      "##ence": 3712,
      "##cho": 3713,
      "Japan": 3714,
      "mismo": 3715,
      "##aganap": 3716,
      "protesta": 3717,
      "##alakay": 3718,
      "Mo": 3719,
      "ama": 3720,
      "sahi": 3721,
      "##usunod": 3722,
      "pagbato": 3723,
      "Komun": 3724,
      "##yos": 3725,
      "magd": 3726,
      "kalibutan": 3727,
      "##hiyang": 3728,
      "Dem": 3729,
      "Pa": 3730,
      "rep": 3731,
      "##ihinal": 3732,
      "##bato": 3733,
      "serye": 3734,
      "gas": 3735,
      "matatagpuan": 3736,
      "aklat": 3737,
      "##iano": 3738,
      "##ongres": 3739,
      "lapnagon": 3740,
      "pondo": 3741,
      "22": 3742,
      "Ipin": 3743,
      "palang": 3744,
      "##ulok": 3745,
      "pagtuon": 3746,
      "##unting": 3747,
      "term": 3748,
      "##rasya": 3749,
      "##ible": 3750,
      "##alana": 3751,
      "sakop": 3752,
      "Can": 3753,
      "##usang": 3754,
      "##agad": 3755,
      "##uba": 3756,
      "##ibig": 3757,
      "##emya": 3758,
      "##trabaho": 3759,
      "espes": 3760,
      "Maynila": 3761,
      "Digmaang": 3762,
      "##wayan": 3763,
      "paano": 3764,
      "import": 3765,
      "Sup": 3766,
      "amon": 3767,
      "##osop": 3768,
      "iloy": 3769,
      "dok": 3770,
      "##paman": 3771,
      "##ask": 3772,
      "##amd": 3773,
      "##olog": 3774,
      "Dav": 3775,
      "##ign": 3776,
      "agham": 3777,
      "##ustisya": 3778,
      "23": 3779,
      "Juan": 3780,
      "Kal": 3781,
      "##ipat": 3782,
      "nagkaroon": 3783,
      "gobyerno": 3784,
      "lider": 3785,
      "ne": 3786,
      "tek": 3787,
      "Award": 3788,
      "Cl": 3789,
      "##ood": 3790,
      "##oro": 3791,
      "Katol": 3792,
      "manun": 3793,
      "Univers": 3794,
      "Mind": 3795,
      "didto": 3796,
      "sh": 3797,
      "##ies": 3798,
      "##der": 3799,
      "##anao": 3800,
      "##alapit": 3801,
      "Mah": 3802,
      "siling": 3803,
      "##rap": 3804,
      "##ayunpaman": 3805,
      "ok": 3806,
      "##iss": 3807,
      "makita": 3808,
      "26": 3809,
      "##ous": 3810,
      "##ektr": 3811,
      "pamaagi": 3812,
      "sityo": 3813,
      "##hen": 3814,
      "##unong": 3815,
      "##pany": 3816,
      "Jo": 3817,
      "kasalukuyang": 3818,
      "Ni": 3819,
      "tem": 3820,
      "##rip": 3821,
      "##ola": 3822,
      "Nagt": 3823,
      "kahilwayan": 3824,
      "ginamit": 3825,
      "kaumhan": 3826,
      "ginpatay": 3827,
      "And": 3828,
      "Ilo": 3829,
      "amb": 3830,
      "sil": 3831,
      "sunod": 3832,
      "##alidad": 3833,
      "##asyunal": 3834,
      "##itaw": 3835,
      "away": 3836,
      "##adlok": 3837,
      "beses": 3838,
      "Bang": 3839,
      "##yado": 3840,
      "##uron": 3841,
      "engkwentro": 3842,
      "hayop": 3843,
      "kabataan": 3844,
      "Te": 3845,
      "ulo": 3846,
      "##iro": 3847,
      "##ño": 3848,
      "##adtong": 3849,
      "##abuhi": 3850,
      "ginawa": 3851,
      "nagsimula": 3852,
      "sakit": 3853,
      "layi": 3854,
      "Kast": 3855,
      "##dang": 3856,
      "##ander": 3857,
      "Papa": 3858,
      "##ris": 3859,
      "ibin": 3860,
      "mata": 3861,
      "paghulag": 3862,
      "##igmaan": 3863,
      "ex": 3864,
      "##apit": 3865,
      "##orya": 3866,
      "ginad": 3867,
      "##uda": 3868,
      "kahulugan": 3869,
      "Nga": 3870,
      "sel": 3871,
      "##ibersidad": 3872,
      "##ingki": 3873,
      "Sp": 3874,
      "##lin": 3875,
      "##ardo": 3876,
      "##usay": 3877,
      "awit": 3878,
      "94": 3879,
      "Diyos": 3880,
      "##gin": 3881,
      "##ore": 3882,
      "nagm": 3883,
      "linya": 3884,
      "tunay": 3885,
      "proseso": 3886,
      "patakaran": 3887,
      "Pandaigdig": 3888,
      "##ius": 3889,
      "##uyan": 3890,
      "##que": 3891,
      "paglapas": 3892,
      "##awi": 3893,
      "##eta": 3894,
      "balat": 3895,
      "##agsak": 3896,
      "##ting": 3897,
      "##irm": 3898,
      "191": 3899,
      "padulong": 3900,
      "Imperyong": 3901,
      "##ene": 3902,
      "##irahan": 3903,
      "pamum": 3904,
      "maliit": 3905,
      "lupa": 3906,
      "Setyembre": 3907,
      "Lib": 3908,
      "husto": 3909,
      "##yn": 3910,
      "##uporta": 3911,
      "pahayag": 3912,
      "krimen": 3913,
      "Que": 3914,
      "magl": 3915,
      "192": 3916,
      "kadalag": 3917,
      "Mao": 3918,
      "Hes": 3919,
      "sp": 3920,
      "##esis": 3921,
      "##yano": 3922,
      "upisyal": 3923,
      "Rus": 3924,
      "Th": 3925,
      "##wang": 3926,
      "##ulit": 3927,
      "##esa": 3928,
      "##emento": 3929,
      "nakab": 3930,
      "orihinal": 3931,
      "esk": 3932,
      "Jose": 3933,
      "##ngan": 3934,
      "##ibalo": 3935,
      "pagpa": 3936,
      "Bal": 3937,
      "##mitan": 3938,
      "##va": 3939,
      "kamot": 3940,
      "pakikipag": 3941,
      "##ese": 3942,
      "##trol": 3943,
      "sosyal": 3944,
      "##itnang": 3945,
      "gilayon": 3946,
      "##amu": 3947,
      "pagsus": 3948,
      "indibidwal": 3949,
      "24": 3950,
      "person": 3951,
      "##iyon": 3952,
      "##agu": 3953,
      "pagtukod": 3954,
      "Timog": 3955,
      "##apang": 3956,
      "##tok": 3957,
      "##ost": 3958,
      "##ide": 3959,
      "pagsulong": 3960,
      "Bisan": 3961,
      "Pero": 3962,
      "##TF": 3963,
      "##ando": 3964,
      "2021": 3965,
      "Austr": 3966,
      "##has": 3967,
      "##ubay": 3968,
      "##urender": 3969,
      "nakal": 3970,
      "prib": 3971,
      "alas": 3972,
      "pinakamalaking": 3973,
      "suk": 3974,
      "tiy": 3975,
      "##atin": 3976,
      "##oran": 3977,
      "##alawigan": 3978,
      "dalan": 3979,
      "pinang": 3980,
      "##insya": 3981,
      "ulihi": 3982,
      "##atlong": 3983,
      "antas": 3984,
      "##ektibo": 3985,
      "sinaunang": 3986,
      "Komunista": 3987,
      "₱1": 3988,
      "##egur": 3989,
      "terorismo": 3990,
      "Bud": 3991,
      "Emperador": 3992,
      "##uel": 3993,
      "##arg": 3994,
      "ginab": 3995,
      "pangh": 3996,
      "##ambalan": 3997,
      "Ros": 3998,
      "##age": 3999,
      "salita": 4000,
      "pagpamigos": 4001,
      "##alasang": 4002,
      "##olohiyang": 4003,
      "dikt": 4004,
      "##iang": 4005,
      "##akilala": 4006,
      "kontrol": 4007,
      "Dr": 4008,
      "hustisya": 4009,
      "ih": 4010,
      "tuk": 4011,
      "##arong": 4012,
      "anumang": 4013,
      "pamat": 4014,
      "paaralan": 4015,
      "madalas": 4016,
      "pangkalahat": 4017,
      "Da": 4018,
      "Ori": 4019,
      "Sum": 4020,
      "puno": 4021,
      "##uin": 4022,
      "##ihin": 4023,
      "##antay": 4024,
      "##iyal": 4025,
      "sumunod": 4026,
      "Ra": 4027,
      "he": 4028,
      "utang": 4029,
      "##agm": 4030,
      "karapat": 4031,
      "sektor": 4032,
      "##stitusyon": 4033,
      "pagbabago": 4034,
      "Lu": 4035,
      "##onya": 4036,
      "##yagan": 4037,
      "materyal": 4038,
      "##mple": 4039,
      "teritor": 4040,
      "katangian": 4041,
      "babaye": 4042,
      "##lim": 4043,
      "##ck": 4044,
      "##anong": 4045,
      "##init": 4046,
      "##uslan": 4047,
      "##ime": 4048,
      "##emat": 4049,
      "pant": 4050,
      "labing": 4051,
      "elektr": 4052,
      "Oriental": 4053,
      "rad": 4054,
      "rek": 4055,
      "##ich": 4056,
      "BCE": 4057,
      "Him": 4058,
      "##our": 4059,
      "Gins": 4060,
      "##insan": 4061,
      "##uyod": 4062,
      "elemento": 4063,
      "nin": 4064,
      "##wn": 4065,
      "##ver": 4066,
      "##yay": 4067,
      "##all": 4068,
      "##abib": 4069,
      "pangalang": 4070,
      "kand": 4071,
      "ari": 4072,
      "##ebisyon": 4073,
      "Dep": 4074,
      "##hing": 4075,
      "##itiko": 4076,
      "##ica": 4077,
      "matag": 4078,
      "##aki": 4079,
      "##ulig": 4080,
      "##ugong": 4081,
      "50": 4082,
      "banda": 4083,
      "##onyal": 4084,
      "sinas": 4085,
      "makah": 4086,
      "namatay": 4087,
      "Kasaysayan": 4088,
      "Bl": 4089,
      "nar": 4090,
      "simula": 4091,
      "itinatag": 4092,
      "pagkaon": 4093,
      "kamatayan": 4094,
      "Kristiyano": 4095,
      "##itikal": 4096,
      "##ganap": 4097,
      "organis": 4098,
      "ipinanganak": 4099,
      "Gayunpaman": 4100,
      "Kung": 4101,
      "PK": 4102,
      "con": 4103,
      "timog": 4104,
      "##aging": 4105,
      "##akam": 4106,
      "##unlad": 4107,
      "Maria": 4108,
      "Gint": 4109,
      "mayroon": 4110,
      "##chool": 4111,
      "pet": 4112,
      "##za": 4113,
      "ist": 4114,
      "pilosop": 4115,
      "la": 4116,
      "ya": 4117,
      "##erh": 4118,
      "##uhon": 4119,
      "##orth": 4120,
      "pwers": 4121,
      "Padayon": 4122,
      "Lum": 4123,
      "Sur": 4124,
      "##ci": 4125,
      "##arar": 4126,
      "##oso": 4127,
      "##uhang": 4128,
      "##ihul": 4129,
      "Malay": 4130,
      "NTF": 4131,
      "bansang": 4132,
      "##ati": 4133,
      "nagmula": 4134,
      "mahimo": 4135,
      "kakay": 4136,
      "##ihiyon": 4137,
      "kampo": 4138,
      "pagpamuno": 4139,
      "pandemya": 4140,
      "University": 4141,
      "##ld": 4142,
      "##wit": 4143,
      "inyo": 4144,
      "##digan": 4145,
      "pamatan": 4146,
      "reg": 4147,
      "agalon": 4148,
      "##agdag": 4149,
      "29": 4150,
      "##umento": 4151,
      "ugn": 4152,
      "Hilagang": 4153,
      "Gre": 4154,
      "Lor": 4155,
      "nitong": 4156,
      "sentro": 4157,
      "##isina": 4158,
      "##abil": 4159,
      "##enn": 4160,
      "kabahin": 4161,
      "##ulangan": 4162,
      "industriya": 4163,
      "tekn": 4164,
      "Kastila": 4165,
      "Os": 4166,
      "##kat": 4167,
      "##inhan": 4168,
      "##omb": 4169,
      "##uwas": 4170,
      "##ihulngan": 4171,
      "Gen": 4172,
      "eb": 4173,
      "no": 4174,
      "##abon": 4175,
      "hukbo": 4176,
      "Pamb": 4177,
      "Sadtong": 4178,
      "##akilang": 4179,
      "kasapi": 4180,
      "Mario": 4181,
      "##ept": 4182,
      "nagapanguna": 4183,
      "Guihulngan": 4184,
      "kagamitan": 4185,
      "28": 4186,
      "Be": 4187,
      "Joh": 4188,
      "Sy": 4189,
      "##ges": 4190,
      "ibabaw": 4191,
      "##iyahan": 4192,
      "korap": 4193,
      "Padre": 4194,
      "buwan": 4195,
      "gera": 4196,
      "##istro": 4197,
      "paglunsar": 4198,
      "##ahati": 4199,
      "itinuturing": 4200,
      "seksuwal": 4201,
      "##abibilangan": 4202,
      "##entr": 4203,
      "ikas": 4204,
      "imperyalistang": 4205,
      "punong": 4206,
      "International": 4207,
      "hambal": 4208,
      "##yaw": 4209,
      "##orte": 4210,
      "Korea": 4211,
      "agrik": 4212,
      "He": 4213,
      "PA": 4214,
      "estud": 4215,
      "Roma": 4216,
      "gusto": 4217,
      "laro": 4218,
      "##ugt": 4219,
      "##iral": 4220,
      "Espanya": 4221,
      "27": 4222,
      "##rd": 4223,
      "##idyo": 4224,
      "ipinag": 4225,
      "ekt": 4226,
      "Ro": 4227,
      "##pi": 4228,
      "batok": 4229,
      "demokrasya": 4230,
      "Ehip": 4231,
      "##ome": 4232,
      "##lain": 4233,
      "##athala": 4234,
      "gawain": 4235,
      "Quezon": 4236,
      "bagaman": 4237,
      "hit": 4238,
      "tikang": 4239,
      "##isiya": 4240,
      "Unang": 4241,
      "##angkot": 4242,
      "nagbibigay": 4243,
      "modernong": 4244,
      "John": 4245,
      "Cr": 4246,
      "Sub": 4247,
      "gus": 4248,
      "num": 4249,
      "##ulugang": 4250,
      "##ipl": 4251,
      "##ukl": 4252,
      "##ukas": 4253,
      "nakapag": 4254,
      "##ick": 4255,
      "idalum": 4256,
      "##utom": 4257,
      "sanday": 4258,
      "94th": 4259,
      "##yahan": 4260,
      "##ideo": 4261,
      "ilan": 4262,
      "katung": 4263,
      "##edad": 4264,
      "ikaw": 4265,
      "pelikulang": 4266,
      "semana": 4267,
      "North": 4268,
      "layun": 4269,
      "##CA": 4270,
      "##ibigan": 4271,
      "##ograp": 4272,
      "##athag": 4273,
      "epekto": 4274,
      "et": 4275,
      "##NG": 4276,
      "##ited": 4277,
      "##ors": 4278,
      "pagpakig": 4279,
      "##eke": 4280,
      "agod": 4281,
      "impluw": 4282,
      "negosyo": 4283,
      "##alita": 4284,
      "##ilyon": 4285,
      "mais": 4286,
      "musika": 4287,
      "CA": 4288,
      "muli": 4289,
      "##alaan": 4290,
      "kaysa": 4291,
      "##artir": 4292,
      "Mayro": 4293,
      "189": 4294,
      "nagtat": 4295,
      "limang": 4296,
      "lakip": 4297,
      "##ys": 4298,
      "##alawig": 4299,
      "Amerika": 4300,
      "Batas": 4301,
      "kinahanglanon": 4302,
      "er": 4303,
      "##ua": 4304,
      "##arungan": 4305,
      "##erasyon": 4306,
      "kabu": 4307,
      "##iyemb": 4308,
      "##ongreso": 4309,
      "Mindanao": 4310,
      "##inis": 4311,
      "kanila": 4312,
      "komite": 4313,
      "Griyego": 4314,
      "kultura": 4315,
      "lalo": 4316,
      "##gawa": 4317,
      "##awid": 4318,
      "kinabibilangan": 4319,
      "kadre": 4320,
      "##aligan": 4321,
      "##ect": 4322,
      "Asya": 4323,
      "Amo": 4324,
      "bis": 4325,
      "hari": 4326,
      "##lab": 4327,
      "##los": 4328,
      "##old": 4329,
      "##upa": 4330,
      "190": 4331,
      "##panyang": 4332,
      "kadalasang": 4333,
      "##ukid": 4334,
      "nagpat": 4335,
      "2019": 4336,
      "Bar": 4337,
      "Mula": 4338,
      "Ped": 4339,
      "##pak": 4340,
      "##sia": 4341,
      "##alagan": 4342,
      "isulong": 4343,
      "##ics": 4344,
      "madugay": 4345,
      "antus": 4346,
      "amay": 4347,
      "Sen": 4348,
      "Wil": 4349,
      "sit": 4350,
      "tap": 4351,
      "##ith": 4352,
      "aksyon": 4353,
      "2011": 4354,
      "India": 4355,
      "##alapad": 4356,
      "Ikalawang": 4357,
      "buruk": 4358,
      "Forces": 4359,
      "handum": 4360,
      "Matapos": 4361,
      "##ispo": 4362,
      "##urs": 4363,
      "##arget": 4364,
      "Val": 4365,
      "batay": 4366,
      "##ean": 4367,
      "##alat": 4368,
      "##aso": 4369,
      "Armed": 4370,
      "tradisyon": 4371,
      "estudyante": 4372,
      "##asok": 4373,
      "##udlay": 4374,
      "##ach": 4375,
      "paghah": 4376,
      "agaw": 4377,
      "digmaan": 4378,
      "kwar": 4379,
      "plat": 4380,
      "##erk": 4381,
      "anal": 4382,
      "##ations": 4383,
      "##uyuan": 4384,
      "paggawa": 4385,
      "Niño": 4386,
      "Cap": 4387,
      "but": 4388,
      "tak": 4389,
      "##ft": 4390,
      "##ona": 4391,
      "##onom": 4392,
      "##idong": 4393,
      "##udlo": 4394,
      "dinast": 4395,
      "resulta": 4396,
      "polisiya": 4397,
      "Ben": 4398,
      "##aay": 4399,
      "##adem": 4400,
      "##aduha": 4401,
      "##ugto": 4402,
      "pagkain": 4403,
      "##ganan": 4404,
      "##aliksik": 4405,
      "prinsipyo": 4406,
      "CE": 4407,
      "Panay": 4408,
      "Tum": 4409,
      "##ex": 4410,
      "##alagay": 4411,
      "##inan": 4412,
      "ginpang": 4413,
      "kanluran": 4414,
      "##ote": 4415,
      "pagkat": 4416,
      "##utos": 4417,
      "##ugnayan": 4418,
      "Luc": 4419,
      "Suno": 4420,
      "th": 4421,
      "##ual": 4422,
      "teritoryo": 4423,
      "York": 4424,
      "danta": 4425,
      "##log": 4426,
      "##alaro": 4427,
      "##enc": 4428,
      "init": 4429,
      "halip": 4430,
      "karon": 4431,
      "napak": 4432,
      "pakadto": 4433,
      "Ob": 4434,
      "bab": 4435,
      "##bar": 4436,
      "##lob": 4437,
      "natat": 4438,
      "##iliusa": 4439,
      "##araniwang": 4440,
      "nagsas": 4441,
      "2010": 4442,
      "2008": 4443,
      "umi": 4444,
      "gumawa": 4445,
      "magnubo": 4446,
      "palangabuhian": 4447,
      "##iyembro": 4448,
      "Bag": 4449,
      "pilit": 4450,
      "##omin": 4451,
      "##uting": 4452,
      "##trateh": 4453,
      "Nah": 4454,
      "##unog": 4455,
      "natabo": 4456,
      "##resulta": 4457,
      "eleksyon": 4458,
      "panlipunan": 4459,
      "aktibista": 4460,
      "Katoliko": 4461,
      "ikasarang": 4462,
      "dug": 4463,
      "##utal": 4464,
      "pagkakata": 4465,
      "##ibersaryo": 4466,
      "basehan": 4467,
      "Hesus": 4468,
      "Pangk": 4469,
      "Ter": 4470,
      "nob": 4471,
      "ts": 4472,
      "##ner": 4473,
      "##alala": 4474,
      "##atlo": 4475,
      "##imulang": 4476,
      "##ugma": 4477,
      "manan": 4478,
      "##himulos": 4479,
      "anti": 4480,
      "lipunan": 4481,
      "##pam": 4482,
      "##yd": 4483,
      "angk": 4484,
      "##enda": 4485,
      "kabuk": 4486,
      "bahay": 4487,
      "##ampok": 4488,
      "Law": 4489,
      "bit": 4490,
      "dala": 4491,
      "noon": 4492,
      "##upok": 4493,
      "##ansya": 4494,
      "ikaayong": 4495,
      "##porma": 4496,
      "dantaon": 4497,
      "Reg": 4498,
      "Vic": 4499,
      "pook": 4500,
      "rason": 4501,
      "sug": 4502,
      "ut": 4503,
      "##usyong": 4504,
      "manl": 4505,
      "Art": 4506,
      "internasyunal": 4507,
      "taktikal": 4508,
      "NDFP": 4509,
      "Ay": 4510,
      "Sol": 4511,
      "bers": 4512,
      "##ee": 4513,
      "##gamit": 4514,
      "##orld": 4515,
      "##agayan": 4516,
      "katut": 4517,
      "kont": 4518,
      "mapag": 4519,
      "United": 4520,
      "sariling": 4521,
      "##agalog": 4522,
      "dalagko": 4523,
      "telebisyon": 4524,
      "31": 4525,
      "Apr": 4526,
      "Ex": 4527,
      "hatagan": 4528,
      "ub": 4529,
      "##orn": 4530,
      "magulang": 4531,
      "##ihim": 4532,
      "kasal": 4533,
      "##reto": 4534,
      "pulitika": 4535,
      "pampol": 4536,
      "##peto": 4537,
      "aktibidad": 4538,
      "pinakamataas": 4539,
      "Iloilo": 4540,
      "kabukiran": 4541,
      "40": 4542,
      "qu": 4543,
      "##sing": 4544,
      "##iter": 4545,
      "##amayan": 4546,
      "prot": 4547,
      "mahalagang": 4548,
      "##ve": 4549,
      "##arl": 4550,
      "##amin": 4551,
      "##elop": 4552,
      "##entong": 4553,
      "masunod": 4554,
      "impormasyon": 4555,
      "pagpatuman": 4556,
      "kalaunan": 4557,
      "ektarya": 4558,
      "Ba": 4559,
      "##ailangan": 4560,
      "##hay": 4561,
      "##ede": 4562,
      "##araang": 4563,
      "##spir": 4564,
      "babaeng": 4565,
      "inilabas": 4566,
      "numero": 4567,
      "miyembro": 4568,
      "##git": 4569,
      "##work": 4570,
      "##amon": 4571,
      "##antalang": 4572,
      "##untad": 4573,
      "##edia": 4574,
      "nangangah": 4575,
      "Her": 4576,
      "Sal": 4577,
      "##ser": 4578,
      "karagd": 4579,
      "abot": 4580,
      "distr": 4581,
      "##umbas": 4582,
      "dako": 4583,
      "gulang": 4584,
      "##inalag": 4585,
      "ikalawang": 4586,
      "##ambong": 4587,
      "nagkalainlain": 4588,
      "Tagalog": 4589,
      "##kul": 4590,
      "ginhimo": 4591,
      "##andok": 4592,
      "2016": 4593,
      "##ilingban": 4594,
      "katapusan": 4595,
      "gumagamit": 4596,
      "##umdom": 4597,
      "##rata": 4598,
      "##ahug": 4599,
      "rec": 4600,
      "manubo": 4601,
      "kahoy": 4602,
      "tumutukoy": 4603,
      "##aysay": 4604,
      "##ront": 4605,
      "Leon": 4606,
      "##trukt": 4607,
      "Simbahang": 4608,
      "Bagaman": 4609,
      "Hen": 4610,
      "gamay": 4611,
      "patay": 4612,
      "ulan": 4613,
      "##ole": 4614,
      "pinakad": 4615,
      "partido": 4616,
      "##uyagyag": 4617,
      "lalawigan": 4618,
      "##SA": 4619,
      "##gam": 4620,
      "##ayaan": 4621,
      "##eryo": 4622,
      "##eld": 4623,
      "anibersaryo": 4624,
      "makak": 4625,
      "ginpas": 4626,
      "pagkakaroon": 4627,
      "Kabilang": 4628,
      "Tal": 4629,
      "##sol": 4630,
      "batang": 4631,
      "pambansang": 4632,
      "Ga": 4633,
      "Habang": 4634,
      "Pab": 4635,
      "##sak": 4636,
      "##ames": 4637,
      "##estin": 4638,
      "##red": 4639,
      "##igasyon": 4640,
      "Tsino": 4641,
      "ideya": 4642,
      "Sand": 4643,
      "hanay": 4644,
      "##pon": 4645,
      "##agwa": 4646,
      "sim": 4647,
      "pamant": 4648,
      "Nagb": 4649,
      "Naging": 4650,
      "marami": 4651,
      "korapsyon": 4652,
      "CP": 4653,
      "Lungsod": 4654,
      "Per": 4655,
      "##ukaw": 4656,
      "palig": 4657,
      "##agsik": 4658,
      "kababainhan": 4659,
      "##udl": 4660,
      "Ginap": 4661,
      "bato": 4662,
      "ginapang": 4663,
      "Maa": 4664,
      "namon": 4665,
      "nagahari": 4666,
      "desisyon": 4667,
      "katungdanan": 4668,
      "Bro": 4669,
      "plan": 4670,
      "##ayos": 4671,
      "reporma": 4672,
      "unyon": 4673,
      "##ublag": 4674,
      "eskwel": 4675,
      "Ger": 4676,
      "amp": 4677,
      "co": 4678,
      "dulot": 4679,
      "kop": 4680,
      "##uoran": 4681,
      "##dog": 4682,
      "nabat": 4683,
      "##arin": 4684,
      "##ilis": 4685,
      "##awit": 4686,
      "manunulat": 4687,
      "agrikultura": 4688,
      "Rey": 4689,
      "##cis": 4690,
      "sangk": 4691,
      "##isk": 4692,
      "##inguha": 4693,
      "anyos": 4694,
      "##istahan": 4695,
      "akda": 4696,
      "pangkas": 4697,
      "##unsad": 4698,
      "sumusunod": 4699,
      "imperyalista": 4700,
      "##abaskugon": 4701,
      "Gab": 4702,
      "Lin": 4703,
      "Sept": 4704,
      "ben": 4705,
      "git": 4706,
      "pulong": 4707,
      "##ier": 4708,
      "##tag": 4709,
      "##uz": 4710,
      "##are": 4711,
      "##ipas": 4712,
      "pangulo": 4713,
      "pagpapat": 4714,
      "##etwork": 4715,
      "kabis": 4716,
      "2017": 4717,
      "likod": 4718,
      "##inggil": 4719,
      "Republika": 4720,
      "Sob": 4721,
      "hugot": 4722,
      "rito": 4723,
      "silangan": 4724,
      "ngalan": 4725,
      "##ahog": 4726,
      "kaugnayan": 4727,
      "hangin": 4728,
      "Ant": 4729,
      "himuon": 4730,
      "kl": 4731,
      "##anag": 4732,
      "ngaa": 4733,
      "##ilyo": 4734,
      "inih": 4735,
      "##urh": 4736,
      "##artment": 4737,
      "maaari": 4738,
      "pagpamatay": 4739,
      "dalagk": 4740,
      "publiko": 4741,
      "peke": 4742,
      "##bon": 4743,
      "##uni": 4744,
      "iligal": 4745,
      "Marx": 4746,
      "pagbag": 4747,
      "##aligya": 4748,
      "estrateh": 4749,
      "dalawa": 4750,
      "pisikal": 4751,
      "kamatuoran": 4752,
      "Ol": 4753,
      "silang": 4754,
      "##ria": 4755,
      "##aha": 4756,
      "##ensyon": 4757,
      "labanan": 4758,
      "Islam": 4759,
      "antes": 4760,
      "##indugan": 4761,
      "determ": 4762,
      "ti": 4763,
      "tawag": 4764,
      "##ty": 4765,
      "##lawan": 4766,
      "##ayaw": 4767,
      "pagkap": 4768,
      "##istan": 4769,
      "kapal": 4770,
      "tinawag": 4771,
      "##ress": 4772,
      "konsep": 4773,
      "posible": 4774,
      "baybay": 4775,
      "pinagm": 4776,
      "Pranses": 4777,
      "pangpulitika": 4778,
      "60": 4779,
      "Bul": 4780,
      "hug": 4781,
      "met": 4782,
      "##pons": 4783,
      "##ound": 4784,
      "manug": 4785,
      "##alawak": 4786,
      "bana": 4787,
      "lumitaw": 4788,
      "manggad": 4789,
      "propes": 4790,
      "pangkalahatang": 4791,
      "Pambansang": 4792,
      "Ehipto": 4793,
      "Pers": 4794,
      "nilang": 4795,
      "ud": 4796,
      "##lit": 4797,
      "sapat": 4798,
      "##adyet": 4799,
      "##ibabaw": 4800,
      "##dir": 4801,
      "##ley": 4802,
      "kapas": 4803,
      "nagbigay": 4804,
      "##olohikal": 4805,
      "Bel": 4806,
      "Op": 4807,
      "labas": 4808,
      "pus": 4809,
      "##angkon": 4810,
      "##aylo": 4811,
      "##ikita": 4812,
      "##ibl": 4813,
      "pinap": 4814,
      "katuyuan": 4815,
      "Gink": 4816,
      "Gind": 4817,
      "##ugal": 4818,
      "alagad": 4819,
      "kaangay": 4820,
      "Halin": 4821,
      "Latin": 4822,
      "##wan": 4823,
      "##istor": 4824,
      "##isda": 4825,
      "pari": 4826,
      "2018": 4827,
      "ipit": 4828,
      "relihiyon": 4829,
      "##yayari": 4830,
      "layunin": 4831,
      "sob": 4832,
      "tanging": 4833,
      "##lurang": 4834,
      "prub": 4835,
      "2012": 4836,
      "Lab": 4837,
      "Nan": 4838,
      "sund": 4839,
      "##arm": 4840,
      "##reh": 4841,
      "tagsa": 4842,
      "pabor": 4843,
      "Kaharian": 4844,
      "Ge": 4845,
      "Rod": 4846,
      "World": 4847,
      "huli": 4848,
      "mala": 4849,
      "##igyan": 4850,
      "##lec": 4851,
      "##ahanan": 4852,
      "maik": 4853,
      "III": 4854,
      "##panyol": 4855,
      "Front": 4856,
      "palay": 4857,
      "tuw": 4858,
      "##wasyon": 4859,
      "##ayuhan": 4860,
      "##igil": 4861,
      "kilalang": 4862,
      "Halimbawa": 4863,
      "Muslim": 4864,
      "Itin": 4865,
      "Kons": 4866,
      "video": 4867,
      "##bit": 4868,
      "##ator": 4869,
      "##iksyon": 4870,
      "pangalawang": 4871,
      "##aano": 4872,
      "##atayon": 4873,
      "tumat": 4874,
      "##aktura": 4875,
      "posisyon": 4876,
      "##50": 4877,
      "##inang": 4878,
      "##one": 4879,
      "##atawan": 4880,
      "##ase": 4881,
      "##agas": 4882,
      "##ayanan": 4883,
      "abyan": 4884,
      "pagpamomba": 4885,
      "reaksyon": 4886,
      "prubinsya": 4887,
      "bol": 4888,
      "kong": 4889,
      "##iks": 4890,
      "##agatang": 4891,
      "##irap": 4892,
      "kahadlok": 4893,
      "Pagp": 4894,
      "Espanyol": 4895,
      "Rob": 4896,
      "##duta": 4897,
      "##akbo": 4898,
      "##tol": 4899,
      "##usugan": 4900,
      "##ipiko": 4901,
      "##ehiyo": 4902,
      "nagsis": 4903,
      "kubay": 4904,
      "##ca": 4905,
      "##MA": 4906,
      "##ile": 4907,
      "##adlong": 4908,
      "##ibay": 4909,
      "##uko": 4910,
      "pamil": 4911,
      "##ibutanon": 4912,
      "likas": 4913,
      "burges": 4914,
      "Kadungan": 4915,
      "pagkakataon": 4916,
      "pampolitika": 4917,
      "500": 4918,
      "nais": 4919,
      "##ahok": 4920,
      "parang": 4921,
      "nagapan": 4922,
      "nakah": 4923,
      "##ugas": 4924,
      "halaga": 4925,
      "nagapam": 4926,
      "brutal": 4927,
      "PKP": 4928,
      "Af": 4929,
      "Ceb": 4930,
      "luyag": 4931,
      "segur": 4932,
      "##lik": 4933,
      "pagg": 4934,
      "##unahan": 4935,
      "##enar": 4936,
      "##upang": 4937,
      "aral": 4938,
      "##uluy": 4939,
      "##ublikong": 4940,
      "hilagang": 4941,
      "tagumpay": 4942,
      "ulit": 4943,
      "katapu": 4944,
      "Pareho": 4945,
      "##ahalon": 4946,
      "Pransiya": 4947,
      "Dan": 4948,
      "Tan": 4949,
      "pyudal": 4950,
      "pabaskugon": 4951,
      "tip": 4952,
      "##rom": 4953,
      "##NA": 4954,
      "##GU": 4955,
      "##ugmat": 4956,
      "kanta": 4957,
      "##anday": 4958,
      "##ekta": 4959,
      "##ektong": 4960,
      "mayduta": 4961,
      "##antus": 4962,
      "baseng": 4963,
      "Komite": 4964,
      "kababaihan": 4965,
      "Austral": 4966,
      "burukrata": 4967,
      "gikan": 4968,
      "mid": 4969,
      "##mas": 4970,
      "##aton": 4971,
      "##odo": 4972,
      "Angel": 4973,
      "##irit": 4974,
      "##ican": 4975,
      "##ortahan": 4976,
      "tuyo": 4977,
      "Ass": 4978,
      "pampulitika": 4979,
      "korte": 4980,
      "sandigan": 4981,
      "datu": 4982,
      "reaksyunaryong": 4983,
      "ugat": 4984,
      "erya": 4985,
      "Bay": 4986,
      "Kongreso": 4987,
      "Sel": 4988,
      "Subong": 4989,
      "pormal": 4990,
      "##cac": 4991,
      "##0s": 4992,
      "panit": 4993,
      "Ginb": 4994,
      "ginpa": 4995,
      "Bangud": 4996,
      "00": 4997,
      "Sentral": 4998,
      "badyet": 4999,
      "kulay": 5000,
      "og": 5001,
      "sur": 5002,
      "##uwa": 5003,
      "##asyo": 5004,
      "ginlunsar": 5005,
      "mapa": 5006,
      "Party": 5007,
      "Har": 5008,
      "##alad": 5009,
      "##ilm": 5010,
      "##aham": 5011,
      "pangabuhian": 5012,
      "##uhaw": 5013,
      "##enter": 5014,
      "2006": 5015,
      "2009": 5016,
      "le": 5017,
      "##ingan": 5018,
      "##uklat": 5019,
      "##eksiyon": 5020,
      "komers": 5021,
      "sige": 5022,
      "##prador": 5023,
      "kawad": 5024,
      "##ambalanon": 5025,
      "Pablo": 5026,
      "Sobyet": 5027,
      "Em": 5028,
      "LPC": 5029,
      "Rec": 5030,
      "School": 5031,
      "Tur": 5032,
      "dul": 5033,
      "hinggil": 5034,
      "##uhin": 5035,
      "masami": 5036,
      "hangganan": 5037,
      "naglalaman": 5038,
      "tumandok": 5039,
      "Britan": 5040,
      "klase": 5041,
      "Septyembre": 5042,
      "SA": 5043,
      "biy": 5044,
      "dag": 5045,
      "gaw": 5046,
      "minsan": 5047,
      "martir": 5048,
      "isyu": 5049,
      "inag": 5050,
      "ibig": 5051,
      "##atayo": 5052,
      "aktibo": 5053,
      "Department": 5054,
      "Pedro": 5055,
      "Med": 5056,
      "Qu": 5057,
      "Tom": 5058,
      "pod": 5059,
      "suh": 5060,
      "ur": 5061,
      "##sada": 5062,
      "##alab": 5063,
      "##atas": 5064,
      "##ahagi": 5065,
      "##ahanap": 5066,
      "kalak": 5067,
      "2014": 5068,
      "abi": 5069,
      "nilikha": 5070,
      "lupain": 5071,
      "32": 5072,
      "Dev": 5073,
      "bomba": 5074,
      "pulo": 5075,
      "##ij": 5076,
      "##isay": 5077,
      "##unisip": 5078,
      "##ibilidad": 5079,
      "pans": 5080,
      "nakuha": 5081,
      "nakilala": 5082,
      "kasunod": 5083,
      "kasarian": 5084,
      "##aganda": 5085,
      "tagas": 5086,
      "berdugo": 5087,
      "espesyal": 5088,
      "diktad": 5089,
      "NA": 5090,
      "tur": 5091,
      "##ugh": 5092,
      "alam": 5093,
      "All": 5094,
      "Amerikan": 5095,
      "##eklamo": 5096,
      "ganitong": 5097,
      "kabisera": 5098,
      "Silangan": 5099,
      "lub": 5100,
      "##alal": 5101,
      "##inand": 5102,
      "##atibong": 5103,
      "inspir": 5104,
      "##ipin": 5105,
      "Nagl": 5106,
      "Unibersidad": 5107,
      "##ungkahi": 5108,
      "ebid": 5109,
      "Cam": 5110,
      "##iet": 5111,
      "##unc": 5112,
      "ginapat": 5113,
      "patuloy": 5114,
      "##patuman": 5115,
      "##imbang": 5116,
      "nagtatag": 5117,
      "Elcac": 5118,
      "gusali": 5119,
      "##truktura": 5120,
      "Silangang": 5121,
      "deb": 5122,
      "mapat": 5123,
      "##nap": 5124,
      "pagtaas": 5125,
      "2000": 5126,
      "kond": 5127,
      "maaring": 5128,
      "##ional": 5129,
      "##edral": 5130,
      "poder": 5131,
      "Eng": 5132,
      "dib": 5133,
      "pinags": 5134,
      "##ete": 5135,
      "##ico": 5136,
      "kamo": 5137,
      "##torya": 5138,
      "amat": 5139,
      "##agatan": 5140,
      "bumalik": 5141,
      "Italya": 5142,
      "Ferd": 5143,
      "kim": 5144,
      "kulang": 5145,
      "sy": 5146,
      "target": 5147,
      "##apo": 5148,
      "##abu": 5149,
      "##olet": 5150,
      "##emp": 5151,
      "magmula": 5152,
      "katumbas": 5153,
      "##ilipat": 5154,
      "Asia": 5155,
      "bangod": 5156,
      "nanin": 5157,
      "Palestin": 5158,
      "##apinan": 5159,
      "plant": 5160,
      "imbest": 5161,
      "Din": 5162,
      "du": 5163,
      "gayon": 5164,
      "sc": 5165,
      "##mer": 5166,
      "kabut": 5167,
      "Ginh": 5168,
      "pagsis": 5169,
      "##alakbay": 5170,
      "patungo": 5171,
      "Kanluran": 5172,
      "Taiwan": 5173,
      "matagumpay": 5174,
      "Jack": 5175,
      "##lus": 5176,
      "##ungat": 5177,
      "##ree": 5178,
      "palibot": 5179,
      "buot": 5180,
      "Corpor": 5181,
      "Ferdinand": 5182,
      "hublag": 5183,
      "nai": 5184,
      "nait": 5185,
      "##atubang": 5186,
      "ining": 5187,
      "##oma": 5188,
      "nagaka": 5189,
      "##ire": 5190,
      "##opol": 5191,
      "maagang": 5192,
      "##egal": 5193,
      "kriminal": 5194,
      "pamumuno": 5195,
      "benep": 5196,
      "Dugang": 5197,
      "##osa": 5198,
      "##try": 5199,
      "salak": 5200,
      "##ampal": 5201,
      "Nagap": 5202,
      "##ilanon": 5203,
      "Mel": 5204,
      "Taga": 5205,
      "Wh": 5206,
      "##ler": 5207,
      "Ginat": 5208,
      "kamatayon": 5209,
      "mapang": 5210,
      "186": 5211,
      "reaksyunaryo": 5212,
      "##ilbi": 5213,
      "Gitnang": 5214,
      "Ng": 5215,
      "bl": 5216,
      "##form": 5217,
      "##gar": 5218,
      "##akter": 5219,
      "##urg": 5220,
      "pataas": 5221,
      "Isab": 5222,
      "barko": 5223,
      "ahensya": 5224,
      "inspirasyon": 5225,
      "Bac": 5226,
      "Pl": 5227,
      "gay": 5228,
      "pandaigdig": 5229,
      "nahan": 5230,
      "##ayagan": 5231,
      "inhin": 5232,
      "Nagd": 5233,
      "##tindog": 5234,
      "##ektado": 5235,
      "pananaw": 5236,
      "relasyon": 5237,
      "uswag": 5238,
      "analisa": 5239,
      "Corporation": 5240,
      "samp": 5241,
      "ayuda": 5242,
      "##ora": 5243,
      "##ubog": 5244,
      "##let": 5245,
      "pasilidad": 5246,
      "##aloob": 5247,
      "pinakamah": 5248,
      "isinulat": 5249,
      "kasalukuyan": 5250,
      "siyam": 5251,
      "kandid": 5252,
      "Subalit": 5253,
      "nangangahulugang": 5254,
      "inagihan": 5255,
      "Bu": 5256,
      "Tay": 5257,
      "bunga": 5258,
      "ig": 5259,
      "##erto": 5260,
      "langis": 5261,
      "pagpanghimulos": 5262,
      "##resent": 5263,
      "##uklasan": 5264,
      "##elopment": 5265,
      "dam": 5266,
      "gen": 5267,
      "##ium": 5268,
      "##hanan": 5269,
      "##ilalim": 5270,
      "malaw": 5271,
      "##antong": 5272,
      "kabang": 5273,
      "hilaga": 5274,
      "baylo": 5275,
      "ginahimo": 5276,
      "sitwasyon": 5277,
      "##udlayan": 5278,
      "Cebu": 5279,
      "##GA": 5280,
      "##gal": 5281,
      "##asiwa": 5282,
      "##awala": 5283,
      "pinan": 5284,
      "##ict": 5285,
      "kapwa": 5286,
      "##ense": 5287,
      "Nagh": 5288,
      "##thur": 5289,
      "Santa": 5290,
      "##amaylan": 5291,
      "artista": 5292,
      "##eksto": 5293,
      "Francis": 5294,
      "Tub": 5295,
      "kul": 5296,
      "sus": 5297,
      "tul": 5298,
      "nau": 5299,
      "##atang": 5300,
      "##atiling": 5301,
      "##ungko": 5302,
      "##andaan": 5303,
      "##eth": 5304,
      "aspeto": 5305,
      "Progr": 5306,
      "Himamaylan": 5307,
      "##erhiya": 5308,
      "CPP": 5309,
      "Dam": 5310,
      "Hud": 5311,
      "dayon": 5312,
      "pund": 5313,
      "sulat": 5314,
      "##sy": 5315,
      "##ini": 5316,
      "##aras": 5317,
      "##endo": 5318,
      "limit": 5319,
      "Mic": 5320,
      "Nad": 5321,
      "Riz": 5322,
      "Sina": 5323,
      "hapon": 5324,
      "ser": 5325,
      "sen": 5326,
      "##rika": 5327,
      "##asya": 5328,
      "##ade": 5329,
      "sir": 5330,
      "reb": 5331,
      "pagkamatay": 5332,
      "makapag": 5333,
      "2013": 5334,
      "##liam": 5335,
      "##isipan": 5336,
      "liberal": 5337,
      "Force": 5338,
      "Imp": 5339,
      "puluy": 5340,
      "₱2": 5341,
      "##gas": 5342,
      "##ilikha": 5343,
      "##inggo": 5344,
      "##imuslan": 5345,
      "##igtas": 5346,
      "##utong": 5347,
      "##bolusyong": 5348,
      "karakter": 5349,
      "iduso": 5350,
      "##aysayang": 5351,
      "respons": 5352,
      "disenyo": 5353,
      "gamitin": 5354,
      "makabagong": 5355,
      "pagkakaiba": 5356,
      "Rizal": 5357,
      "sentral": 5358,
      "tangga": 5359,
      "##cal": 5360,
      "##ony": 5361,
      "pamagat": 5362,
      "mayor": 5363,
      "enerhiya": 5364,
      "Alex": 5365,
      "kuwento": 5366,
      "konsepto": 5367,
      "79": 5368,
      "Len": 5369,
      "Pac": 5370,
      "tuga": 5371,
      "##sang": 5372,
      "##yari": 5373,
      "##din": 5374,
      "##ensa": 5375,
      "##atayang": 5376,
      "kumander": 5377,
      "pagpangh": 5378,
      "paksa": 5379,
      "##siyong": 5380,
      "magkaroon": 5381,
      "pagkakat": 5382,
      "##umdum": 5383,
      "Simbahan": 5384,
      "umiiral": 5385,
      "Bill": 5386,
      "ump": 5387,
      "utod": 5388,
      "##gol": 5389,
      "##my": 5390,
      "##ises": 5391,
      "kabil": 5392,
      "unlad": 5393,
      "Int": 5394,
      "karera": 5395,
      "tinat": 5396,
      "paghiliusa": 5397,
      "Kasama": 5398,
      "gawaing": 5399,
      "pangkalibutanon": 5400,
      "##udio": 5401,
      "eskwelahan": 5402,
      "Nab": 5403,
      "men": 5404,
      "##uig": 5405,
      "##inc": 5406,
      "##ilian": 5407,
      "panawagan": 5408,
      "##ulaan": 5409,
      "kabila": 5410,
      "kinaka": 5411,
      "madasig": 5412,
      "##angkin": 5413,
      "dahilan": 5414,
      "##ocrat": 5415,
      "pwersang": 5416,
      "Aprika": 5417,
      "Gal": 5418,
      "Mong": 5419,
      "RJ": 5420,
      "Stat": 5421,
      "gali": 5422,
      "munisip": 5423,
      "##ones": 5424,
      "##iso": 5425,
      "##apawid": 5426,
      "##endi": 5427,
      "pagpamat": 5428,
      "report": 5429,
      "##eter": 5430,
      "kasyud": 5431,
      "kahalitan": 5432,
      "mamamayan": 5433,
      "##asaker": 5434,
      "Commun": 5435,
      "sanhi": 5436,
      "dumating": 5437,
      "##alipas": 5438,
      "Del": 5439,
      "kund": 5440,
      "##lar": 5441,
      "##uoy": 5442,
      "##yuter": 5443,
      "##abit": 5444,
      "##ingisda": 5445,
      "##ikulo": 5446,
      "batuan": 5447,
      "palabas": 5448,
      "##aligiran": 5449,
      "tigulang": 5450,
      "##anggit": 5451,
      "##ripisyo": 5452,
      "kakayahan": 5453,
      "kasyudaran": 5454,
      "Dakilang": 5455,
      "balak": 5456,
      "tahanan": 5457,
      "##kot": 5458,
      "##rit": 5459,
      "##II": 5460,
      "angkon": 5461,
      "##ars": 5462,
      "##aks": 5463,
      "##ahas": 5464,
      "nagresulta": 5465,
      "malakas": 5466,
      "##abase": 5467,
      "##akaisang": 5468,
      "##pati": 5469,
      "2004": 5470,
      "2005": 5471,
      "1990": 5472,
      "##yagon": 5473,
      "Europeo": 5474,
      "teorya": 5475,
      "kuryente": 5476,
      "##askog": 5477,
      "##gres": 5478,
      "##may": 5479,
      "sala": 5480,
      "##inado": 5481,
      "##awaan": 5482,
      "atras": 5483,
      "##uhit": 5484,
      "tungkul": 5485,
      "kontrad": 5486,
      "Pangulo": 5487,
      "laye": 5488,
      "##ursig": 5489,
      "tungkulin": 5490,
      "Ah": 5491,
      "Cov": 5492,
      "Go": 5493,
      "Ti": 5494,
      "Tatay": 5495,
      "pito": 5496,
      "##ña": 5497,
      "##ikilala": 5498,
      "##osisyon": 5499,
      "kaibigan": 5500,
      "##uhaan": 5501,
      "nangung": 5502,
      "patag": 5503,
      "##laon": 5504,
      "pasismo": 5505,
      "mababang": 5506,
      "##umduman": 5507,
      "datos": 5508,
      "Kinahanglan": 5509,
      "tingog": 5510,
      "termino": 5511,
      "elektron": 5512,
      "ugnayan": 5513,
      "Amerikanong": 5514,
      "70": 5515,
      "Dir": 5516,
      "Nas": 5517,
      "Sc": 5518,
      "West": 5519,
      "ba": 5520,
      "misyon": 5521,
      "##SP": 5522,
      "istr": 5523,
      "##orge": 5524,
      "ginal": 5525,
      "kauna": 5526,
      "pagpah": 5527,
      "##antala": 5528,
      "alang": 5529,
      "estasyon": 5530,
      "Hapones": 5531,
      "dy": 5532,
      "##anon": 5533,
      "##agyan": 5534,
      "##alya": 5535,
      "##ontrol": 5536,
      "##atura": 5537,
      "##asaka": 5538,
      "##awalan": 5539,
      "##ekan": 5540,
      "makig": 5541,
      "##ensiyang": 5542,
      "naglab": 5543,
      "grabe": 5544,
      "organisa": 5545,
      "kakulangan": 5546,
      "pabrika": 5547,
      "kinaiya": 5548,
      "##anghel": 5549,
      "regular": 5550,
      "Gabri": 5551,
      "Ca": 5552,
      "Ib": 5553,
      "Sir": 5554,
      "lakas": 5555,
      "rock": 5556,
      "##angalan": 5557,
      "##unon": 5558,
      "ayhan": 5559,
      "##osp": 5560,
      "##imulan": 5561,
      "##asyonal": 5562,
      "sinabi": 5563,
      "paniniwala": 5564,
      "natural": 5565,
      "kadam": 5566,
      "##ario": 5567,
      "Ilog": 5568,
      "intel": 5569,
      "Ngaa": 5570,
      "35": 5571,
      "Bibl": 5572,
      "Gani": 5573,
      "merk": 5574,
      "##ise": 5575,
      "##adlaw": 5576,
      "##aping": 5577,
      "##olib": 5578,
      "ginl": 5579,
      "##omo": 5580,
      "kapar": 5581,
      "mahigit": 5582,
      "mapintas": 5583,
      "ginpat": 5584,
      "pagpangl": 5585,
      "Pags": 5586,
      "##ocial": 5587,
      "2007": 5588,
      "nagaharing": 5589,
      "Samar": 5590,
      "record": 5591,
      "Mang": 5592,
      "pala": 5593,
      "isk": 5594,
      "isda": 5595,
      "pamangkot": 5596,
      "kalag": 5597,
      "##impluw": 5598,
      "insurh": 5599,
      "diktadur": 5600,
      "himo": 5601,
      "se": 5602,
      "##iman": 5603,
      "##rob": 5604,
      "pagkilala": 5605,
      "Mart": 5606,
      "##undok": 5607,
      "militarisasyon": 5608,
      "2015": 5609,
      "lumipat": 5610,
      "pakig": 5611,
      "presidente": 5612,
      "##luwas": 5613,
      "##eklarar": 5614,
      "ideolohiya": 5615,
      "neolib": 5616,
      "dalagku": 5617,
      "RJPC": 5618,
      "neoliberal": 5619,
      "Filipin": 5620,
      "Flor": 5621,
      "Mer": 5622,
      "Tag": 5623,
      "nanday": 5624,
      "##yedad": 5625,
      "##inig": 5626,
      "##atibo": 5627,
      "##ild": 5628,
      "##ilos": 5629,
      "simple": 5630,
      "##udo": 5631,
      "##stem": 5632,
      "Ginagamit": 5633,
      "kapan": 5634,
      "kumulang": 5635,
      "tagap": 5636,
      "terorista": 5637,
      "Moises": 5638,
      "Super": 5639,
      "kabuuang": 5640,
      "Aqu": 5641,
      "aawit": 5642,
      "butang": 5643,
      "ging": 5644,
      "ligal": 5645,
      "mabaskog": 5646,
      "nanan": 5647,
      "##iyong": 5648,
      "##rist": 5649,
      "##akda": 5650,
      "##isto": 5651,
      "##omen": 5652,
      "##ukot": 5653,
      "##anteng": 5654,
      "##ataya": 5655,
      "##undin": 5656,
      "##akasan": 5657,
      "2024": 5658,
      "magas": 5659,
      "Madamo": 5660,
      "Cast": 5661,
      "Gil": 5662,
      "Sec": 5663,
      "band": 5664,
      "mit": 5665,
      "##mad": 5666,
      "##CC": 5667,
      "##enida": 5668,
      "##hanas": 5669,
      "natapos": 5670,
      "##spital": 5671,
      "awtor": 5672,
      "##ific": 5673,
      "siyent": 5674,
      "##ission": 5675,
      "personal": 5676,
      "kongk": 5677,
      "kabilugan": 5678,
      "45": 5679,
      "Best": 5680,
      "King": 5681,
      "Sib": 5682,
      "big": 5683,
      "pre": 5684,
      "##angon": 5685,
      "##ikanan": 5686,
      "##utas": 5687,
      "aks": 5688,
      "natag": 5689,
      "##iliit": 5690,
      "paghatag": 5691,
      "Unyong": 5692,
      "nagsimulang": 5693,
      "magap": 5694,
      "sign": 5695,
      "presensya": 5696,
      "##anggi": 5697,
      "##anghal": 5698,
      "Mabuhay": 5699,
      "bangko": 5700,
      "arkit": 5701,
      "Ngunit": 5702,
      "Center": 5703,
      "Kabah": 5704,
      "are": 5705,
      "mor": 5706,
      "test": 5707,
      "##kod": 5708,
      "##ikap": 5709,
      "magiging": 5710,
      "kalik": 5711,
      "##igat": 5712,
      "##yansa": 5713,
      "##alayas": 5714,
      "188": 5715,
      "itinayo": 5716,
      "Alemanya": 5717,
      "Cat": 5718,
      "Norte": 5719,
      "Res": 5720,
      "Sila": 5721,
      "##ias": 5722,
      "##rabaho": 5723,
      "pagganap": 5724,
      "##igr": 5725,
      "kailan": 5726,
      "##uklas": 5727,
      "##act": 5728,
      "progres": 5729,
      "##ansin": 5730,
      "labis": 5731,
      "##ahalaang": 5732,
      "nakatuon": 5733,
      "Covid": 5734,
      "hambalanon": 5735,
      "lar": 5736,
      "so": 5737,
      "##tik": 5738,
      "##ja": 5739,
      "##agn": 5740,
      "##into": 5741,
      "##ison": 5742,
      "kaakig": 5743,
      "##ugos": 5744,
      "malala": 5745,
      "kalam": 5746,
      "napag": 5747,
      "pamamahala": 5748,
      "idin": 5749,
      "Police": 5750,
      "manlalaro": 5751,
      "burgesya": 5752,
      "kabangdanan": 5753,
      "Hous": 5754,
      "Metro": 5755,
      "Tuman": 5756,
      "##nam": 5757,
      "##kad": 5758,
      "##ket": 5759,
      "##minis": 5760,
      "##akot": 5761,
      "##abig": 5762,
      "##ometro": 5763,
      "##rotesta": 5764,
      "makuha": 5765,
      "##igas": 5766,
      "2003": 5767,
      "pampublikong": 5768,
      "soldado": 5769,
      "Def": 5770,
      "Halos": 5771,
      "Development": 5772,
      "salakyan": 5773,
      "Air": 5774,
      "Kol": 5775,
      "Kapag": 5776,
      "Ser": 5777,
      "Sea": 5778,
      "bugas": 5779,
      "kw": 5780,
      "kagan": 5781,
      "media": 5782,
      "pe": 5783,
      "pir": 5784,
      "sag": 5785,
      "##ID": 5786,
      "##ater": 5787,
      "##asat": 5788,
      "##isyunal": 5789,
      "##abak": 5790,
      "##oli": 5791,
      "malahalon": 5792,
      "tinutukoy": 5793,
      "kumb": 5794,
      "malaparan": 5795,
      "ekonomiko": 5796,
      "##iwatig": 5797,
      "balatyagon": 5798,
      "teknolohiya": 5799,
      "dinastiyang": 5800,
      "Im": 5801,
      "Ir": 5802,
      "Jer": 5803,
      "No": 5804,
      "Sil": 5805,
      "Sing": 5806,
      "Tyo": 5807,
      "iisang": 5808,
      "me": 5809,
      "##kan": 5810,
      "##ef": 5811,
      "##don": 5812,
      "##alayan": 5813,
      "##aker": 5814,
      "##unayan": 5815,
      "##ipan": 5816,
      "kaugnay": 5817,
      "##elle": 5818,
      "pangs": 5819,
      "##uhunan": 5820,
      "maglunsar": 5821,
      "pagkakas": 5822,
      "mait": 5823,
      "Inc": 5824,
      "mangingisda": 5825,
      "##patuloy": 5826,
      "##ocal": 5827,
      "Brit": 5828,
      "kandidato": 5829,
      "lam": 5830,
      "tulong": 5831,
      "##wasak": 5832,
      "##hod": 5833,
      "##arch": 5834,
      "ginikanan": 5835,
      "##tain": 5836,
      "Maraming": 5837,
      "##amba": 5838,
      "##resyon": 5839,
      "Santo": 5840,
      "sigur": 5841,
      "nanalo": 5842,
      "##balhas": 5843,
      "Democrat": 5844,
      "karapatan": 5845,
      "##iplina": 5846,
      "William": 5847,
      "kwarta": 5848,
      "##diriwang": 5849,
      "pataason": 5850,
      "bi": 5851,
      "pig": 5852,
      "pigos": 5853,
      "tiran": 5854,
      "sari": 5855,
      "##ats": 5856,
      "##ahay": 5857,
      "kaaga": 5858,
      "##roup": 5859,
      "magbato": 5860,
      "malayo": 5861,
      "kaharian": 5862,
      "imperyo": 5863,
      "##unsay": 5864,
      "disiplina": 5865,
      "instr": 5866,
      "daigdig": 5867,
      "Southern": 5868,
      "bukid": 5869,
      "radyo": 5870,
      "dughan": 5871,
      "leh": 5872,
      "libo": 5873,
      "str": 5874,
      "war": 5875,
      "waay": 5876,
      "##ke": 5877,
      "##tiko": 5878,
      "##lant": 5879,
      "##eus": 5880,
      "##yr": 5881,
      "pangapinan": 5882,
      "panin": 5883,
      "pagkas": 5884,
      "##etiko": 5885,
      "pangkalin": 5886,
      "impras": 5887,
      "mabilis": 5888,
      "tumut": 5889,
      "##ampas": 5890,
      "1980": 5891,
      "Nangin": 5892,
      "kawalan": 5893,
      "imol": 5894,
      "Const": 5895,
      "sukat": 5896,
      "pandaigdigang": 5897,
      "Program": 5898,
      "Hol": 5899,
      "ph": 5900,
      "##no": 5901,
      "##say": 5902,
      "##rer": 5903,
      "##RI": 5904,
      "##esyon": 5905,
      "kailangan": 5906,
      "##uka": 5907,
      "##ilitan": 5908,
      "kalinong": 5909,
      "##ensiyon": 5910,
      "madinalag": 5911,
      "##asanay": 5912,
      "##ultural": 5913,
      "##kolar": 5914,
      "linibo": 5915,
      "Karl": 5916,
      "seguridad": 5917,
      "kalikasan": 5918,
      "Boy": 5919,
      "Hel": 5920,
      "Sr": 5921,
      "dili": 5922,
      "diwa": 5923,
      "sg": 5924,
      "##rang": 5925,
      "##alib": 5926,
      "##isita": 5927,
      "##apad": 5928,
      "##loob": 5929,
      "##panawagan": 5930,
      "natit": 5931,
      "humantong": 5932,
      "Kristiyan": 5933,
      "teoriya": 5934,
      "tanyag": 5935,
      "Alej": 5936,
      "kontradiksyon": 5937,
      "merkado": 5938,
      "Hang": 5939,
      "Mor": 5940,
      "silangang": 5941,
      "##hag": 5942,
      "##alanan": 5943,
      "ato": 5944,
      "##idalom": 5945,
      "institusyon": 5946,
      "##uhum": 5947,
      "pansin": 5948,
      "##uwag": 5949,
      "##alangga": 5950,
      "military": 5951,
      "madamu": 5952,
      "##amatud": 5953,
      "Arthur": 5954,
      "Char": 5955,
      "kontrata": 5956,
      "balita": 5957,
      "grupong": 5958,
      "drama": 5959,
      "##irme": 5960,
      "Leonardo": 5961,
      "Ig": 5962,
      "Se": 5963,
      "Salag": 5964,
      "mekan": 5965,
      "uyat": 5966,
      "##ky": 5967,
      "##ho": 5968,
      "##otan": 5969,
      "pinas": 5970,
      "katay": 5971,
      "prolet": 5972,
      "kalayaan": 5973,
      "##unduan": 5974,
      "##down": 5975,
      "comp": 5976,
      "pinagmulan": 5977,
      "Rodr": 5978,
      "Democratic": 5979,
      "Salagunting": 5980,
      "300": 5981,
      "Bago": 5982,
      "pay": 5983,
      "##tim": 5984,
      "##angas": 5985,
      "##apal": 5986,
      "##uswag": 5987,
      "##ute": 5988,
      "##uts": 5989,
      "##uksan": 5990,
      "##ugid": 5991,
      "##ihiyos": 5992,
      "##ets": 5993,
      "malip": 5994,
      "matemat": 5995,
      "kaban": 5996,
      "tauhan": 5997,
      "Island": 5998,
      "2001": 5999,
      "anakbalhas": 6000,
      "American": 6001,
      "direkta": 6002,
      "Luzon": 6003,
      "Communist": 6004,
      "33": 6005,
      "Bo": 6006,
      "##lag": 6007,
      "##ren": 6008,
      "##ji": 6009,
      "##akup": 6010,
      "##awhan": 6011,
      "##oka": 6012,
      "pagkad": 6013,
      "pagbibigay": 6014,
      "##roseso": 6015,
      "ginapas": 6016,
      "magkak": 6017,
      "Padilla": 6018,
      "tradisyunal": 6019,
      "Nagkakaisang": 6020,
      "berdugong": 6021,
      "tiyak": 6022,
      "determinasyon": 6023,
      "Lenin": 6024,
      "umpisa": 6025,
      "insurhensya": 6026,
      "Lag": 6027,
      "Lakip": 6028,
      "car": 6029,
      "lip": 6030,
      "milit": 6031,
      "yugto": 6032,
      "##ield": 6033,
      "##ts": 6034,
      "##IB": 6035,
      "##isenyo": 6036,
      "##awad": 6037,
      "pinat": 6038,
      "makikita": 6039,
      "paghih": 6040,
      "Anton": 6041,
      "pagpapa": 6042,
      "nahibal": 6043,
      "kolektibo": 6044,
      "pagmina": 6045,
      "##asalita": 6046,
      "##ights": 6047,
      "Pamant": 6048,
      "pinamagatang": 6049,
      "Davao": 6050,
      "Mayroon": 6051,
      "Isabela": 6052,
      "inhinyer": 6053,
      "Kil": 6054,
      "Punong": 6055,
      "You": 6056,
      "sun": 6057,
      "##ash": 6058,
      "pagtrabaho": 6059,
      "##ahunan": 6060,
      "nagiging": 6061,
      "##olonyal": 6062,
      "kaayuhan": 6063,
      "kant": 6064,
      "maliliit": 6065,
      "##yembro": 6066,
      "##erbi": 6067,
      "Inglat": 6068,
      "1986": 6069,
      "hugis": 6070,
      "Maga": 6071,
      "Pila": 6072,
      "ac": 6073,
      "emple": 6074,
      "listahan": 6075,
      "ospital": 6076,
      "todo": 6077,
      "##lak": 6078,
      "sanga": 6079,
      "##ahint": 6080,
      "##ahulugan": 6081,
      "##unay": 6082,
      "##eno": 6083,
      "##tog": 6084,
      "##imum": 6085,
      "##omp": 6086,
      "##ogo": 6087,
      "kasubong": 6088,
      "single": 6089,
      "samantalang": 6090,
      "element": 6091,
      "kolonyal": 6092,
      "gasto": 6093,
      "pribadong": 6094,
      "##ograpiya": 6095,
      "natagpuan": 6096,
      "Alejand": 6097,
      "80": 6098,
      "Cons": 6099,
      "Oper": 6100,
      "kaka": 6101,
      "myembro": 6102,
      "sens": 6103,
      "tab": 6104,
      "##bang": 6105,
      "##FGU": 6106,
      "##ayp": 6107,
      "##ayber": 6108,
      "##amuyo": 6109,
      "##ulon": 6110,
      "##abayan": 6111,
      "##ubon": 6112,
      "##ellan": 6113,
      "anuman": 6114,
      "##oke": 6115,
      "##oper": 6116,
      "kalsada": 6117,
      "##imbag": 6118,
      "##asakup": 6119,
      "Prinsip": 6120,
      "kilometro": 6121,
      "malaki": 6122,
      "imperyalismong": 6123,
      "taktika": 6124,
      "CAFGU": 6125,
      "Senado": 6126,
      "natatanging": 6127,
      "##rehens": 6128,
      "kabutigan": 6129,
      "Des": 6130,
      "Fel": 6131,
      "Gar": 6132,
      "hak": 6133,
      "##kop": 6134,
      "##mar": 6135,
      "##alth": 6136,
      "##uturo": 6137,
      "##ugutan": 6138,
      "ikatlong": 6139,
      "Isin": 6140,
      "sultan": 6141,
      "magka": 6142,
      "bumubuo": 6143,
      "Panahon": 6144,
      "makatarungan": 6145,
      "nakakuha": 6146,
      "Russia": 6147,
      "Er": 6148,
      "EL": 6149,
      "Fre": 6150,
      "Hari": 6151,
      "Human": 6152,
      "guman": 6153,
      "talak": 6154,
      "##gun": 6155,
      "##gwa": 6156,
      "##was": 6157,
      "##ango": 6158,
      "##galing": 6159,
      "##inahanglan": 6160,
      "##abago": 6161,
      "##umod": 6162,
      "##ikat": 6163,
      "red": 6164,
      "##antya": 6165,
      "##himakas": 6166,
      "agi": 6167,
      "komunista": 6168,
      "humigit": 6169,
      "kapitalismo": 6170,
      "drayber": 6171,
      "benepisyo": 6172,
      "Bon": 6173,
      "Jul": 6174,
      "Kagaw": 6175,
      "Pres": 6176,
      "Ram": 6177,
      "Str": 6178,
      "Tok": 6179,
      "lt": 6180,
      "ukol": 6181,
      "##pong": 6182,
      "##agum": 6183,
      "##isog": 6184,
      "##usw": 6185,
      "##ektor": 6186,
      "katagang": 6187,
      "malab": 6188,
      "unibersidad": 6189,
      "##acio": 6190,
      "pamamaraan": 6191,
      "pananaliksik": 6192,
      "##awakan": 6193,
      "korpor": 6194,
      "punto": 6195,
      "ahente": 6196,
      "David": 6197,
      "karapatang": 6198,
      "sugilanon": 6199,
      "naninirahan": 6200,
      "Jackson": 6201,
      "Av": 6202,
      "Bukid": 6203,
      "Port": 6204,
      "Tim": 6205,
      "Tungod": 6206,
      "dulo": 6207,
      "guro": 6208,
      "tra": 6209,
      "##yl": 6210,
      "##anap": 6211,
      "sangay": 6212,
      "##aharap": 6213,
      "##ision": 6214,
      "##unin": 6215,
      "##oss": 6216,
      "##idor": 6217,
      "kalin": 6218,
      "unahang": 6219,
      "pagtan": 6220,
      "ikin": 6221,
      "natuklasan": 6222,
      "lumikha": 6223,
      "Nagas": 6224,
      "umabot": 6225,
      "suplay": 6226,
      "desper": 6227,
      "hukbong": 6228,
      "katutubong": 6229,
      "Olimp": 6230,
      "suhol": 6231,
      "55": 6232,
      "52": 6233,
      "Hum": 6234,
      "Kur": 6235,
      "RC": 6236,
      "acc": 6237,
      "mand": 6238,
      "sama": 6239,
      "nail": 6240,
      "##apak": 6241,
      "##estor": 6242,
      "##olod": 6243,
      "kaisipan": 6244,
      "sinus": 6245,
      "maliban": 6246,
      "##eda": 6247,
      "kinuha": 6248,
      "##alaka": 6249,
      "##abasa": 6250,
      "kompanya": 6251,
      "187": 6252,
      "##anaog": 6253,
      "demanda": 6254,
      "##uyangan": 6255,
      "##own": 6256,
      "ninyo": 6257,
      "tuwing": 6258,
      "galing": 6259,
      "metro": 6260,
      "##ging": 6261,
      "##fer": 6262,
      "sasak": 6263,
      "##idasyon": 6264,
      "##andum": 6265,
      "pamayanan": 6266,
      "pagkal": 6267,
      "pagkuha": 6268,
      "##iana": 6269,
      "Inil": 6270,
      "halaman": 6271,
      "mahig": 6272,
      "kumprador": 6273,
      "Araw": 6274,
      "binuo": 6275,
      "abd": 6276,
      "halintang": 6277,
      "namum": 6278,
      "Trin": 6279,
      "epektibo": 6280,
      "sekswal": 6281,
      "Bibliya": 6282,
      "Bir": 6283,
      "Lond": 6284,
      "Ur": 6285,
      "mol": 6286,
      "was": 6287,
      "web": 6288,
      "##rod": 6289,
      "##oni": 6290,
      "##usal": 6291,
      "ginagawa": 6292,
      "##utay": 6293,
      "##ukat": 6294,
      "parte": 6295,
      "ilog": 6296,
      "nakad": 6297,
      "##eph": 6298,
      "Una": 6299,
      "Anak": 6300,
      "dira": 6301,
      "##untani": 6302,
      "organo": 6303,
      "malapyudal": 6304,
      "naham": 6305,
      "1970": 6306,
      "insidente": 6307,
      "nawong": 6308,
      "pantay": 6309,
      "##CAC": 6310,
      "##ency": 6311,
      "Marxismo": 6312,
      "Kabahin": 6313,
      "ELCAC": 6314,
      "Lov": 6315,
      "Mod": 6316,
      "Nint": 6317,
      "bakal": 6318,
      "gutom": 6319,
      "himp": 6320,
      "sahing": 6321,
      "##apar": 6322,
      "kaalaman": 6323,
      "##ures": 6324,
      "pamunuan": 6325,
      "panim": 6326,
      "##reement": 6327,
      "makad": 6328,
      "main": 6329,
      "mapan": 6330,
      "suba": 6331,
      "Christ": 6332,
      "##utok": 6333,
      "1987": 6334,
      "posit": 6335,
      "espirit": 6336,
      "##enaida": 6337,
      "malawakang": 6338,
      "Dios": 6339,
      "bangkay": 6340,
      "tiyan": 6341,
      "simbol": 6342,
      "Eb": 6343,
      "Fa": 6344,
      "Pil": 6345,
      "Siling": 6346,
      "UP": 6347,
      "Zenaida": 6348,
      "em": 6349,
      "gar": 6350,
      "larawan": 6351,
      "liwanag": 6352,
      "walo": 6353,
      "##ki": 6354,
      "##ilasan": 6355,
      "##ame": 6356,
      "##amunuan": 6357,
      "##eran": 6358,
      "##ahiwatig": 6359,
      "##ungog": 6360,
      "##ubig": 6361,
      "##ibi": 6362,
      "##omos": 6363,
      "nakabase": 6364,
      "kasan": 6365,
      "bilangg": 6366,
      "maathag": 6367,
      "prakt": 6368,
      "tinawo": 6369,
      "abuso": 6370,
      "lumabas": 6371,
      "bulig": 6372,
      "ulumhan": 6373,
      "sarang": 6374,
      "nagdulot": 6375,
      "Panaligan": 6376,
      "nagalala": 6377,
      "nagaluntad": 6378,
      "libro": 6379,
      "popular": 6380,
      "Banal": 6381,
      "daang": 6382,
      "heneral": 6383,
      "studio": 6384,
      "Mayroong": 6385,
      "bersyon": 6386,
      "sangkap": 6387,
      "gitna": 6388,
      "Nintendo": 6389,
      "AD": 6390,
      "ID": 6391,
      "Los": 6392,
      "MA": 6393,
      "Nanay": 6394,
      "Paano": 6395,
      "bidyo": 6396,
      "##ny": 6397,
      "##nel": 6398,
      "##sh": 6399,
      "##3rd": 6400,
      "##angpan": 6401,
      "##akh": 6402,
      "##ilitaw": 6403,
      "##uway": 6404,
      "kamay": 6405,
      "##ehong": 6406,
      "tinaga": 6407,
      "##erbe": 6408,
      "disk": 6409,
      "relihiyos": 6410,
      "sinasabing": 6411,
      "distrito": 6412,
      "tiil": 6413,
      "Day": 6414,
      "Gina": 6415,
      "Ika": 6416,
      "Kay": 6417,
      "Lap": 6418,
      "Tel": 6419,
      "palag": 6420,
      "##mon": 6421,
      "##fa": 6422,
      "sapag": 6423,
      "##uke": 6424,
      "##ukon": 6425,
      "##emor": 6426,
      "##irma": 6427,
      "pinalitan": 6428,
      "nakaraang": 6429,
      "katao": 6430,
      "##aganihan": 6431,
      "Instit": 6432,
      "nagpa": 6433,
      "paghari": 6434,
      "Nagak": 6435,
      "nabuo": 6436,
      "##akatawan": 6437,
      "karaniwan": 6438,
      "sandig": 6439,
      "Aten": 6440,
      "##todok": 6441,
      "Cali": 6442,
      "Duha": 6443,
      "Juli": 6444,
      "bih": 6445,
      "gawi": 6446,
      "walong": 6447,
      "##gor": 6448,
      "##yus": 6449,
      "##ahm": 6450,
      "##abawan": 6451,
      "##usob": 6452,
      "Inter": 6453,
      "Anti": 6454,
      "nagapabilin": 6455,
      "konstruk": 6456,
      "isinas": 6457,
      "pangkatilingban": 6458,
      "##ower": 6459,
      "tunog": 6460,
      "Aklat": 6461,
      "buhis": 6462,
      "monopol": 6463,
      "sabihin": 6464,
      "##ugtanan": 6465,
      "Sinaunang": 6466,
      "Kristiyanismo": 6467,
      "Lubos": 6468,
      "Mr": 6469,
      "bandang": 6470,
      "high": 6471,
      "luwas": 6472,
      "mina": 6473,
      "network": 6474,
      "suno": 6475,
      "##nag": 6476,
      "##tle": 6477,
      "##win": 6478,
      "##yum": 6479,
      "##gap": 6480,
      "##alsik": 6481,
      "##ilaw": 6482,
      "##ominasyon": 6483,
      "pagpalapad": 6484,
      "##andan": 6485,
      "Union": 6486,
      "subs": 6487,
      "sekret": 6488,
      "obispo": 6489,
      "Ministro": 6490,
      "nagpapakita": 6491,
      "pilosopiya": 6492,
      "##alawigon": 6493,
      "Maaaring": 6494,
      "##ampalataya": 6495,
      "Bacolod": 6496,
      "munisipalidad": 6497,
      "Ber": 6498,
      "TV": 6499,
      "Uk": 6500,
      "bung": 6501,
      "buhi": 6502,
      "cons": 6503,
      "gt": 6504,
      "ha": 6505,
      "ham": 6506,
      "lalak": 6507,
      "lock": 6508,
      "tula": 6509,
      "##ced": 6510,
      "##AN": 6511,
      "##alah": 6512,
      "##alawa": 6513,
      "##akay": 6514,
      "##taon": 6515,
      "malalaking": 6516,
      "Marc": 6517,
      "##artsa": 6518,
      "paglikha": 6519,
      "mahusay": 6520,
      "estilo": 6521,
      "palap": 6522,
      "tagip": 6523,
      "deklar": 6524,
      "solusyon": 6525,
      "##eksuwal": 6526,
      "pagsusuri": 6527,
      "rekord": 6528,
      "plantasyon": 6529,
      "Filipino": 6530,
      "Trinidad": 6531,
      "Cel": 6532,
      "Kaya": 6533,
      "Olan": 6534,
      "dahon": 6535,
      "hulag": 6536,
      "publ": 6537,
      "talam": 6538,
      "##ior": 6539,
      "##ph": 6540,
      "##lu": 6541,
      "##ilway": 6542,
      "##erim": 6543,
      "##igugma": 6544,
      "##upog": 6545,
      "##iwasan": 6546,
      "kampanyang": 6547,
      "nagpas": 6548,
      "pangkaraniwang": 6549,
      "tungo": 6550,
      "mabat": 6551,
      "awto": 6552,
      "ipag": 6553,
      "##board": 6554,
      "kagaw": 6555,
      "nakikita": 6556,
      "Pandaigdigang": 6557,
      "etn": 6558,
      "##gamot": 6559,
      "maikling": 6560,
      "nangungunang": 6561,
      "AB": 6562,
      "Cav": 6563,
      "James": 6564,
      "be": 6565,
      "boto": 6566,
      "tion": 6567,
      "##ney": 6568,
      "##ative": 6569,
      "##uluhan": 6570,
      "##abton": 6571,
      "##ungon": 6572,
      "##ubok": 6573,
      "##rot": 6574,
      "anyong": 6575,
      "kasugtanan": 6576,
      "##obo": 6577,
      "##istika": 6578,
      "pagbagsak": 6579,
      "madaling": 6580,
      "ass": 6581,
      "Kaupod": 6582,
      "ipinap": 6583,
      "nabilin": 6584,
      "1997": 6585,
      "1998": 6586,
      "kilusang": 6587,
      "ginahimuslan": 6588,
      "sosyedad": 6589,
      "maghulag": 6590,
      "sikat": 6591,
      "NDF": 6592,
      "##ology": 6593,
      "pakikipagt": 6594,
      "organisasyong": 6595,
      "kakayahang": 6596,
      "Australia": 6597,
      "Bol": 6598,
      "Jac": 6599,
      "Me": 6600,
      "Sw": 6601,
      "Sar": 6602,
      "bibig": 6603,
      "puti": 6604,
      "naunang": 6605,
      "##ilabot": 6606,
      "inis": 6607,
      "##emo": 6608,
      "##tao": 6609,
      "kahuyangan": 6610,
      "##alangkas": 6611,
      "mahin": 6612,
      "kilo": 6613,
      "imperyalismo": 6614,
      "char": 6615,
      "propaganda": 6616,
      "espesye": 6617,
      "baboy": 6618,
      "korporasyon": 6619,
      "Jon": 6620,
      "Paagi": 6621,
      "Sig": 6622,
      "Toto": 6623,
      "od": 6624,
      "pitong": 6625,
      "tala": 6626,
      "##last": 6627,
      "##itimo": 6628,
      "istorya": 6629,
      "##oll": 6630,
      "##urn": 6631,
      "##ukle": 6632,
      "pangabuhi": 6633,
      "magpa": 6634,
      "##upo": 6635,
      "##oble": 6636,
      "kalagayan": 6637,
      "kalakasan": 6638,
      "langit": 6639,
      "trono": 6640,
      "##ernador": 6641,
      "##unity": 6642,
      "##unti": 6643,
      "##ende": 6644,
      "nakatanggap": 6645,
      "politika": 6646,
      "##portasyon": 6647,
      "Rebolusyon": 6648,
      "pangangailangan": 6649,
      "##amdaman": 6650,
      "Pacific": 6651,
      "gumanap": 6652,
      "sapagkat": 6653,
      "BK": 6654,
      "Nav": 6655,
      "Nestor": 6656,
      "doon": 6657,
      "gat": 6658,
      "lut": 6659,
      "land": 6660,
      "##wood": 6661,
      "##rel": 6662,
      "##hasa": 6663,
      "##RP": 6664,
      "##anga": 6665,
      "##abalik": 6666,
      "##ike": 6667,
      "##olbar": 6668,
      "##ipikasyon": 6669,
      "##ibusyon": 6670,
      "katoto": 6671,
      "##iwalang": 6672,
      "Inf": 6673,
      "ginapa": 6674,
      "##utol": 6675,
      "sakripisyo": 6676,
      "gumagawa": 6677,
      "libre": 6678,
      "panlabas": 6679,
      "Ipinanganak": 6680,
      "ibinigay": 6681,
      "##lobal": 6682,
      "karagdagang": 6683,
      "Gabriel": 6684,
      "Binal": 6685,
      "Babil": 6686,
      "Nam": 6687,
      "Red": 6688,
      "balik": 6689,
      "loh": 6690,
      "₱3": 6691,
      "##rid": 6692,
      "nauna": 6693,
      "##arat": 6694,
      "ginatawag": 6695,
      "##yop": 6696,
      "##ipad": 6697,
      "##iplang": 6698,
      "##ubha": 6699,
      "##utaan": 6700,
      "kasangk": 6701,
      "makin": 6702,
      "##iwaan": 6703,
      "kabudlayan": 6704,
      "kapaligiran": 6705,
      "kalusugan": 6706,
      "##ambing": 6707,
      "pagbub": 6708,
      "##akasal": 6709,
      "##ohol": 6710,
      "184": 6711,
      "pwede": 6712,
      "1972": 6713,
      "##ilbing": 6714,
      "Northern": 6715,
      "karagdagan": 6716,
      "midya": 6717,
      "Constant": 6718,
      "36": 6719,
      "Cagayan": 6720,
      "huna": 6721,
      "lunsay": 6722,
      "##tibo": 6723,
      "##laban": 6724,
      "##aliwan": 6725,
      "##enz": 6726,
      "##ipay": 6727,
      "##irst": 6728,
      "panloob": 6729,
      "##loy": 6730,
      "##oci": 6731,
      "##iver": 6732,
      "##igayunan": 6733,
      "produktong": 6734,
      "##ization": 6735,
      "obra": 6736,
      "kalaunang": 6737,
      "ambus": 6738,
      "spec": 6739,
      "##cience": 6740,
      "##entrong": 6741,
      "impluwensiya": 6742,
      "parangal": 6743,
      "Ako": 6744,
      "KM": 6745,
      "Sun": 6746,
      "bo": 6747,
      "dalaga": 6748,
      "ir": 6749,
      "ido": 6750,
      "##ws": 6751,
      "##ject": 6752,
      "##ull": 6753,
      "##erya": 6754,
      "##abog": 6755,
      "##awasak": 6756,
      "##ikay": 6757,
      "##imugang": 6758,
      "##olina": 6759,
      "inaas": 6760,
      "##okrat": 6761,
      "kapintas": 6762,
      "##apatan": 6763,
      "pagtinguha": 6764,
      "ikaduha": 6765,
      "##ambuhay": 6766,
      "ordin": 6767,
      "kadungan": 6768,
      "181": 6769,
      "operasyong": 6770,
      "papet": 6771,
      "malakolonyal": 6772,
      "modelo": 6773,
      "piso": 6774,
      "##eklara": 6775,
      "Imperyo": 6776,
      "Nagsimula": 6777,
      "pinaniniwala": 6778,
      "Do": 6779,
      "Fern": 6780,
      "Han": 6781,
      "Kyo": 6782,
      "Kilala": 6783,
      "Park": 6784,
      "Ste": 6785,
      "gitnang": 6786,
      "##ni": 6787,
      "##pus": 6788,
      "##sura": 6789,
      "##forn": 6790,
      "##ass": 6791,
      "##arka": 6792,
      "##abudlay": 6793,
      "##usong": 6794,
      "##okus": 6795,
      "masarangan": 6796,
      "##leto": 6797,
      "##iham": 6798,
      "##icol": 6799,
      "taas": 6800,
      "Ginak": 6801,
      "##uwang": 6802,
      "kinatawan": 6803,
      "2002": 6804,
      "##ultan": 6805,
      "Comp": 6806,
      "indep": 6807,
      "lokasyon": 6808,
      "espasyo": 6809,
      "##ermi": 6810,
      "buhok": 6811,
      "Vicente": 6812,
      "George": 6813,
      "komersyal": 6814,
      "##isayas": 6815,
      "gayundin": 6816,
      "Inglatera": 6817,
      "Californ": 6818,
      "38": 6819,
      "75": 6820,
      "Dom": 6821,
      "East": 6822,
      "Nay": 6823,
      "Salig": 6824,
      "We": 6825,
      "larong": 6826,
      "linggo": 6827,
      "uy": 6828,
      "##nie": 6829,
      "##bagan": 6830,
      "##bahin": 6831,
      "##oga": 6832,
      "##rado": 6833,
      "##yenda": 6834,
      "##angi": 6835,
      "##aguyod": 6836,
      "##arasak": 6837,
      "##ident": 6838,
      "##uportahan": 6839,
      "nakipag": 6840,
      "matat": 6841,
      "akadem": 6842,
      "kahigayunan": 6843,
      "alk": 6844,
      "##alakas": 6845,
      "mapig": 6846,
      "napas": 6847,
      "Agreement": 6848,
      "balor": 6849,
      "##anggal": 6850,
      "1999": 6851,
      "minilyon": 6852,
      "gamiton": 6853,
      "##ever": 6854,
      "nakikilala": 6855,
      "eksperim": 6856,
      "Lorna": 6857,
      "imbestigasyon": 6858,
      "79th": 6859,
      "awtoridad": 6860,
      "kongkreto": 6861,
      "Binalbagan": 6862,
      "California": 6863,
      "Dum": 6864,
      "Labi": 6865,
      "Nakita": 6866,
      "air": 6867,
      "baga": 6868,
      "eh": 6869,
      "emperador": 6870,
      "tabon": 6871,
      "##ix": 6872,
      "##TO": 6873,
      "##alili": 6874,
      "##ily": 6875,
      "##akil": 6876,
      "##ulupod": 6877,
      "##istr": 6878,
      "##isado": 6879,
      "##ingin": 6880,
      "makal": 6881,
      "mangang": 6882,
      "##ariang": 6883,
      "estadong": 6884,
      "bagyo": 6885,
      "salaysay": 6886,
      "singgit": 6887,
      "basi": 6888,
      "Pinak": 6889,
      "Organ": 6890,
      "tagapagt": 6891,
      "Makabayan": 6892,
      "katangiang": 6893,
      "tukuron": 6894,
      "Britanya": 6895,
      "dyip": 6896,
      "##anghelyo": 6897,
      "RCSP": 6898,
      "lockdown": 6899,
      "Daku": 6900,
      "Kam": 6901,
      "Lola": 6902,
      "Militar": 6903,
      "Up": 6904,
      "Visayas": 6905,
      "erop": 6906,
      "nukle": 6907,
      "punggan": 6908,
      "tani": 6909,
      "##wat": 6910,
      "##rans": 6911,
      "##cast": 6912,
      "##alyon": 6913,
      "##ulak": 6914,
      "paghanas": 6915,
      "##oth": 6916,
      "makit": 6917,
      "##antimp": 6918,
      "mai": 6919,
      "Ginah": 6920,
      "##iyano": 6921,
      "pagsasanay": 6922,
      "banas": 6923,
      "nagpapat": 6924,
      "adminis": 6925,
      "kritiko": 6926,
      "kritikal": 6927,
      "##asakop": 6928,
      "nasabing": 6929,
      "##iktik": 6930,
      "Pinakam": 6931,
      "comm": 6932,
      "##itnaan": 6933,
      "kompyuter": 6934,
      "tapuson": 6935,
      "Pangkal": 6936,
      "kondisyon": 6937,
      "37": 6938,
      "Huo": 6939,
      "Jean": 6940,
      "Nor": 6941,
      "Vir": 6942,
      "kuntani": 6943,
      "lalaking": 6944,
      "##ks": 6945,
      "##tanan": 6946,
      "##tana": 6947,
      "##yur": 6948,
      "##RT": 6949,
      "napan": 6950,
      "angot": 6951,
      "##ition": 6952,
      "##uligay": 6953,
      "##urong": 6954,
      "##urok": 6955,
      "##report": 6956,
      "malayang": 6957,
      "##ister": 6958,
      "##anti": 6959,
      "pasyente": 6960,
      "Arab": 6961,
      "sulit": 6962,
      "sakup": 6963,
      "Company": 6964,
      "bumuo": 6965,
      "Sining": 6966,
      "Hukbo": 6967,
      "medikal": 6968,
      "Base": 6969,
      "nagpatuloy": 6970,
      "Afric": 6971,
      "Angeles": 6972,
      "Mongol": 6973,
      "kalamidad": 6974,
      "kaagahon": 6975,
      "Saligang": 6976,
      "Off": 6977,
      "Task": 6978,
      "human": 6979,
      "luha": 6980,
      "put": 6981,
      "ped": 6982,
      "rit": 6983,
      "yadto": 6984,
      "##DP": 6985,
      "##ald": 6986,
      "##indi": 6987,
      "##asura": 6988,
      "##ayap": 6989,
      "##abal": 6990,
      "##top": 6991,
      "##oridad": 6992,
      "##diya": 6993,
      "naganap": 6994,
      "altern": 6995,
      "nangyari": 6996,
      "pinakama": 6997,
      "##amangkot": 6998,
      "mahal": 6999,
      "mahabang": 7000,
      "napilasan": 7001,
      "##insang": 7002,
      "nagapadayon": 7003,
      "pangunahon": 7004,
      "1991": 7005,
      "gumamit": 7006,
      "Masobra": 7007,
      "kolehiyo": 7008,
      "ent": 7009,
      "Paris": 7010,
      "Kanlurang": 7011,
      "##ungganon": 7012,
      "Colle": 7013,
      "Paul": 7014,
      "petsa": 7015,
      "sundalo": 7016,
      "Record": 7017,
      "Aquino": 7018,
      "##usalem": 7019,
      "39": 7020,
      "Bur": 7021,
      "Dayon": 7022,
      "Mc": 7023,
      "gabi": 7024,
      "malain": 7025,
      "puso": 7026,
      "##ding": 7027,
      "##IP": 7028,
      "##onan": 7029,
      "##arating": 7030,
      "##ilong": 7031,
      "##iping": 7032,
      "pangyayari": 7033,
      "pamahalaang": 7034,
      "pagkam": 7035,
      "katawhan": 7036,
      "##antaw": 7037,
      "kalamay": 7038,
      "alyansa": 7039,
      "pagsal": 7040,
      "##alakal": 7041,
      "impl": 7042,
      "##ival": 7043,
      "suliran": 7044,
      "##igante": 7045,
      "nabub": 7046,
      "##ueva": 7047,
      "##ulagon": 7048,
      "konsol": 7049,
      "##uthang": 7050,
      "proyektong": 7051,
      "daantaon": 7052,
      "Griyegong": 7053,
      "General": 7054,
      "tradisyonal": 7055,
      "kundisyon": 7056,
      "katayuan": 7057,
      "Ama": 7058,
      "It": 7059,
      "Map": 7060,
      "diy": 7061,
      "handa": 7062,
      "legal": 7063,
      "mens": 7064,
      "tila": 7065,
      "##ning": 7066,
      "##ror": 7067,
      "##onel": 7068,
      "##uki": 7069,
      "pangd": 7070,
      "pagkaraan": 7071,
      "maip": 7072,
      "Martin": 7073,
      "prim": 7074,
      "##eguro": 7075,
      "##araniwan": 7076,
      "binigyan": 7077,
      "tagapang": 7078,
      "nagahatag": 7079,
      "Pangulong": 7080,
      "##ostol": 7081,
      "##berg": 7082,
      "bukas": 7083,
      "perman": 7084,
      "temp": 7085,
      "metal": 7086,
      "kalagitnaan": 7087,
      "panimalay": 7088,
      "Ara": 7089,
      "Eli": 7090,
      "Gum": 7091,
      "Kalak": 7092,
      "Ne": 7093,
      "by": 7094,
      "susunod": 7095,
      "##tar": 7096,
      "##hel": 7097,
      "##chi": 7098,
      "##xas": 7099,
      "##LA": 7100,
      "##anib": 7101,
      "sap": 7102,
      "##alok": 7103,
      "##aliwanag": 7104,
      "##ining": 7105,
      "##inaw": 7106,
      "##itio": 7107,
      "##isy": 7108,
      "##ikot": 7109,
      "##usog": 7110,
      "##elang": 7111,
      "##ilanggo": 7112,
      "manok": 7113,
      "##agandang": 7114,
      "##angka": 7115,
      "mababa": 7116,
      "salin": 7117,
      "##ulturang": 7118,
      "pagdating": 7119,
      "150": 7120,
      "Korte": 7121,
      "artikulo": 7122,
      "pagtatalik": 7123,
      "henerasyon": 7124,
      "paghahari": 7125,
      "Palestino": 7126,
      "Micha": 7127,
      "siyentipiko": 7128,
      "Defense": 7129,
      "kaganapan": 7130,
      "Olimpiko": 7131,
      "54": 7132,
      "Ko": 7133,
      "Ven": 7134,
      "haba": 7135,
      "kang": 7136,
      "##vent": 7137,
      "##ale": 7138,
      "##ont": 7139,
      "##akpan": 7140,
      "##ahalagang": 7141,
      "##ose": 7142,
      "siyudad": 7143,
      "##idungog": 7144,
      "nagaganap": 7145,
      "kamaka": 7146,
      "pinakas": 7147,
      "##ampo": 7148,
      "Negrosanon": 7149,
      "bulak": 7150,
      "1994": 7151,
      "1995": 7152,
      "papunta": 7153,
      "pananakop": 7154,
      "gintukod": 7155,
      "##ilogan": 7156,
      "Ortodok": 7157,
      "Music": 7158,
      "Nagkaroon": 7159,
      "literal": 7160,
      "ubos": 7161,
      "kapaslawan": 7162,
      "pusil": 7163,
      "kapanahunan": 7164,
      "61": 7165,
      "90": 7166,
      "Bukod": 7167,
      "High": 7168,
      "Lo": 7169,
      "Nakat": 7170,
      "bir": 7171,
      "normal": 7172,
      "talaan": 7173,
      "##wer": 7174,
      "##alon": 7175,
      "##ated": 7176,
      "sanglit": 7177,
      "paggin": 7178,
      "##abuton": 7179,
      "##umo": 7180,
      "##tot": 7181,
      "nagw": 7182,
      "anum": 7183,
      "sinundan": 7184,
      "katan": 7185,
      "katilingban": 7186,
      "##ugat": 7187,
      "kinikilala": 7188,
      "##alayo": 7189,
      "paglalakbay": 7190,
      "patung": 7191,
      "##alikha": 7192,
      "sumali": 7193,
      "samahan": 7194,
      "bangg": 7195,
      "kakugmat": 7196,
      "agad": 7197,
      "Republikang": 7198,
      "selula": 7199,
      "impluwensya": 7200,
      "Heneral": 7201,
      "nabatian": 7202,
      "posibleng": 7203,
      "Rodrigo": 7204,
      "Prinsipe": 7205,
      "Michael": 7206,
      "Aug": 7207,
      "Amb": 7208,
      "KA": 7209,
      "UK": 7210,
      "War": 7211,
      "ebolusyon": 7212,
      "form": 7213,
      "pula": 7214,
      "##conom": 7215,
      "##dom": 7216,
      "say": 7217,
      "##ilag": 7218,
      "##amas": 7219,
      "##ulsol": 7220,
      "##erbat": 7221,
      "pangga": 7222,
      "maghimo": 7223,
      "ani": 7224,
      "mainit": 7225,
      "##ersen": 7226,
      "tinatayang": 7227,
      "pangkultura": 7228,
      "magad": 7229,
      "umalis": 7230,
      "rehiyong": 7231,
      "1960": 7232,
      "ganap": 7233,
      "kapangyarihang": 7234,
      "Academ": 7235,
      "bakuna": 7236,
      "##akamala": 7237,
      "Cruz": 7238,
      "##lectr": 7239,
      "malawig": 7240,
      "Francisco": 7241,
      "tanggapan": 7242,
      "Alexand": 7243,
      "ED": 7244,
      "bomb": 7245,
      "day": 7246,
      "hard": 7247,
      "out": 7248,
      "pirme": 7249,
      "stat": 7250,
      "social": 7251,
      "##yero": 7252,
      "##yenteng": 7253,
      "##ange": 7254,
      "##inabang": 7255,
      "angut": 7256,
      "##ahen": 7257,
      "##abugal": 7258,
      "sinulat": 7259,
      "kabalayan": 7260,
      "akus": 7261,
      "Ginas": 7262,
      "##igaw": 7263,
      "##egorya": 7264,
      "tinut": 7265,
      "paglabas": 7266,
      "kadutaan": 7267,
      "napat": 7268,
      "##angkat": 7269,
      "palat": 7270,
      "##awagang": 7271,
      "##inding": 7272,
      "Manang": 7273,
      "Act": 7274,
      "Indones": 7275,
      "Awards": 7276,
      "diktador": 7277,
      "quark": 7278,
      "klima": 7279,
      "Labanan": 7280,
      "nagakaigo": 7281,
      "pundasyon": 7282,
      "eroplano": 7283,
      "53": 7284,
      "Hot": 7285,
      "Kum": 7286,
      "MCC": 7287,
      "Tor": 7288,
      "rom": 7289,
      "##ct": 7290,
      "##ds": 7291,
      "##onic": 7292,
      "##aralang": 7293,
      "##iti": 7294,
      "##esh": 7295,
      "##ode": 7296,
      "ginaga": 7297,
      "##ibidad": 7298,
      "##util": 7299,
      "pagpili": 7300,
      "##eder": 7301,
      "##edya": 7302,
      "ala": 7303,
      "pagbalik": 7304,
      "nagbalik": 7305,
      "magkat": 7306,
      "dalub": 7307,
      "ginhatag": 7308,
      "ginatos": 7309,
      "1945": 7310,
      "direktor": 7311,
      "Andre": 7312,
      "Rusya": 7313,
      "bituin": 7314,
      "panitikan": 7315,
      "Singap": 7316,
      "lalake": 7317,
      "mapiguson": 7318,
      "47": 7319,
      "Gold": 7320,
      "Nar": 7321,
      "Rog": 7322,
      "UN": 7323,
      "Wal": 7324,
      "Walang": 7325,
      "dami": 7326,
      "lag": 7327,
      "##az": 7328,
      "##cia": 7329,
      "##gad": 7330,
      "##unyag": 7331,
      "##usuon": 7332,
      "##uks": 7333,
      "##andig": 7334,
      "kalidad": 7335,
      "kalaban": 7336,
      "kadagatan": 7337,
      "astr": 7338,
      "lumilitaw": 7339,
      "##lass": 7340,
      "1992": 7341,
      "Estado": 7342,
      "pahulagon": 7343,
      "post": 7344,
      "Magluwas": 7345,
      "Batangas": 7346,
      "santo": 7347,
      "1969": 7348,
      "##berto": 7349,
      "kurso": 7350,
      "Canada": 7351,
      "Daigdig": 7352,
      "katutubo": 7353,
      "Maaari": 7354,
      "kopya": 7355,
      "balaklon": 7356,
      "##impluwens": 7357,
      "abdak": 7358,
      "College": 7359,
      "Cab": 7360,
      "Pak": 7361,
      "Sultan": 7362,
      "Ubal": 7363,
      "Vil": 7364,
      "gu": 7365,
      "ipa": 7366,
      "itaas": 7367,
      "mik": 7368,
      "minsang": 7369,
      "wasak": 7370,
      "##ii": 7371,
      "##cy": 7372,
      "##dahan": 7373,
      "##20": 7374,
      "##ón": 7375,
      "##unl": 7376,
      "##unal": 7377,
      "##entaryo": 7378,
      "panun": 7379,
      "manip": 7380,
      "katawagang": 7381,
      "makina": 7382,
      "maabot": 7383,
      "unod": 7384,
      "pagtatayo": 7385,
      "batalyon": 7386,
      "##alaysay": 7387,
      "paglalarawan": 7388,
      "mahalaga": 7389,
      "paslaw": 7390,
      "naglabas": 7391,
      "##ampad": 7392,
      "organismo": 7393,
      "namang": 7394,
      "ipakita": 7395,
      "ululupod": 7396,
      "inilarawan": 7397,
      "##ustuhan": 7398,
      "Sinabi": 7399,
      "Kore": 7400,
      "nagapamuno": 7401,
      "Turk": 7402,
      "palaabuton": 7403,
      "arkitekt": 7404,
      "progresibo": 7405,
      "empleyado": 7406,
      "Alejandro": 7407,
      "sekretaryo": 7408,
      "deklarasyon": 7409,
      "##ayapaan": 7410,
      "Liwat": 7411,
      "Lou": 7412,
      "On": 7413,
      "Sab": 7414,
      "Sitio": 7415,
      "dim": 7416,
      "iyahan": 7417,
      "solo": 7418,
      "wel": 7419,
      "##pit": 7420,
      "##alupok": 7421,
      "##ustin": 7422,
      "##igi": 7423,
      "nagpang": 7424,
      "##trasyon": 7425,
      "pina": 7426,
      "maki": 7427,
      "Mary": 7428,
      "##iyak": 7429,
      "##raine": 7430,
      "madam": 7431,
      "asos": 7432,
      "pagpanguna": 7433,
      "lumang": 7434,
      "balig": 7435,
      "##abatyag": 7436,
      "apektado": 7437,
      "##aryado": 7438,
      "##ungkulan": 7439,
      "Ikaw": 7440,
      "Carlos": 7441,
      "direktang": 7442,
      "silingon": 7443,
      "pinakadaku": 7444,
      "baybayin": 7445,
      "dagway": 7446,
      "sampung": 7447,
      "nauugnay": 7448,
      "Hudyo": 7449,
      "34": 7450,
      "400": 7451,
      "CB": 7452,
      "IV": 7453,
      "Kong": 7454,
      "Was": 7455,
      "higante": 7456,
      "igin": 7457,
      "##uok": 7458,
      "##vin": 7459,
      "##can": 7460,
      "##alasan": 7461,
      "nahimo": 7462,
      "##ipo": 7463,
      "##iper": 7464,
      "##ipik": 7465,
      "kaim": 7466,
      "##urity": 7467,
      "##ukuha": 7468,
      "nagawa": 7469,
      "pagpup": 7470,
      "##bolb": 7471,
      "kamag": 7472,
      "##alaya": 7473,
      "patarasak": 7474,
      "opisina": 7475,
      "kombat": 7476,
      "mapatay": 7477,
      "##lawas": 7478,
      "Chin": 7479,
      "Abenida": 7480,
      "##asaad": 7481,
      "##uct": 7482,
      "nangangailangan": 7483,
      "pangpubliko": 7484,
      "tempor": 7485,
      "##agmay": 7486,
      "dinastiya": 7487,
      "utak": 7488,
      "Love": 7489,
      "Ath": 7490,
      "Biy": 7491,
      "Dal": 7492,
      "Nal": 7493,
      "Um": 7494,
      "buto": 7495,
      "histor": 7496,
      "kem": 7497,
      "mersen": 7498,
      "sugod": 7499,
      "##by": 7500,
      "##pas": 7501,
      "##col": 7502,
      "sayop": 7503,
      "##asama": 7504,
      "##itabo": 7505,
      "##abok": 7506,
      "##ikit": 7507,
      "##uguon": 7508,
      "matagal": 7509,
      "##edy": 7510,
      "pagtit": 7511,
      "##ambi": 7512,
      "pagbuo": 7513,
      "pinakawalan": 7514,
      "bahaging": 7515,
      "##astigo": 7516,
      "185": 7517,
      "operey": 7518,
      "umu": 7519,
      "minimum": 7520,
      "Masbat": 7521,
      "Madugay": 7522,
      "##umbalik": 7523,
      "pumasok": 7524,
      "Demokrat": 7525,
      "temper": 7526,
      "kabuuan": 7527,
      "pamilyang": 7528,
      "Buen": 7529,
      "Kim": 7530,
      "Luyag": 7531,
      "bot": 7532,
      "hul": 7533,
      "ing": 7534,
      "pot": 7535,
      "teksto": 7536,
      "##kuk": 7537,
      "##we": 7538,
      "##rut": 7539,
      "##haw": 7540,
      "naa": 7541,
      "##abwag": 7542,
      "##umunuan": 7543,
      "##awasan": 7544,
      "##iguro": 7545,
      "ginawang": 7546,
      "##ibabawan": 7547,
      "kanlurang": 7548,
      "##irl": 7549,
      "##iron": 7550,
      "##opter": 7551,
      "aralan": 7552,
      "hinali": 7553,
      "hinirang": 7554,
      "pagbakal": 7555,
      "tubtub": 7556,
      "Maayo": 7557,
      "siguro": 7558,
      "saring": 7559,
      "##ineer": 7560,
      "gintalana": 7561,
      "probinsya": 7562,
      "kaangot": 7563,
      "transportasyon": 7564,
      "arke": 7565,
      "dokumento": 7566,
      "materyales": 7567,
      "Victor": 7568,
      "paligid": 7569,
      "Reyes": 7570,
      "estratehikong": 7571,
      "duog": 7572,
      "gingamit": 7573,
      "kantidad": 7574,
      "inisyat": 7575,
      "CO": 7576,
      "Camb": 7577,
      "Haring": 7578,
      "Kh": 7579,
      "Lang": 7580,
      "Pi": 7581,
      "km": 7582,
      "reklamo": 7583,
      "sust": 7584,
      "##rus": 7585,
      "##dy": 7586,
      "##fic": 7587,
      "##OC": 7588,
      "##jo": 7589,
      "##ES": 7590,
      "nayon": 7591,
      "##atro": 7592,
      "##amento": 7593,
      "##ahero": 7594,
      "##umahan": 7595,
      "##une": 7596,
      "##igon": 7597,
      "pins": 7598,
      "masaker": 7599,
      "##upaktura": 7600,
      "##ayanang": 7601,
      "prente": 7602,
      "##kons": 7603,
      "##ansiya": 7604,
      "bahag": 7605,
      "napa": 7606,
      "ginpagwa": 7607,
      "pagpangd": 7608,
      "Alb": 7609,
      "##baton": 7610,
      "##umpo": 7611,
      "magkaka": 7612,
      "##ave": 7613,
      "super": 7614,
      "papa": 7615,
      "programang": 7616,
      "gindakop": 7617,
      "##ware": 7618,
      "tawhanong": 7619,
      "puwersa": 7620,
      "represent": 7621,
      "nagmum": 7622,
      "kapasidad": 7623,
      "##ahintulot": 7624,
      "talamnan": 7625,
      "Academy": 7626,
      "To": 7627,
      "bast": 7628,
      "dro": 7629,
      "dipl": 7630,
      "emb": 7631,
      "gul": 7632,
      "iisip": 7633,
      "liham": 7634,
      "nega": 7635,
      "##line": 7636,
      "##uyon": 7637,
      "##araming": 7638,
      "##eria": 7639,
      "##ukha": 7640,
      "##etisyon": 7641,
      "makipag": 7642,
      "kaluoy": 7643,
      "unti": 7644,
      "pagsul": 7645,
      "agum": 7646,
      "trib": 7647,
      "Pagb": 7648,
      "mamatay": 7649,
      "##ampa": 7650,
      "magab": 7651,
      "awan": 7652,
      "Abr": 7653,
      "komunikasyon": 7654,
      "##even": 7655,
      "Kasunod": 7656,
      "##abawal": 7657,
      "kolum": 7658,
      "Europe": 7659,
      "Karamihan": 7660,
      "imahen": 7661,
      "sosyo": 7662,
      "Bansa": 7663,
      "pangmalawigon": 7664,
      "Kapulungan": 7665,
      "Ilabi": 7666,
      "nadula": 7667,
      "istasyon": 7668,
      "Associ": 7669,
      "Dinast": 7670,
      "menor": 7671,
      "Tokyo": 7672,
      "London": 7673,
      "##lastar": 7674,
      "Singapore": 7675,
      "Dagat": 7676,
      "Gob": 7677,
      "Network": 7678,
      "Rich": 7679,
      "don": 7680,
      "damd": 7681,
      "lalong": 7682,
      "pip": 7683,
      "tay": 7684,
      "##lian": 7685,
      "##rol": 7686,
      "##rek": 7687,
      "##ze": 7688,
      "##angat": 7689,
      "##akus": 7690,
      "##ungka": 7691,
      "##yot": 7692,
      "##iparan": 7693,
      "##ugtong": 7694,
      "##uhod": 7695,
      "paa": 7696,
      "##etikong": 7697,
      "kasunduan": 7698,
      "Ina": 7699,
      "##ego": 7700,
      "##tero": 7701,
      "pagsulod": 7702,
      "##uhaon": 7703,
      "pagla": 7704,
      "##ebenta": 7705,
      "mapas": 7706,
      "naglalarawan": 7707,
      "tubo": 7708,
      "tuo": 7709,
      "nagapad": 7710,
      "##apasok": 7711,
      "Commission": 7712,
      "##akigbato": 7713,
      "Adlaw": 7714,
      "pagpasurender": 7715,
      "pagpasilabot": 7716,
      "simbahang": 7717,
      "Alec": 7718,
      "Kahit": 7719,
      "##ibangdan": 7720,
      "kapalibutan": 7721,
      "Leninismo": 7722,
      "Laguna": 7723,
      "Antonio": 7724,
      "Bukidnon": 7725,
      "Chinese": 7726,
      "Cha": 7727,
      "Den": 7728,
      "Ep": 7729,
      "Gres": 7730,
      "Ip": 7731,
      "Kir": 7732,
      "Sip": 7733,
      "Serb": 7734,
      "Wikang": 7735,
      "dali": 7736,
      "dron": 7737,
      "gwa": 7738,
      "hur": 7739,
      "##tuan": 7740,
      "##hatag": 7741,
      "##itud": 7742,
      "##ahaw": 7743,
      "##apoy": 7744,
      "##ipikong": 7745,
      "##uho": 7746,
      "kaswal": 7747,
      "##reen": 7748,
      "##iyasat": 7749,
      "halalan": 7750,
      "pagsaway": 7751,
      "Pilipinong": 7752,
      "##undenar": 7753,
      "##arth": 7754,
      "patri": 7755,
      "madali": 7756,
      "binibig": 7757,
      "nagapa": 7758,
      "##anais": 7759,
      "##alint": 7760,
      "Asir": 7761,
      "posibilidad": 7762,
      "Trans": 7763,
      "combat": 7764,
      "##anganakan": 7765,
      "himata": 7766,
      "manggagawa": 7767,
      "negosyante": 7768,
      "nakasulat": 7769,
      "terminong": 7770,
      "Billboard": 7771,
      "Kagawaran": 7772,
      "##fael": 7773,
      "Institute": 7774,
      "tagipusuon": 7775,
      "katotohanan": 7776,
      "baligya": 7777,
      "Bab": 7778,
      "Didto": 7779,
      "Fac": 7780,
      "Jud": 7781,
      "Mig": 7782,
      "Wes": 7783,
      "Women": 7784,
      "bulong": 7785,
      "dalaw": 7786,
      "han": 7787,
      "her": 7788,
      "hap": 7789,
      "##sya": 7790,
      "##rim": 7791,
      "##car": 7792,
      "##yernong": 7793,
      "##agway": 7794,
      "##atiko": 7795,
      "##ilia": 7796,
      "##adya": 7797,
      "##abl": 7798,
      "##awas": 7799,
      "inos": 7800,
      "kaumahan": 7801,
      "kaniya": 7802,
      "ibuyagyag": 7803,
      "prenteng": 7804,
      "kalap": 7805,
      "alyado": 7806,
      "##ters": 7807,
      "pagsulat": 7808,
      "Antes": 7809,
      "##unsyo": 7810,
      "sumus": 7811,
      "ipinakilala": 7812,
      "Ash": 7813,
      "minahan": 7814,
      "minorya": 7815,
      "aktwal": 7816,
      "nanatili": 7817,
      "Kristo": 7818,
      "Bank": 7819,
      "pagsasama": 7820,
      "Inday": 7821,
      "Maoismo": 7822,
      "Rafael": 7823,
      "gawin": 7824,
      "responsable": 7825,
      "Abraham": 7826,
      "Fu": 7827,
      "His": 7828,
      "Tatlo": 7829,
      "Yo": 7830,
      "film": 7831,
      "talagang": 7832,
      "##test": 7833,
      "##yas": 7834,
      "##agr": 7835,
      "naip": 7836,
      "##its": 7837,
      "##isismo": 7838,
      "##ibaka": 7839,
      "anom": 7840,
      "##oko": 7841,
      "sinimulan": 7842,
      "##iliug": 7843,
      "pagpangabuhi": 7844,
      "Pagl": 7845,
      "koord": 7846,
      "##asakit": 7847,
      "##erba": 7848,
      "pulitikal": 7849,
      "aktibong": 7850,
      "music": 7851,
      "Kanyang": 7852,
      "Minyong": 7853,
      "seryeng": 7854,
      "teoriyang": 7855,
      "depensa": 7856,
      "nakikipag": 7857,
      "pinamunuan": 7858,
      "Basi": 7859,
      "Blg": 7860,
      "German": 7861,
      "Robert": 7862,
      "Tubtob": 7863,
      "Kilusang": 7864,
      "42": 7865,
      "Bum": 7866,
      "Kaban": 7867,
      "Mand": 7868,
      "Nil": 7869,
      "Naka": 7870,
      "Ren": 7871,
      "Stok": 7872,
      "Tang": 7873,
      "Win": 7874,
      "digmaang": 7875,
      "harap": 7876,
      "lawak": 7877,
      "ubay": 7878,
      "##str": 7879,
      "##yuhum": 7880,
      "##anyon": 7881,
      "##amahan": 7882,
      "##erte": 7883,
      "##abanan": 7884,
      "##esong": 7885,
      "##igang": 7886,
      "##ott": 7887,
      "pinatay": 7888,
      "pinili": 7889,
      "Ginpang": 7890,
      "kahang": 7891,
      "##chn": 7892,
      "##abanggit": 7893,
      "ginapanag": 7894,
      "diutay": 7895,
      "Agu": 7896,
      "hilway": 7897,
      "pagkakak": 7898,
      "##tatalik": 7899,
      "1988": 7900,
      "naghatag": 7901,
      "dumad": 7902,
      "##ologo": 7903,
      "pangkalahatan": 7904,
      "Daang": 7905,
      "Malaysia": 7906,
      "ugnayang": 7907,
      "kwarto": 7908,
      "pamantayan": 7909,
      "Kingdom": 7910,
      "instrumento": 7911,
      "natitirang": 7912,
      "##aypanan": 7913,
      "espiritu": 7914,
      "kemikal": 7915,
      "Masbate": 7916,
      "Gresya": 7917,
      "Miguel": 7918,
      "85": 7919,
      "99": 7920,
      "AS": 7921,
      "Balik": 7922,
      "Ding": 7923,
      "Hind": 7924,
      "My": 7925,
      "Nations": 7926,
      "Pon": 7927,
      "kulturang": 7928,
      "lahi": 7929,
      "sentrong": 7930,
      "₱4": 7931,
      "##likasyon": 7932,
      "##sahan": 7933,
      "##TA": 7934,
      "##atom": 7935,
      "##iteng": 7936,
      "##agamo": 7937,
      "##igting": 7938,
      "##elig": 7939,
      "pagpad": 7940,
      "##tres": 7941,
      "pantao": 7942,
      "konstitusyon": 7943,
      "kapigad": 7944,
      "kalayo": 7945,
      "##ugali": 7946,
      "##agana": 7947,
      "alsa": 7948,
      "##tanggap": 7949,
      "##heng": 7950,
      "paglal": 7951,
      "Alf": 7952,
      "nagtaliwan": 7953,
      "nagkak": 7954,
      "bulawan": 7955,
      "paghimo": 7956,
      "upisina": 7957,
      "##indog": 7958,
      "1985": 7959,
      "kilusan": 7960,
      "pahayagan": 7961,
      "##alukpan": 7962,
      "ginsug": 7963,
      "gindala": 7964,
      "kinaiyahan": 7965,
      "Kapitan": 7966,
      "internasyonal": 7967,
      "klasikong": 7968,
      "pinamumunuan": 7969,
      "balatian": 7970,
      "Gregor": 7971,
      "hitabo": 7972,
      "moral": 7973,
      "kasanayan": 7974,
      "Ukraine": 7975,
      "Bis": 7976,
      "Chan": 7977,
      "Hong": 7978,
      "Karaniwang": 7979,
      "Mis": 7980,
      "field": 7981,
      "host": 7982,
      "school": 7983,
      "##wayon": 7984,
      "##van": 7985,
      "##asiya": 7986,
      "##osis": 7987,
      "##oduk": 7988,
      "##ubas": 7989,
      "ref": 7990,
      "panuk": 7991,
      "##ihon": 7992,
      "kast": 7993,
      "kasaypanan": 7994,
      "katedral": 7995,
      "kalalak": 7996,
      "##alanang": 7997,
      "##alagman": 7998,
      "mabug": 7999,
      "##ulture": 8000,
      "pagpamahug": 8001,
      "##ektibong": 8002,
      "##agdan": 8003,
      "Joseph": 8004,
      "agraryo": 8005,
      "##inggit": 8006,
      "importante": 8007,
      "Lucas": 8008,
      "Herusalem": 8009,
      "##uncil": 8010,
      "diktadurya": 8011,
      "##ikayat": 8012,
      "nabubuhay": 8013,
      "welga": 8014,
      "Buenav": 8015,
      "kapigaduhon": 8016,
      "Hom": 8017,
      "Iran": 8018,
      "Po": 8019,
      "Ul": 8020,
      "gang": 8021,
      "har": 8022,
      "hawak": 8023,
      "lun": 8024,
      "pes": 8025,
      "tort": 8026,
      "toto": 8027,
      "##wiran": 8028,
      "##sob": 8029,
      "##den": 8030,
      "##30": 8031,
      "##ulom": 8032,
      "##ahim": 8033,
      "##abunan": 8034,
      "##iksiyon": 8035,
      "##elio": 8036,
      "ilinit": 8037,
      "##irapan": 8038,
      "reh": 8039,
      "nakaka": 8040,
      "##reo": 8041,
      "malig": 8042,
      "##ility": 8043,
      "kalahati": 8044,
      "##lav": 8045,
      "180": 8046,
      "nagtapos": 8047,
      "magamit": 8048,
      "##ayao": 8049,
      "saklaw": 8050,
      "Katedral": 8051,
      "##uction": 8052,
      "konserbat": 8053,
      "naghalin": 8054,
      "pinagb": 8055,
      "1950": 8056,
      "nawala": 8057,
      "doktor": 8058,
      "ninuno": 8059,
      "Talambuhay": 8060,
      "Sandig": 8061,
      "kalakalan": 8062,
      "pagpamatuk": 8063,
      "Charles": 8064,
      "palaparon": 8065,
      "ritwal": 8066,
      "droga": 8067,
      "Association": 8068,
      "48": 8069,
      "46": 8070,
      "Cas": 8071,
      "Viet": 8072,
      "baganihan": 8073,
      "damit": 8074,
      "mult": 8075,
      "nominasyon": 8076,
      "ros": 8077,
      "tulay": 8078,
      "with": 8079,
      "##ux": 8080,
      "##uong": 8081,
      "##79": 8082,
      "##ares": 8083,
      "##arta": 8084,
      "##amahala": 8085,
      "pagn": 8086,
      "##erong": 8087,
      "##unawaan": 8088,
      "##ingi": 8089,
      "##ingo": 8090,
      "atom": 8091,
      "##ory": 8092,
      "##usin": 8093,
      "##usap": 8094,
      "##ungdan": 8095,
      "##urt": 8096,
      "##ution": 8097,
      "pagpabaskog": 8098,
      "##upong": 8099,
      "malinaw": 8100,
      "##ster": 8101,
      "Ginad": 8102,
      "tinuig": 8103,
      "maharl": 8104,
      "naglunsar": 8105,
      "binago": 8106,
      "sumas": 8107,
      "##ormang": 8108,
      "Nagab": 8109,
      "IBPA": 8110,
      "##eyds": 8111,
      "namuno": 8112,
      "pagdum": 8113,
      "Manuel": 8114,
      "suportahan": 8115,
      "inilathala": 8116,
      "160": 8117,
      "itlog": 8118,
      "pagmasaker": 8119,
      "pagbabagong": 8120,
      "pangmilitar": 8121,
      "Pampang": 8122,
      "Italyano": 8123,
      "Lumad": 8124,
      "propesor": 8125,
      "sobrang": 8126,
      "ebidensya": 8127,
      "##robers": 8128,
      "##alibad": 8129,
      "palaging": 8130,
      "Africa": 8131,
      "mensahe": 8132,
      "drone": 8133,
      "72": 8134,
      "Bi": 8135,
      "DO": 8136,
      "God": 8137,
      "Gusto": 8138,
      "aari": 8139,
      "dig": 8140,
      "ganan": 8141,
      "gaan": 8142,
      "haring": 8143,
      "ipatuman": 8144,
      "tim": 8145,
      "##sen": 8146,
      "##hat": 8147,
      "##hou": 8148,
      "##gay": 8149,
      "##onang": 8150,
      "sanggol": 8151,
      "##ings": 8152,
      "isp": 8153,
      "##ipags": 8154,
      "rebolusyong": 8155,
      "mayorya": 8156,
      "panindugan": 8157,
      "##redo": 8158,
      "##ambo": 8159,
      "tinanggap": 8160,
      "mahangpan": 8161,
      "kumand": 8162,
      "imper": 8163,
      "bintana": 8164,
      "##asaklaw": 8165,
      "##umpleto": 8166,
      "##igana": 8167,
      "America": 8168,
      "1984": 8169,
      "1989": 8170,
      "##overn": 8171,
      "atubangon": 8172,
      "##umber": 8173,
      "Sinas": 8174,
      "303rd": 8175,
      "imin": 8176,
      "maghatag": 8177,
      "Naz": 8178,
      "prosesong": 8179,
      "##edic": 8180,
      "makasaysayang": 8181,
      "titik": 8182,
      "titulo": 8183,
      "puwesto": 8184,
      "##hington": 8185,
      "nobela": 8186,
      "Region": 8187,
      "pangkasarian": 8188,
      "debut": 8189,
      "British": 8190,
      "desperado": 8191,
      "molek": 8192,
      "49": 8193,
      "600": 8194,
      "Bos": 8195,
      "Esp": 8196,
      "Ha": 8197,
      "Rol": 8198,
      "Rub": 8199,
      "Ruso": 8200,
      "cha": 8201,
      "hulot": 8202,
      "nya": 8203,
      "pit": 8204,
      "pulang": 8205,
      "permi": 8206,
      "##lok": 8207,
      "##song": 8208,
      "##anang": 8209,
      "##onyo": 8210,
      "##aster": 8211,
      "##asiwaan": 8212,
      "##itikang": 8213,
      "##ampang": 8214,
      "##aksiyon": 8215,
      "##adcast": 8216,
      "##eny": 8217,
      "##ipe": 8218,
      "kaisog": 8219,
      "pangl": 8220,
      "param": 8221,
      "pagpataas": 8222,
      "pampang": 8223,
      "##iwas": 8224,
      "alin": 8225,
      "pagtatag": 8226,
      "##ambak": 8227,
      "##yanong": 8228,
      "paglil": 8229,
      "paglipat": 8230,
      "mahibal": 8231,
      "##amatuod": 8232,
      "##uyatan": 8233,
      "Agud": 8234,
      "saka": 8235,
      "Maur": 8236,
      "Phil": 8237,
      "1996": 8238,
      "##uck": 8239,
      "nalista": 8240,
      "Palarong": 8241,
      "pagpasulong": 8242,
      "##ondenar": 8243,
      "##eklam": 8244,
      "Tinatawag": 8245,
      "nakabatay": 8246,
      "pribado": 8247,
      "Black": 8248,
      "maisog": 8249,
      "Plac": 8250,
      "ginalunsar": 8251,
      "proletaryado": 8252,
      "##ransak": 8253,
      "Washington": 8254,
      "diplom": 8255,
      "Buenavista": 8256,
      "Bob": 8257,
      "Ev": 8258,
      "Makat": 8259,
      "Moro": 8260,
      "Pos": 8261,
      "Upang": 8262,
      "back": 8263,
      "layo": 8264,
      "tam": 8265,
      "##bayan": 8266,
      "##me": 8267,
      "##sag": 8268,
      "##yadong": 8269,
      "##dag": 8270,
      "##aris": 8271,
      "##ille": 8272,
      "##abag": 8273,
      "##aboy": 8274,
      "##olb": 8275,
      "##odigo": 8276,
      "##yog": 8277,
      "kailangang": 8278,
      "magpang": 8279,
      "anong": 8280,
      "panulok": 8281,
      "katalagman": 8282,
      "##istiko": 8283,
      "mail": 8284,
      "maangkon": 8285,
      "Marg": 8286,
      "kapanganakan": 8287,
      "natut": 8288,
      "trilyon": 8289,
      "palad": 8290,
      "Nagah": 8291,
      "##aligtas": 8292,
      "kilid": 8293,
      "Escal": 8294,
      "Distr": 8295,
      "magbigay": 8296,
      "musikang": 8297,
      "kumpara": 8298,
      "ihatag": 8299,
      "Syria": 8300,
      "nakapagp": 8301,
      "Henry": 8302,
      "Gaza": 8303,
      "dulunan": 8304,
      "Gilayon": 8305,
      "##atsment": 8306,
      "##ellana": 8307,
      "temperatura": 8308,
      "Vietnam": 8309,
      "gaanong": 8310,
      "3rd": 8311,
      "Are": 8312,
      "Gon": 8313,
      "Gamit": 8314,
      "Lt": 8315,
      "Mes": 8316,
      "Rev": 8317,
      "Swan": 8318,
      "Yah": 8319,
      "bukod": 8320,
      "dom": 8321,
      "hiwalay": 8322,
      "li": 8323,
      "sent": 8324,
      "##kos": 8325,
      "##IA": 8326,
      "##angalang": 8327,
      "##alahan": 8328,
      "##alupang": 8329,
      "##inar": 8330,
      "##isag": 8331,
      "##abaan": 8332,
      "nagng": 8333,
      "pangabudlay": 8334,
      "##ogon": 8335,
      "panadlong": 8336,
      "matinding": 8337,
      "##alayong": 8338,
      "mahirap": 8339,
      "tubi": 8340,
      "abaga": 8341,
      "##umpa": 8342,
      "##inoon": 8343,
      "pagpapan": 8344,
      "ministro": 8345,
      "##ifacio": 8346,
      "Banwa": 8347,
      "detatsment": 8348,
      "Council": 8349,
      "industriyal": 8350,
      "Liber": 8351,
      "platun": 8352,
      "Tagapag": 8353,
      "pagpahulag": 8354,
      "imprastruktura": 8355,
      "Bonifacio": 8356,
      "konstruksyon": 8357,
      "kaimulon": 8358,
      "Richard": 8359,
      "ganansya": 8360,
      "Escalante": 8361,
      "Swannie": 8362,
      "44": 8363,
      "Bra": 8364,
      "Cand": 8365,
      "Chi": 8366,
      "Div": 8367,
      "Gary": 8368,
      "Mags": 8369,
      "Makita": 8370,
      "Paga": 8371,
      "Rad": 8372,
      "Rights": 8373,
      "balangkas": 8374,
      "dak": 8375,
      "higayon": 8376,
      "igo": 8377,
      "libong": 8378,
      "reklam": 8379,
      "ulat": 8380,
      "wakas": 8381,
      "##mot": 8382,
      "##agtag": 8383,
      "##atras": 8384,
      "##ilig": 8385,
      "##erol": 8386,
      "##yonal": 8387,
      "##estra": 8388,
      "nagtrabaho": 8389,
      "ginto": 8390,
      "##ipos": 8391,
      "##urog": 8392,
      "##ely": 8393,
      "##round": 8394,
      "##uhat": 8395,
      "##reat": 8396,
      "##iyan": 8397,
      "halit": 8398,
      "order": 8399,
      "kadahil": 8400,
      "pasahero": 8401,
      "asin": 8402,
      "##aliit": 8403,
      "supor": 8404,
      "Katipunan": 8405,
      "1983": 8406,
      "inilunsad": 8407,
      "bayad": 8408,
      "##lywood": 8409,
      "1946": 8410,
      "manggaran": 8411,
      "Kristiyanong": 8412,
      "hayagan": 8413,
      "Canlaon": 8414,
      "awitin": 8415,
      "awiting": 8416,
      "Lorena": 8417,
      "##tyur": 8418,
      "kimikal": 8419,
      "limitado": 8420,
      "Intsik": 8421,
      "simpleng": 8422,
      "Indonesia": 8423,
      "Western": 8424,
      "74": 8425,
      "Sic": 8426,
      "Science": 8427,
      "Vill": 8428,
      "bun": 8429,
      "ro": 8430,
      "tumulu": 8431,
      "##tibong": 8432,
      "##vi": 8433,
      "##hawa": 8434,
      "##angil": 8435,
      "##ulus": 8436,
      "##ising": 8437,
      "##ume": 8438,
      "##agalaw": 8439,
      "##oled": 8440,
      "ginm": 8441,
      "##ukay": 8442,
      "##row": 8443,
      "##iri": 8444,
      "paaralang": 8445,
      "sinag": 8446,
      "kalapit": 8447,
      "##undong": 8448,
      "karne": 8449,
      "kinagamo": 8450,
      "mahim": 8451,
      "mahahalagang": 8452,
      "##tortyur": 8453,
      "napilitan": 8454,
      "##aranas": 8455,
      "marahil": 8456,
      "tagapam": 8457,
      "##ecial": 8458,
      "##untunin": 8459,
      "1993": 8460,
      "Romeo": 8461,
      "Pinag": 8462,
      "nakatira": 8463,
      "##ermon": 8464,
      "Columb": 8465,
      "kuwentong": 8466,
      "anime": 8467,
      "indibiduwal": 8468,
      "puwers": 8469,
      "Support": 8470,
      "dokum": 8471,
      "nagtatrabaho": 8472,
      "##ugtog": 8473,
      "nabatyagan": 8474,
      "Records": 8475,
      "Kalakhang": 8476,
      "Alexandria": 8477,
      "asosasyon": 8478,
      "51": 8479,
      "Dar": 8480,
      "IP": 8481,
      "Kn": 8482,
      "Miss": 8483,
      "Pok": 8484,
      "Sak": 8485,
      "Time": 8486,
      "bundok": 8487,
      "dakilang": 8488,
      "laki": 8489,
      "plas": 8490,
      "##vice": 8491,
      "##fi": 8492,
      "##ON": 8493,
      "sat": 8494,
      "sanggun": 8495,
      "##ulto": 8496,
      "##apekto": 8497,
      "##orp": 8498,
      "##idel": 8499,
      "kaisa": 8500,
      "pangg": 8501,
      "pangt": 8502,
      "pagpab": 8503,
      "##entang": 8504,
      "katimugang": 8505,
      "malinong": 8506,
      "aktor": 8507,
      "kalipay": 8508,
      "##igar": 8509,
      "kahalaga": 8510,
      "alamat": 8511,
      "##mano": 8512,
      "mahatagan": 8513,
      "estad": 8514,
      "pagpangawat": 8515,
      "nagsilbi": 8516,
      "##ulatan": 8517,
      "##asakaan": 8518,
      "operation": 8519,
      "pinakamab": 8520,
      "pampubliko": 8521,
      "##bayad": 8522,
      "naniniwala": 8523,
      "nagasingki": 8524,
      "1979": 8525,
      "##ihiyong": 8526,
      "nilalang": 8527,
      "pabalik": 8528,
      "partikulo": 8529,
      "Star": 8530,
      "plast": 8531,
      "Apol": 8532,
      "doktr": 8533,
      "Ilocos": 8534,
      "silid": 8535,
      "personalidad": 8536,
      "inihayag": 8537,
      "reaksyonaryo": 8538,
      "tiraniko": 8539,
      "##asakupan": 8540,
      "##eranya": 8541,
      "irigasyon": 8542,
      "suliranin": 8543,
      "damdamin": 8544,
      "##eligro": 8545,
      "Big": 8546,
      "Cla": 8547,
      "Dol": 8548,
      "Dion": 8549,
      "Group": 8550,
      "Khan": 8551,
      "Mala": 8552,
      "Meh": 8553,
      "emp": 8554,
      "has": 8555,
      "iisa": 8556,
      "po": 8557,
      "payag": 8558,
      "tupad": 8559,
      "##lish": 8560,
      "##60": 8561,
      "##LE": 8562,
      "##astern": 8563,
      "##ayad": 8564,
      "##iles": 8565,
      "##akwit": 8566,
      "pagdiriwang": 8567,
      "##ads": 8568,
      "istruktura": 8569,
      "iskolar": 8570,
      "##irc": 8571,
      "pautang": 8572,
      "kasingk": 8573,
      "katam": 8574,
      "katunga": 8575,
      "##rehi": 8576,
      "matatag": 8577,
      "maiwasan": 8578,
      "kapalit": 8579,
      "pagsalakay": 8580,
      "pagtatapos": 8581,
      "nangyayari": 8582,
      "kamuklat": 8583,
      "oposisyon": 8584,
      "kumakatawan": 8585,
      "Pagpang": 8586,
      "##angkop": 8587,
      "##ataang": 8588,
      "palitan": 8589,
      "mabudlay": 8590,
      "Isla": 8591,
      "##ocus": 8592,
      "##ector": 8593,
      "pinagh": 8594,
      "1973": 8595,
      "nagalab": 8596,
      "kaugalian": 8597,
      "itim": 8598,
      "Order": 8599,
      "Matuod": 8600,
      "##ertad": 8601,
      "Mindoro": 8602,
      "pwersahan": 8603,
      "hitsura": 8604,
      "payak": 8605,
      "monopolyo": 8606,
      "Jonerol": 8607,
      "Fernando": 8608,
      "madamuan": 8609,
      "opereytor": 8610,
      "Hindu": 8611,
      "kamuklatan": 8612,
      "59": 8613,
      "Mundo": 8614,
      "NGA": 8615,
      "Song": 8616,
      "Sem": 8617,
      "Tar": 8618,
      "dula": 8619,
      "dungganon": 8620,
      "leksyon": 8621,
      "play": 8622,
      "₱5": 8623,
      "##krip": 8624,
      "##siya": 8625,
      "##cess": 8626,
      "##inb": 8627,
      "##isadong": 8628,
      "##apay": 8629,
      "##apta": 8630,
      "##apekt": 8631,
      "##ikas": 8632,
      "##enang": 8633,
      "##igot": 8634,
      "##ody": 8635,
      "##empor": 8636,
      "magpat": 8637,
      "analis": 8638,
      "ilabe": 8639,
      "panig": 8640,
      "##uparan": 8641,
      "katarungan": 8642,
      "##oph": 8643,
      "malamang": 8644,
      "##ilipon": 8645,
      "kinat": 8646,
      "##raft": 8647,
      "madalom": 8648,
      "nagsasalita": 8649,
      "##ross": 8650,
      "binuksan": 8651,
      "##ultant": 8652,
      "bilyong": 8653,
      "konsentr": 8654,
      "tropang": 8655,
      "posisyong": 8656,
      "Krus": 8657,
      "pinagt": 8658,
      "##iller": 8659,
      "nalab": 8660,
      "##anggol": 8661,
      "medyo": 8662,
      "Mont": 8663,
      "Internet": 8664,
      "gamot": 8665,
      "Special": 8666,
      "##irmahan": 8667,
      "pamatukan": 8668,
      "konteksto": 8669,
      "pamilihan": 8670,
      "nahanungod": 8671,
      "liberalisasyon": 8672,
      "##ospital": 8673,
      "kabanata": 8674,
      "militante": 8675,
      "pagsulundan": 8676,
      "Bern": 8677,
      "DA": 8678,
      "Digmaan": 8679,
      "Hor": 8680,
      "Kadl": 8681,
      "Lip": 8682,
      "Mans": 8683,
      "Nov": 8684,
      "Namatay": 8685,
      "Pri": 8686,
      "Say": 8687,
      "gal": 8688,
      "hing": 8689,
      "hors": 8690,
      "mismong": 8691,
      "tanda": 8692,
      "##tay": 8693,
      "##uce": 8694,
      "##onia": 8695,
      "##amantalang": 8696,
      "##abato": 8697,
      "##enna": 8698,
      "##orma": 8699,
      "##andam": 8700,
      "pana": 8701,
      "ibon": 8702,
      "##antayan": 8703,
      "##ste": 8704,
      "##uwid": 8705,
      "##acter": 8706,
      "pagbin": 8707,
      "napap": 8708,
      "pagpangs": 8709,
      "mabuting": 8710,
      "##imbuok": 8711,
      "kontribusyon": 8712,
      "nagtuga": 8713,
      "sumulat": 8714,
      "##rato": 8715,
      "anting": 8716,
      "basta": 8717,
      "1975": 8718,
      "apoy": 8719,
      "politiko": 8720,
      "##ilanlan": 8721,
      "##ungkag": 8722,
      "Lee": 8723,
      "gilid": 8724,
      "tingnan": 8725,
      "integ": 8726,
      "System": 8727,
      "Regional": 8728,
      "Soledad": 8729,
      "Konseho": 8730,
      "kinakailangan": 8731,
      "matematika": 8732,
      "hakbang": 8733,
      "simbolo": 8734,
      "tagapagtatag": 8735,
      "Upod": 8736,
      "##sobispo": 8737,
      "Baga": 8738,
      "Film": 8739,
      "Id": 8740,
      "Lima": 8741,
      "MT": 8742,
      "Main": 8743,
      "Mex": 8744,
      "Ut": 8745,
      "aab": 8746,
      "bus": 8747,
      "baka": 8748,
      "tampok": 8749,
      "##uay": 8750,
      "##serb": 8751,
      "##antry": 8752,
      "##alogo": 8753,
      "##onna": 8754,
      "##ayaran": 8755,
      "##ams": 8756,
      "##ulum": 8757,
      "##aho": 8758,
      "##unah": 8759,
      "##enya": 8760,
      "##estr": 8761,
      "##organ": 8762,
      "##agamb": 8763,
      "##idunggan": 8764,
      "##elas": 8765,
      "##uktor": 8766,
      "nagapat": 8767,
      "real": 8768,
      "ibalik": 8769,
      "##inao": 8770,
      "pray": 8771,
      "##lock": 8772,
      "alak": 8773,
      "kinas": 8774,
      "##ansagan": 8775,
      "paghang": 8776,
      "##rique": 8777,
      "one": 8778,
      "magasin": 8779,
      "Nagat": 8780,
      "##alimang": 8781,
      "magkakas": 8782,
      "nagahiliug": 8783,
      "##ektahan": 8784,
      "##grap": 8785,
      "partidong": 8786,
      "kilos": 8787,
      "inilalarawan": 8788,
      "pinagk": 8789,
      "kagab": 8790,
      "##ingkod": 8791,
      "pilason": 8792,
      "##talion": 8793,
      "artist": 8794,
      "##ife": 8795,
      "##agmak": 8796,
      "Health": 8797,
      "makakuha": 8798,
      "pamantayang": 8799,
      "##ijing": 8800,
      "ginapatuman": 8801,
      "pinagsama": 8802,
      "system": 8803,
      "pangkalinungan": 8804,
      "##uswagon": 8805,
      "Domingo": 8806,
      "uyatan": 8807,
      "romant": 8808,
      "Koreano": 8809,
      "paramilitar": 8810,
      "41": 8811,
      "Jes": 8812,
      "LNG": 8813,
      "Malapit": 8814,
      "Work": 8815,
      "Waay": 8816,
      "iyong": 8817,
      "top": 8818,
      "tema": 8819,
      "##zan": 8820,
      "##IN": 8821,
      "##IS": 8822,
      "##GC": 8823,
      "##akw": 8824,
      "##isi": 8825,
      "##apiko": 8826,
      "##awalang": 8827,
      "##esar": 8828,
      "##olisyon": 8829,
      "inhen": 8830,
      "kaal": 8831,
      "##omon": 8832,
      "anunsyo": 8833,
      "pinah": 8834,
      "nakamit": 8835,
      "##etong": 8836,
      "katawagan": 8837,
      "Ginapan": 8838,
      "##aci": 8839,
      "halamang": 8840,
      "##apatid": 8841,
      "pagtanggap": 8842,
      "natabu": 8843,
      "##ahatang": 8844,
      "paliparan": 8845,
      "aber": 8846,
      "ginapigos": 8847,
      "nagbabago": 8848,
      "Nagapang": 8849,
      "Agusan": 8850,
      "##aligt": 8851,
      "##alapi": 8852,
      "Masami": 8853,
      "##abatang": 8854,
      "Pangun": 8855,
      "Battalion": 8856,
      "Matatagpuan": 8857,
      "1949": 8858,
      "artip": 8859,
      "Hall": 8860,
      "Industr": 8861,
      "republ": 8862,
      "##amdam": 8863,
      "Joeven": 8864,
      "ambag": 8865,
      "Diyosesis": 8866,
      "Exp": 8867,
      "soberanya": 8868,
      "reaksyonaryong": 8869,
      "tagasuporta": 8870,
      "ebidensiya": 8871,
      "Galil": 8872,
      "Sibil": 8873,
      "Portug": 8874,
      "isinasagawa": 8875,
      "kasangkapan": 8876,
      "bastante": 8877,
      "Hispan": 8878,
      "64": 8879,
      "65": 8880,
      "Apat": 8881,
      "Bil": 8882,
      "Doc": 8883,
      "Found": 8884,
      "Mur": 8885,
      "NC": 8886,
      "Pumulu": 8887,
      "Ramon": 8888,
      "Sat": 8889,
      "Santi": 8890,
      "dutang": 8891,
      "global": 8892,
      "hingan": 8893,
      "ruta": 8894,
      "tugon": 8895,
      "##par": 8896,
      "##ear": 8897,
      "##cel": 8898,
      "##MP": 8899,
      "##RC": 8900,
      "##anggo": 8901,
      "##atra": 8902,
      "##ilalang": 8903,
      "##amahalaan": 8904,
      "##akos": 8905,
      "##akod": 8906,
      "##ere": 8907,
      "##abong": 8908,
      "##utin": 8909,
      "##utusan": 8910,
      "##elong": 8911,
      "##ugol": 8912,
      "anon": 8913,
      "ilunsar": 8914,
      "pamahog": 8915,
      "##tress": 8916,
      "kasing": 8917,
      "##operasyon": 8918,
      "kabilogan": 8919,
      "Marami": 8920,
      "kalas": 8921,
      "##ugata": 8922,
      "##hana": 8923,
      "alon": 8924,
      "kinilala": 8925,
      "##alayon": 8926,
      "##ilingkod": 8927,
      "tumanggap": 8928,
      "##imbon": 8929,
      "bilis": 8930,
      "kakapoy": 8931,
      "1982": 8932,
      "Samantala": 8933,
      "##abaton": 8934,
      "Madamu": 8935,
      "pananampalataya": 8936,
      "inilagay": 8937,
      "##ather": 8938,
      "Community": 8939,
      "1978": 8940,
      "magbalik": 8941,
      "Project": 8942,
      "##hone": 8943,
      "1968": 8944,
      "lapsag": 8945,
      "kaangtanan": 8946,
      "manunudlo": 8947,
      "pagpauswag": 8948,
      "Nahibal": 8949,
      "kontrobers": 8950,
      "##oleon": 8951,
      "determinado": 8952,
      "nagsisimula": 8953,
      "pyudalismo": 8954,
      "pinakamahusay": 8955,
      "sirk": 8956,
      "diktaduryang": 8957,
      "Ebanghelyo": 8958,
      "bilangguan": 8959,
      "relihiyoso": 8960,
      "Infantry": 8961,
      "Louis": 8962,
      "inisyatiba": 8963,
      "Dinastiyang": 8964,
      "reklamasyon": 8965,
      "puwersang": 8966,
      "##unahuna": 8967,
      "58": 8968,
      "77": 8969,
      "73": 8970,
      "Bundok": 8971,
      "Fr": 8972,
      "Gat": 8973,
      "Hit": 8974,
      "Jeh": 8975,
      "Olay": 8976,
      "PU": 8977,
      "Simula": 8978,
      "galit": 8979,
      "saging": 8980,
      "tama": 8981,
      "##nes": 8982,
      "##uit": 8983,
      "##rub": 8984,
      "##cus": 8985,
      "##agin": 8986,
      "##ague": 8987,
      "nasyon": 8988,
      "##aru": 8989,
      "##eri": 8990,
      "##isahan": 8991,
      "##oryo": 8992,
      "nagpan": 8993,
      "##utaw": 8994,
      "##utig": 8995,
      "kani": 8996,
      "kanyon": 8997,
      "##okya": 8998,
      "malaba": 8999,
      "##antad": 9000,
      "aswang": 9001,
      "salabton": 9002,
      "##estival": 9003,
      "direksyon": 9004,
      "pagduso": 9005,
      "tagging": 9006,
      "paggalaw": 9007,
      "##agdagan": 9008,
      "apar": 9009,
      "Pamahalaan": 9010,
      "dati": 9011,
      "pangangasiwa": 9012,
      "silot": 9013,
      "Libertad": 9014,
      "Beijing": 9015,
      "Roxas": 9016,
      "Capiz": 9017,
      "nobelang": 9018,
      "Antio": 9019,
      "gawing": 9020,
      "English": 9021,
      "bloke": 9022,
      "State": 9023,
      "istraping": 9024,
      "ginpatuman": 9025,
      "House": 9026,
      "piraso": 9027,
      "paslawon": 9028,
      "Placida": 9029,
      "Gonz": 9030,
      "Olayra": 9031,
      "43": 9032,
      "66": 9033,
      "Coc": 9034,
      "Eastern": 9035,
      "Ham": 9036,
      "Land": 9037,
      "Mabaskog": 9038,
      "Pop": 9039,
      "Sik": 9040,
      "asod": 9041,
      "balan": 9042,
      "bantay": 9043,
      "guya": 9044,
      "haw": 9045,
      "hubon": 9046,
      "los": 9047,
      "mukha": 9048,
      "work": 9049,
      "##kl": 9050,
      "##karan": 9051,
      "##rong": 9052,
      "##yp": 9053,
      "##zer": 9054,
      "##RA": 9055,
      "##DA": 9056,
      "##atiba": 9057,
      "##atake": 9058,
      "##amental": 9059,
      "##ulub": 9060,
      "##ahalaga": 9061,
      "##isd": 9062,
      "##ady": 9063,
      "##abilang": 9064,
      "##yaga": 9065,
      "ating": 9066,
      "##org": 9067,
      "##iden": 9068,
      "ginpan": 9069,
      "##urch": 9070,
      "reyd": 9071,
      "##ette": 9072,
      "malalim": 9073,
      "karagatan": 9074,
      "##epensa": 9075,
      "pinakab": 9076,
      "madre": 9077,
      "paghigugma": 9078,
      "183": 9079,
      "sistemat": 9080,
      "pulitiko": 9081,
      "159": 9082,
      "katapuan": 9083,
      "produksiyon": 9084,
      "kolonya": 9085,
      "nagakat": 9086,
      "nagakad": 9087,
      "isinagawa": 9088,
      "pagtatanghal": 9089,
      "Taong": 9090,
      "Napoleon": 9091,
      "narar": 9092,
      "Diri": 9093,
      "soft": 9094,
      "lehitimo": 9095,
      "makatarunganon": 9096,
      "talakayan": 9097,
      "##ossil": 9098,
      "Babilonya": 9099,
      "##akamalaut": 9100,
      "baligyaanay": 9101,
      "Kadlum": 9102,
      "Pumuluyo": 9103,
      "hinganiban": 9104,
      "Aur": 9105,
      "Gay": 9106,
      "Jav": 9107,
      "Pap": 9108,
      "Plan": 9109,
      "Quin": 9110,
      "Ston": 9111,
      "Sugod": 9112,
      "card": 9113,
      "doble": 9114,
      "electr": 9115,
      "fossil": 9116,
      "guwa": 9117,
      "live": 9118,
      "magandang": 9119,
      "piling": 9120,
      "utos": 9121,
      "##nang": 9122,
      "##bas": 9123,
      "##zo": 9124,
      "##MO": 9125,
      "natanggap": 9126,
      "##ilyong": 9127,
      "##ilign": 9128,
      "##amis": 9129,
      "##akto": 9130,
      "##akbay": 9131,
      "##ulutan": 9132,
      "##usbong": 9133,
      "inang": 9134,
      "inilipat": 9135,
      "inutil": 9136,
      "ginanap": 9137,
      "##irin": 9138,
      "pamayanang": 9139,
      "pagkawala": 9140,
      "kasamang": 9141,
      "##uluwa": 9142,
      "Ginpa": 9143,
      "alagyan": 9144,
      "pagsabat": 9145,
      "batayan": 9146,
      "##alawan": 9147,
      "natalo": 9148,
      "##ebook": 9149,
      "opt": 9150,
      "##tory": 9151,
      "##ilio": 9152,
      "##akaisa": 9153,
      "track": 9154,
      "nagsulod": 9155,
      "labaw": 9156,
      "absol": 9157,
      "##siang": 9158,
      "Nagal": 9159,
      "Agr": 9160,
      "##asailalim": 9161,
      "Enrique": 9162,
      "##abataan": 9163,
      "nagasuporta": 9164,
      "bayaran": 9165,
      "1976": 9166,
      "nakatat": 9167,
      "nilalaman": 9168,
      "modern": 9169,
      "##ungkahing": 9170,
      "##anggihan": 9171,
      "pagmamay": 9172,
      "kusina": 9173,
      "ginakabig": 9174,
      "Conc": 9175,
      "Patri": 9176,
      "eksport": 9177,
      "Supr": 9178,
      "##ouse": 9179,
      "angkan": 9180,
      "Linyang": 9181,
      "estratehiya": 9182,
      "rebel": 9183,
      "##umdumon": 9184,
      "sasakyang": 9185,
      "praktikal": 9186,
      "##alintulad": 9187,
      "##rehiyon": 9188,
      "##apektuhan": 9189,
      "67": 9190,
      "88": 9191,
      "Ilan": 9192,
      "Las": 9193,
      "Nabat": 9194,
      "Pw": 9195,
      "Wakil": 9196,
      "Ysiang": 9197,
      "bisa": 9198,
      "do": 9199,
      "dila": 9200,
      "migr": 9201,
      "sunog": 9202,
      "uk": 9203,
      "##bey": 9204,
      "##pol": 9205,
      "##ayd": 9206,
      "##ahiwalay": 9207,
      "##ahuway": 9208,
      "##apu": 9209,
      "##unot": 9210,
      "##ikta": 9211,
      "athag": 9212,
      "inom": 9213,
      "##ube": 9214,
      "##alauman": 9215,
      "##ury": 9216,
      "##ugpon": 9217,
      "##traktura": 9218,
      "Ginab": 9219,
      "##iyento": 9220,
      "unahan": 9221,
      "pagsuporta": 9222,
      "pagbaha": 9223,
      "kinalaman": 9224,
      "pinakak": 9225,
      "bantog": 9226,
      "komb": 9227,
      "##mitte": 9228,
      "kumpanyang": 9229,
      "Pagh": 9230,
      "##angkutan": 9231,
      "##ahating": 9232,
      "##amana": 9233,
      "Kaang": 9234,
      "lumilikha": 9235,
      "##ampung": 9236,
      "magat": 9237,
      "##siyo": 9238,
      "Max": 9239,
      "nahalal": 9240,
      "179": 9241,
      "bumagsak": 9242,
      "dalagan": 9243,
      "##angyarihang": 9244,
      "detal": 9245,
      "1939": 9246,
      "Apostol": 9247,
      "pinangalanang": 9248,
      "petib": 9249,
      "bababa": 9250,
      "paligsahan": 9251,
      "tipo": 9252,
      "naitala": 9253,
      "nananatiling": 9254,
      "Security": 9255,
      "inhinyeriyang": 9256,
      "mahigko": 9257,
      "mabatian": 9258,
      "pagginahum": 9259,
      "palatandaan": 9260,
      "dalubhasa": 9261,
      "wasakon": 9262,
      "mersenaryo": 9263,
      "##kukunan": 9264,
      "78": 9265,
      "Bangk": 9266,
      "Bohol": 9267,
      "Fahm": 9268,
      "Heb": 9269,
      "Jan": 9270,
      "Kiko": 9271,
      "Lev": 9272,
      "Lumang": 9273,
      "Mam": 9274,
      "Mid": 9275,
      "Muh": 9276,
      "Soc": 9277,
      "Sison": 9278,
      "city": 9279,
      "dol": 9280,
      "iga": 9281,
      "kuhaon": 9282,
      "pen": 9283,
      "tamang": 9284,
      "wh": 9285,
      "##iot": 9286,
      "##papawid": 9287,
      "##westo": 9288,
      "##haan": 9289,
      "##IC": 9290,
      "##aguba": 9291,
      "##alamat": 9292,
      "##alde": 9293,
      "##inaya": 9294,
      "##aria": 9295,
      "##ilot": 9296,
      "##amihang": 9297,
      "##akaw": 9298,
      "##ulasyong": 9299,
      "##isidad": 9300,
      "##apantay": 9301,
      "isina": 9302,
      "##ores": 9303,
      "##ubad": 9304,
      "##alaunan": 9305,
      "##elyn": 9306,
      "magm": 9307,
      "pamins": 9308,
      "repr": 9309,
      "##ihas": 9310,
      "kontin": 9311,
      "##uluang": 9312,
      "hinango": 9313,
      "##himpapawid": 9314,
      "komprador": 9315,
      "##hai": 9316,
      "tumagal": 9317,
      "magag": 9318,
      "sako": 9319,
      "Santos": 9320,
      "pulos": 9321,
      "ipabilin": 9322,
      "pampag": 9323,
      "1981": 9324,
      "mineral": 9325,
      "Grand": 9326,
      "depende": 9327,
      "negosasyon": 9328,
      "teles": 9329,
      "liter": 9330,
      "diyosesis": 9331,
      "titser": 9332,
      "pinangalanan": 9333,
      "Rosa": 9334,
      "planta": 9335,
      "Oplan": 9336,
      "kinakailangang": 9337,
      "##ursigido": 9338,
      "sunud": 9339,
      "Cavite": 9340,
      "astronom": 9341,
      "Balikatan": 9342,
      "kalalakihan": 9343,
      "nagngangalang": 9344,
      "82": 9345,
      "Je": 9346,
      "Mahal": 9347,
      "Mataas": 9348,
      "Sm": 9349,
      "SE": 9350,
      "Zion": 9351,
      "bark": 9352,
      "dist": 9353,
      "ga": 9354,
      "mong": 9355,
      "pera": 9356,
      "tonel": 9357,
      "##ger": 9358,
      "##bes": 9359,
      "##uyong": 9360,
      "##hu": 9361,
      "##hal": 9362,
      "##hol": 9363,
      "##het": 9364,
      "##alian": 9365,
      "##asing": 9366,
      "##amanan": 9367,
      "##aksyon": 9368,
      "##apanaog": 9369,
      "##ikway": 9370,
      "##usga": 9371,
      "##ipot": 9372,
      "##ukol": 9373,
      "##uhoy": 9374,
      "kanon": 9375,
      "##other": 9376,
      "masas": 9377,
      "masingki": 9378,
      "##leh": 9379,
      "pagkons": 9380,
      "malaman": 9381,
      "##uluan": 9382,
      "Ginlunsar": 9383,
      "hinaharap": 9384,
      "##ianay": 9385,
      "pagtib": 9386,
      "karamdaman": 9387,
      "natalana": 9388,
      "paglipas": 9389,
      "##unoan": 9390,
      "nagpakita": 9391,
      "##tindi": 9392,
      "pangkabil": 9393,
      "asud": 9394,
      "##ember": 9395,
      "##lingkod": 9396,
      "pagpamahog": 9397,
      "Asian": 9398,
      "##alapnag": 9399,
      "Romanong": 9400,
      "magsasaka": 9401,
      "##agalang": 9402,
      "aplikasyon": 9403,
      "linyang": 9404,
      "##lands": 9405,
      "obl": 9406,
      "Ginpas": 9407,
      "pagbabalik": 9408,
      "pangmat": 9409,
      "henos": 9410,
      "France": 9411,
      "ekstr": 9412,
      "ugali": 9413,
      "nars": 9414,
      "Crist": 9415,
      "planeta": 9416,
      "koponan": 9417,
      "pangkasaysayan": 9418,
      "responsibilidad": 9419,
      "tagapags": 9420,
      "Houston": 9421,
      "sigurado": 9422,
      "species": 9423,
      "pinaniniwalaang": 9424,
      "##ogado": 9425,
      "eksperimento": 9426,
      "konsolidasyon": 9427,
      "##uksok": 9428,
      "Fahmida": 9429,
      "68": 9430,
      "Bicol": 9431,
      "Just": 9432,
      "Kabataan": 9433,
      "Li": 9434,
      "Lir": 9435,
      "Local": 9436,
      "Mos": 9437,
      "Memor": 9438,
      "Nueva": 9439,
      "SM": 9440,
      "Sist": 9441,
      "Sulu": 9442,
      "der": 9443,
      "kesa": 9444,
      "lat": 9445,
      "laman": 9446,
      "mul": 9447,
      "non": 9448,
      "sec": 9449,
      "wat": 9450,
      "##euc": 9451,
      "##hig": 9452,
      "##fo": 9453,
      "##BA": 9454,
      "##aland": 9455,
      "##ilim": 9456,
      "##itis": 9457,
      "##esisyon": 9458,
      "##ipit": 9459,
      "##uruan": 9460,
      "##utr": 9461,
      "pagkah": 9462,
      "nakakita": 9463,
      "araling": 9464,
      "kabaylo": 9465,
      "Ginawa": 9466,
[...]
